BD69ED0D
3CCDBD11
BEA1E145
BEF6DABA
3C166976
3D9C4F06
BED75029
BED1B2CC
BE0A54F9
BD0859C1
3DD2103C
BCDF7BEA
3E8EAE13
3E8A9013
3D45B2CD
3DC1BAA9
3EB66B8E
3ECEF57A
3E89B8B5
BD560B75
BCA29083
3C8E50CF
BC322372
3CFBF662
3E288775
3E32A341
3E9F24AF
BE379699
BE2D679E
3E3F2439
3E5AD4D0
BE679C43
BEBC4A45
3BD320F2
3E8A4D94
BD1E6408
BE124FC4
3E4062F8
3E32CAA6
BD274169
BDBA72AF
3DEAB951
3E34B471
3CDEF060
BEA6435C
BDB84155
BDC416B8
BDB6A207
3CD331F0
BE254122
BD238675
3DF0C5F6
BEB4E6E9
BEBB00DE
3E03A61F
3BD770C2
BE9E3178
BF006B34
BDADDB13
3D1A12AE
BD085C50
BCBC7864
3E991278
3E21B521
BDFFA82F
3D767403
3E9D2872
3ECEF029
3DA0BDEE
3D1A0F32
BC419122
BC98ED3A
3DCB9837
3DCC316E
BD04C21A
BE3D2DB6
3DFBE71D
3E0CB9F9
BEA6F1A9
3D867A18
BE687E95
3E8F4B05
3DBF5AC3
BE758596
3DD139C5
BEAF201A
3F0A07A4
3E1D3D44
BEAF8869
BC9637ED
BEA67D8B
3EE0CC0A
3DE37A94
BE859277
BD913DE8
BDA86A2D
3EB66730
3CEB3B02
BE53728E
BD64EC46
BE9B60B7
3E7B5A0C
3D1B3638
BE20DC18
3E0C6B1D
BED23ADC
3E7146D7
3DC3AD4A
BE9609F4
BA85D83F
BED4F486
3EDD502A
3E3A6E16
BE47B0B9
3E2E6196
BEB54D91
3EB1523B
3E143DE4
BE52E3B8
3D7653EA
BE8D5537
3EB06D5A
3DB9E10A
BE87E471
3C6A377C
BE95C002
3E78B5C1
3E3A9C62
BE1F5275
3D93124A
BECADB94
3EC9839E
3E114F0E
BEA12DA5
3D866E4F
BEDC36B5
3F0425EA
3E00875B
BE755AC1
3DAE629F
BEF0A0B8
3F0978E0
3E2E18D6
BEAAD572
3DB72F3A
BE9296A6
3F002A9A
3E3F22D0
BE031611
3D7D28C7
BC3E2EF3
3EB99096
3E2E86CB
BC4C682C
BD34A6AA
BD691889
3EA58786
3EDE3335
BD9C5F63
BDA4C528
BDD7A888
BE342FE0
BCF8966E
BD32E789
BD845D66
BCD01F34
BE963099
BEA69F05
BCE70CB1
3DDE50CD
3D67B29F
BE05A589
BE01A778
3D20860E
BC4F948B
BE03204A
3E822475
3DACBE9D
BE3A2A8B
BE24B307
BE2AD43B
3E222EEF
3E99534F
BDB11A2D
BE71E19E
3912A0D7
BEA6D8B4
BDF973ED
3D9DFC42
3E6420E3
3E465B14
BE6004DF
BED0471C
3D8A2442
3E4249B1
3E1EE979
BDC85BF1
BE5F8A12
3E1699A1
3DEB8124
3CCCA6A5
3EE46332
3EAE4807
BE3FF00E
BE47BF9B
BDF37E00
3E83D61D
3F125F4F
3CBA271B
BDA74EFC
BDA0E69E
BDB8A231
BE64467D
BBFFDF64
3E015E25
3D0D8A54
BEC5FFE5
BEE4C433
3DA6E3DE
3E1C14DC
3D87D52E
BD92F19C
BD172E56
BDA5FEDB
BCBB1DC3
BE06D70A
3D52C3B3
BD4FE75A
3DFBDBA3
3DE01629
BE880185
BE40FA2B
3C938699
BC96D076
BE099D4F
BCF6161D
3D968160
3D01B85A
3E4F7FC2
BD9BE389
BE8E3C65
3AD0F30A
BD14D185
3E26704D
BD3E1450
BD4D7B89
BC5668A8
BDFDA204
3E2264FC
3E314654
BDA806A1
3E658FDF
3E3978AF
3E552917
3DA51E81
BE3DAB2E
BE3D302F
BE546B53
BE86BB00
BDDB239C
3C3C7474
3E1357D5
3E3DE822
3CEC7595
BDBC8635
BC93467F
3AE07435
3DBE3144
3D052C91
3D62AE7B
BDE94746
3DAADFA3
BE13FC3F
3C79D54A
3D95821D
BD9D7480
3D1AAC51
3D5FC8FC
BD8D4B47
BDC21FEB
BE745B0E
BCD3E3DE
BDF06E37
BE609E95
BE7B21D5
BE05B592
3DDCE8D2
3E162657
BD7E7464
BE53DB01
BDA7C900
3CE28AA1
3E667409
3DE912DD
BDC61F76
BD8CDE8D
3E272A52
BC9DD67A
3D329AE8
3E3325BD
BE1DDF91
39BCBA4D
BCF55212
BCB3C4BE
3E20A483
BD4157BD
3CCA7ABB
BCACCA51
BE86FBA6
3EEBD337
3C7460B6
3E00A86B
BE16369F
BEF3E86E
3EDEACC5
BC824C0F
3D163710
3C15FFAD
BEF9B19A
3ED3C730
BD939DFA
BBD78E3B
3D9DAB5C
BEC194FA
3E8AA283
3DC0116B
3E11680F
BDCA8405
BEA29EDB
3E4BBB6B
3DF1B2BA
3E761718
BE214B55
BF02EBE9
3E76361F
3DE5C49B
3E62D674
BCD95CD1
BF11D7ED
3EE3A215
BD853B28
3E8394B0
BDC7FE78
BF0361C0
3E2FB5E7
3D9AD4EF
3E49E05A
BCC2592B
BEA167F5
3DAED037
BC89031F
3E01A4B0
3914A4CA
BEA8FAAB
3D22B061
3B9B26EC
3E5E48BD
BD50FFE3
BEC66FF8
3E755EA4
3D98E08B
3E4ED0ED
BDC51DD7
BF0883A1
3E43B83B
3DEFA6D0
3E6A4B11
3B70BAEB
BEE4BDD1
3E9023FE
3E37A436
3E693368
BB918FC3
BEB6ADDD
3DE668E9
BC9140B9
BEB595C7
BE34117E
3CB666BD
3DCFF47B
BE42E031
BE0155A9
BE3C5343
BC8EBE7D
BDF851D6
3DB4D38B
3CBBBC09
BE45F264
BE8F845E
BDA81789
BDF6AAC7
3D801C97
BBBDEC74
3D21E905
3DD0E6BB
BC43DCEE
3C811570
3DB152B0
3DE451EB
3E567F1A
3E044CD9
BE675A21
BDB009ED
3DF4B036
3DAF15FA
BE58C0A0
BD3A8C65
3CEF14B7
BD9D93EE
BE1347E5
3CBD1B7D
3D3379B6
BE06370B
BE99BFED
BE25D25F
BB047F7A
BD2C8C5F
3B6D5ED8
BDF37B0F
BE00CE01
BE0F13EC
3BDEDA5B
BD917B65
BDA0AB81
BD261BA8
3E195589
BD92C35C
3BF78B2B
3E322971
3E954CDD
BDC05146
3E1069C2
3E924F07
3EB495F6
3D84B598
3EA46DA7
3E8B0C59
3DD8C708
3DC78E31
3D0D5C8B
3DC59701
3E12464B
3E289B39
3CE41B7F
39743EEE
BDCDACD3
3C8A9E13
3DD24761
BD64B491
3D34157A

