3C0BEBBA
BD2F5D11
BB2F795B
BC04B812
BBB6E78F
BC9DD4DA
3D10A889
BCDFF5F7
BC365A32
BD85DEB6
BBF5B390
3B01D2FD
3CAC9BC3
BD312AE5
BC3A6BCD
BCF5160A
BB8CC634
BD443904
3C2B357C
3CA15B10
3B9DEC54
3D55112D
395224B8
3C64B5E9
BC387930
3CB493CA
BC5A1C6D
3D23E407
BCFF137B
BAEDD3F7
3D0B18A7
BD379393
BD1A2226
3D3D9D1B
3BE7506F
3C7A8AF0
BD138DE8
3D1E3B59
3D0E199E
BD1B9209
3BD1724C
BCA888E2
3D644632
BCD79EC9
3CD03517
3D2A452E
BCEF9E72
BD248EC2
3C9CF0E0
3CC9A613
BCBACC9B
3C4D4F10
BA914F41
BCC97C3E
BD3010A7
3D3EA79C
BC867B0A
BD15BF05
BD57AFD8
BD0D9BE9
BBA2B9CC
3D71B262
3D167727
BC735FA1
BC51FD20
3D3CD839
3C99FA12
3BCC2E7E
BD1D4D5D
BCC5005F
BD29060D
3CB48AD6
3CE38A41
BC9806E3
BD7C6229
3D0031AC
BCDAB230
BD1FAA5F
3D36F8E7
3C339930
3C796741
BC5B122B
3D6A8B17
BD42A512
BD4C8E20
3C988D22
BC2732D5
BD51028A
BCE67DB2
BD052AE8
BD5BD0AD
BD4417A5
BC8D38E2
BCEE8C52
3D5551EE
3CA40302
BC4AC87A
3B32EF38
3CB5A4C0
BCF51999
BCA494B9
BD1E03D9
3C40CB1D
3C9D2330
BD550BB1
BBB80D94
BD4F0393
3CE29398
BD3E9E19
BC38708F
BD39D7D7
3B4A1E00
BCE4A175
BD5A420E
BC2A6BB3
3CD3333B
BB46DE73
3D458563
BB9B67B9
BC7CD4E6
BD2568D2
3C95BE07
BCDAB0D1
BD2885EB
BC178281
3C7CA340
3D27A324
3B128D42
3D07EF1E
3D22DC82
BD018FA4
3B9D62A3
3D2FF189
3D6A1FC1
BC806901
BC9DCA39
BCE9E118
BD0BBCAF
3D0AAA18
BC9C8A31
BCB96559
3D4C459A
3C94A68E
BC7D951D
BD26B3CC
3CDA8B8C
3D494021
BB0C6290
BD14C5DE
BD31F208
3CAE8A61
BCB68705
BA823321
3C7794D9
BCA12873
BC8954B7
3D007119
BD19A64B
BD076A8C
3C18B1E3
3C77718A
BBACB7D8
3D2C2E72
3D15ED45
BCD2B431
3C07456F
3CEEFCBB
BD3C3C19
BCA7BB02
3D08E5B7
BC3EF2D3
BCFB6E03
BD43795F
BD596976
3BBE286B
3C08198D
3D546240
3C4ABF25
BD32D16E
BBE7DDDE
3B0A73D1
BC79DBCA
3C448ED1
3C253D75
3D174D8B
BD34BD74
3C3A0E60
3C7F8022
3BEC4469
BC469006
3CD29FD7
3D21099B
3AB9B182
BD69CBA2
BD0FA258
BD66F3EC
BD5AB4BF
BAA214EB
BC869BC5
BD17EF1A
BCD422AC
3C74B6F1
BCF802BD
3CCFDC8F
BCC6116E
3CDF03EB
BC94FB7A
3D1A03A3
3CA158DC
3C39CA32
3C81BC4E
BD08CE6A
BC6DCD14
3C5BDBBF
3D001417
3D03C46E
3D48665B
BCE532CE
3D1B2F16
3BD942B2
3D000D19
3BBA6423
3D21A081
BD59787D
BD01350A
3AB5B29E
3B4EDE75
3D2F2587
BCB2753B
3ABA4FE4
BD5E1690
BD432704
BCC9B3B9
3D170506
BC9559EC
BD17C649
BD72DEBC
BD3BAF6A
3D1A2382
3CDF0C3F
3D51B378
3D2BDDA4
3C94B19E
3BBF9152
3C4E85F7
3D324F7F
BBA70F8F
BD0668FC
BD455C2E
BD52EC64
3D5449DC
BCB9E7A7
3C60D23E
3D21BCFF
BAB9C7FD
BB9C671B
3B97A85F
3CC8B5C2
BBDE591D
3D097418
BCC23D17
3D061759
3D14F0BD
3CDC8F22
3C9A4DF4
3C92674C
BD359AC2
BC51EE03
3C4DCA88
BD17D374
BCB26448
BD55ACA0
BD30BD48
393012F3
BD0B44AC
BC31E0E5
BCDAF956
3BE4B4EB
BB8273BE
BC510FB6
3D3AEBDF
BD34C9A0
3D317887
BC262AF8
3D3B376A
3D0B8FE0
BCD254DD
BCABA41D
BD230639
3CE40D28
387FF709
3CC849D8
BCED9A18
3D4D2BC0
BC2FB957
3D5E2E72
BD2A2563
3D184D27
BCFB46D0
3D15ADB4
3D343EE0
3D657F52
BD09A04B
BCB24679
3D3773D4
BCD20BD0
BD2391A5
BCED327B
BD580852
3CBE8DF4
BCF0C619
BC9E5DDC
BD8319EA
BD8933A0
BD58A62D
BD12D62D
BCA3E3F5
BD17270B
BD94DEDC
3C14301D
BD0B4D16
BC94204D
BD675ECF
BCD45D5E
BCAB8E4D
BD32F4F2
BC0C4EF3
BC16EDF6
BCB010D6
39D7E32A
BC98DC86
BBB41505
BC5C5729
BC8DE0A3
3C5B557A
3D3EEE10
BD49AD0D
BC3DBCF0
BC3E0D14
3D0CFC8F
3D0B591A
3D03A917
BCCDD89D
3CEB5E2E
BCFA6597
BD25C4C7
BC1B0DC1
3D6139E4
3D6C0B23
3CED579A
BC1EEB96
3D0CBAA1
3CE8DB18
3D2CEFD2
BB9C77D4
BCBE6442
BC546858
BD3EA14D
3CBFE666
BC960ED5
BA46C35E
BD2CF6F5
3C8AF4E7
3C2F4D65
3D3D112E
3AB951A2
BC0AABC2
3CCC9748
3CEA5C0F
BC739B45
BD24B625
BD245384
3D015A38
3CAD4FDC
BB5F5076
3D06C603
3CA0096F
BD6220CE
BCA45BDE
BD0DAE94
3D58B247
3D86C30A
3D54C6B3
BD630084
3C9C4B89
3D400638
3CA55ABF
BD3245B4
3BD2DFFE
BD45C5D3
3D24AEBC
BC4EE570
3CF914BD
BD52F002
3B59C5C0
BCB7590B
3CBF8374
BCF64CA6
3D17F405
3C010208
BA801AD3
3C934777
3CF6A036
3C84FDC4
3D2A99FC
3D16DE67
BD29220B
3CA739A4
3A4D310F
3B1D6FD3
BC06A65F
3D07AAA8
3CC37B46
3D4190B0
3D2AD814
3D0992F8
3CCAF95A
BC566CDA
BD281647
3C6C7767
3D316ED7
3D39AB3A
3C398A2B
3D01147B
BD0ECBDA
BC164FDA
39D04E6A
BAA8D90F
3D1BFA46
3C9F965F
3D478602
3D1058FB
3CA413DD
3CCE6F17
3CEC2A77
3C8D2A8D
3D33DDBD
BD41CD62
BCDA5C54
BC62F074
BCA48B64
BB69B27F
3C87FE9A
BCCF7608
3CEB10D7
3B4AD31B
BB8292CD
BBC85E3D
BA24F2DE
3BE6641E
BD18C947
3CBBC73B
BD42158B
BCA38849
3D07C49B
BD554A51
BD554641
BCA85FA5
BC96E1A0
BC307F89
BD144172
BC1B8A76
BCAD9EAE
BCB27891
3CAD137F
3BD67377
3C28957C
3B9FC9E6
3C0183A6
3D3117D6
BC97FD82
BD11B66C
BCEF61B3
BD20718D
BD2DF1F0
3C17F938
3BA4E55C
3D352177
BD2FA6FA
3CDC2DF1
BCAA741A
3BB64C7E
BC8FC1F2
BCB5FF5C
3C8B059F
3CD70E34
BB4F987D
BD2BAC33
BC459A0C
3C0403B1
BB76A872
BB273753
3D353D4F
3D30F868
BD14A20F
B9BB9234
3D57CFE3
BC9A434B
BD4AF310
3B8CA34F
3CCC1715
3D2888C1
BACCA9EC
3CF4E604
3D1A1D95
BD18E967
3C9894B9
BBE14C2F
BD0DCDF0
3CFF19FC
3BB13C84
3CA85AFC
BC266803
BD1F02F8
3CDE9007
BD2DEBDF
BD34772F
BA5A94C9
BD270E21
BD13E82A
3AE262AE
3C0E2255
BD2BFAE5
BC98F07F
BB32CB49
3D226048
3D4CEAF8
3C70822E
3CAB5072
3D29B40A
BD306915
BD14ED3D
3B46AA6E
BBC341AA
3CC40CFA
BCCBD25B
BCBAB4FC
BCC69A28
3CA5EBC3
BD1752AE
3CF3384F
BCEC89AA
BD071013
BD1F1189
3CB8C7C7
BD3B4FC7
BC8FC47D
3CE94187
3D065710
BC85E82F
3C86032B
3D079CAB
3BA736F4
3C8B83FA
3D045977
BD1FF4C8
BC8796DD
BC9C2EA5
3D056F83
BD31B515
3D3E229F
3D21307F
BD1F7FF1
BB3E2C77
BCA02AF6
BD1EFE91
3D4A09FA
3CCBC379
BC88404A
3D14D982
BCDB0F8A
3D1D6BDD
3CB6DD52
BC215425
3CCD5F44
BC9122B6
BB2D56CB
3D0DA8B5
BC4BD910
3D14898B
BD23BAD9
BD4874C7
3CAEFA29
3CFCD83D
BCF7626F
3C3CD74A
BCDF6352
3B016236
3CD61406
3BCDDDBE
BD20ECD4
BC63CB3D
BB70D37D
BD21AA15
38FE47AC
BC6777C3
BD2E218F
BD482E07
3B86B705
3C17B26B
BB8CBA14
BC7D79A2
BCFBA40B
3D3D1F0A
BB856B51
3C8DD1FD
BB7A0020
3CD84ED6
BD0D3F8A
BC46AFD0
3D275124
3CBE4324
3D0B16F8
BD6F1C3C
BD35A199
BCAAEC5E
BCECBF97
3D3A7D50
BB6E15D5
3CEEDABE
3D20EA6C
BCBB19E7
3C3247B0
BCF18120
BD1FBC6B
3C94B2EB
BC887492
3D4F7C8D
3CC54ADB
3D276892
3D05CE72
3BDA8885
3B9E6F41
BCE5402D
3AA026CC
BCFEF0F8
3C938220
BCE4E261
3CE2FD14
BC284D83
BC5AB83D
3C1515A2
BC1EC0AE
3CACE3A6
3D158558
BC03D61C
BD03B665
BCC6760D
BC420E72
BC1504DF
BD6ADB63
BD1BAC11
BD532CAB
BD33CFC4
BB51B8FF
BD148A33
BD2444F9
BC98E5B4
3D0A275A
3B25F155
BCBA4942
3CBCE8E5
BC9179E2
3D062288
3B88AFB7
3D5307F4
3CD9F85D
3C1D9365
3CB9AABC
3C2B3E37
3B091997
3D512945
BC6740AC
3C952DCA
3CF936CD
3C8C21AD
BC7ADFC8
BCD2EE59
BCE3A19F
3D30A6C4
3D028635
BC23819A
3CC77906
BC6FB85C
BD4EF216
BC51B205
3BFB113B
3CFDDE4F
3BA2751A
BD3D2E71
3D4552D8
3C1DEDE1
BD1E52C5
3C24AF02
BC0A6CA5
B8CE167C
BCC1C081
3D18A1D0
3D35224A
3A596F6F
BCE95D2B
BD016B62
3CE08355
BCA9A84B
BD06A148
3CB52E15
3B43DED3
3CE22376
3CA3055C
BBE98741
3BA723DE
BCAC424C
BCBA1003
BD439681
3CCC9B18
3B534CC2
3D4B33B3
3D3A0FAE
3CE4A8D9
3D66F64B
BD18E61A
3CC079A9
3CC0ED48
3CEFE51C
3C5B41FC
BB2F4C08
3CC42810
BB955749
BD3769EF
BCE9B4D1
BD372A66
BC593F84
BBA7C911
BD0964C3
BD33998D
BCB839F9
3C626FBF
3A3E3C83
BD41402B
BD51F7B7
BBD7AE4E
3C597E10
3C33BF5A
BD156ADF
3CB3E0EA
3D22BFB9
BC19CBB7
BCF1840D
3BAD42BC
3B703F55
BD325B7F
BD23A604
BD041D96
BD0AF000
3D36E225
3B700169
3CF2FA2C
BC4512CF
3C85FC5D
BCA3DB48
BC8690BA
3C60BCE6
3D12E936
BD0A67C3
3D1BE9D8
BC72C94F
3C9F0695
BD09036C
BD26BEB2
BD50D67D
BCC838D2
3CC92D06
BCC9AF67
BD30907F
3CC4F61B
3B7B094D
3CA72EB7
BB42BF5C
BD0BEB79
BD02CF24
BD189AE7
3CAEDF1D
3D181483
BD3FAE9D
3D32F3D5
BCCD2630
BCB2DC88
BAD51C31
BC42B787
BC047227
BC4B06C6
3C125C48
BD1D65AD
3D37F5EC
BCE0DF62
3B66053F
BC9C1CF4
3CB2536A
3C39092D
BC5A3E45
3CE71125
BD281B9E
BD30D3F7
BB994D7C
3D4F34EE
3D41589E
BD02785C
3C88A27D
3C9D3D52
3C453AD9
3D73EE49
3CB37631
3CD4C133
BD3DD1E1
BCDD57F9
BC8B41E0
3D27C1DB
3D121C2F
3C37C0C2
3C842178
BC985C82
3B6FD224
BD48A776
BC14D075
BD05013C
BCD0DD43
3BEEA019
3D178D5D
3C394538
3D02817F
BCE55547
3C4FE6F8
BC6CF520
BD160ADD
3CA8F7D8
BCF7F857
BD1CA493
BC7F9A7D
BC8A0B6A
BC8D8B1F
BD1BE3A1
3D1BC79A
3C6E30A1
3D1AFBC1
BD145A2A
3C3BE993
3C400137
3D32EE25
3CCF43A0
BCFD7745
BD20FA75
3C04AF4A
3CD4E9FC
3CCDC66B
3C8CD40E
3CA6C4B1
BCE890D9
3CD078C6
BC255411
3D653461
3D24BD87
3C89545F
3C661EAB
3CA3CD0D
BCD9A6DC
BBB26854
BB868C5A
3CBF4610
BC89D0E6
3CD4649C
3D0A68C6
3CE196C2
BC932913
3C30AC3C
3D1A03C0
BD2B446D
3BB44915
BCE30970
BBFA24E6
3BEBAFA0
BC9ABD27
3D2974A7
BBAB1595
3C181AA0
3C8974F6
3CCD4E3C
3D2EBBDE
3C151F30
BC725AE4
BB96FC34
BD433DAC
3CA3216A
BD4BF2C0
3CBABC5C
3C29C4F2
3D02A433
BCB09C99
3D36EC28
BC5A0707
BB7F25AC
BD003BD0
3B9C6973
BCA424BE
BD206D7C
3C82A803
BCB832CD
3CFBA5EE
3D289EAE
BB446325
3C0F9445
BD1B365E
BCBB1801
3C285BA6
3C515134
BC92CA2C
BB5825B3
3C0DE0AF
BCA9D3BA
3D0836A2
BB9F0B46
BD525E9D
3CA867F9
BB66AC85
BD53CA22
3B07380F
BCBE813C
BC73AA69
BD11C385
BD5E9BE9
BD854B10
BC878EAA
3D42E687
BBB42800
BB0C48A1
3D0684CA
3CDEB375
BD4C0620
BD127829
BD10389A
BD3FCA12
3D094A69
BD496E3D
BC488F91
3D0D0B6A
BD66C4B7
3CBA0916
3CE2AE3B
3CC2941B
BD022CBB
3D2E663E
3C598251
3D2C001C
BB02A2AB
3B9E9902
BD2FF039
3C83F530
3CE8FAFA
3C015842
BC0805E7
3CDD4189
BD2AD5F9
3D73BB35
3D4449C1
3D8AB5F1
3D0D656D
BC965D9E
BD0E3516
BB9A5615
BD3413AC
BD027541
BD62D6D7
BCAD2E8D
BCF2E3F2
BD25B8A1
BCFE0179
BC643F78
BAE1F9F3
3D39FBA7
BCC160FF
3C8D9DC9
3BE58072
BC89ED6E
37D6E99D
BCC723AD
3D0E5965
BCF38183
3D291170
3CB3264E
BBC112F5
3D2F87B4
BC1B56A6
3D0E4C1A
BB5806BB
BD1490E2
BBBBB48D
3CF35BB8
BC6A81BB
BAA669E3
BD29AF63
3D277114
BD53643C
3C79FC4F
BB89C2E1
3B5358B1
BD665418
BD368DEF
3B973F6C
BCADFE25
3CB3F029
BD61DA06
3D21639F
BC03C9B4
BBCE029B
3CEFC55C
BD3BB7D4
BD667CFB
BC64B9A6
3CCE3A03
3B087AE4
BD5A074F
BC132CC6
BCE1D498
BCD33536
3C1570C4
3D0CA9A7
BD0A9024
B9350A2A
3D2241E5
BD4026AE
BAC1C8EE
BCD0D52A
3C51F513
3D49C5C6
BCFCA475
3B7B2D1C
3BD24E1A
BCE16282
3C7A1922
BBA33B88
BCE80946
3CF32337
BA3714F7
BD2FAFEA
BCC8E6D0
BC00D198
BD56D5A4
BBA9372F
BC407B59
3D77D885
3D52E33A
3B9563A1
3A2DFE3E
BC4F1635
BB36B128
3CDF7259
BBB82167
3C47AB7E
3D3BD177
BD0E9381
3CEE0133
BC9C334F
BBFCAA93
BCA837EE
3D22B70A
3CB4392E
BD44544E
3D2042AE
3D4D3399
3D182CBB
BBF9E01D
BD8FB25B
BD75547B
BAC478E7
BD71EE14
BD247878
BD752612
BD47FF3B
BCB58ECE
3C47AEAF
BD660E00
3D1BBF5C
BC4C786B
BCDD1B55
BC9B13A9
3D31D383
BD47C5A6
BC9152EC
3D39A0A8
3C8965D6
3D1D5A01
3CB97090
BC818F78
BC214BAC
3CD8C756
BC3EB2F1
BA9D2367
3D428D26
BC0F5B1F
3C4EEAC4
BC997939
3C23B674
3B5CE2E4
BD864076
BD50237C
3CBFFC81
3C5931CC
3CE5588D
BD556F0B
3CDB789C
BD2C1F51
BBADD18A
3D186A8A
BC41E19C
3D293F3E
BC97FD11
3BCD93E7
3D47D339
BD223108
3D609929
BD126C06
3D0129D1
3CB41EA1
3CCA33C7
BBE6BB0B
3D0FE774
3BC04CE1
3CE57800
BD21F5F8
BC81EEB9
3CB929FF
BC1A2358
3BC90367
3CAE810A
BD802C40
BC407402
3D4BB6EB
3D1674D0
3D078145
BC09B05A
36B53BC0
3A546198
3D3221DC
3D248540
3BCF50E1
BD30456C
BAE156E4
BD3B6203
BCF5FF5F
BD07B8F2
3D04BD47
BCA9B1ED
BD3C9B36
3C8405E4
BC8AABCF
3B800425
BD40A823
BC688696
BC8415F7
3CA839AB
3C5203D3
BD1FD8CC
3CDDDAA5
BD1DBDCF
BD0E3B19
3D369128
BC1C1733
BD4C16A6
3C7905C7
3C852D6D
3B7FE4D6
3D62FA32
3CA0B64F
3CDCAE14
BD5AD83C
BD13C502
BD1FF69F
3C43E57D
BD0E9A88
BC561B57
3CD8A356
BD06AC78
3D010048
3CBDF103
BCC8F293
3D0E7FEF
BD3573E8
BD1B535A
BCA9CF58
BC328485
BB8C94B8
BC557D8A
BD0BEC75
BD269D29
3CF55833
3C8CA441
3CEE6202
BD2ACC30
BD0FB7CE
BC832B02
BC67552B
3CD8948E
3D804A68
3D4A56E6
3C919B94
3D9EA0DC
3D1BFE57
3D8674FF
BCF64184
BCBC29DB
3D0D0828
3C865F9F
3D82C413
BD22230C
BAC69984
BD5DD29B
BB8B242E
3CB1C7D7
BCD74D3E
BC099CF5
3C8E32CB
BCDF0F37
BD3B5E72
BD4082A4
BD756385
BDA3F471
BB42CDDD
3C261CA0
3C5ED921
3D2FDBEC
BCC07D75
3D28F250
BCC59047
3BCEFEAE
BD0EF20D
BC980FAB
BCE227C5
3C4EC3ED
BC785B6F
BBE881BC
BC342D91
3D59F257
BCDE2C6B
3D1B40A8
3C8ED4F8
3CE1A397
BCFA1EC6
3D2C18E2
3D3D0E62
3D5E9A20
3D149171
3CC1A00A
BCA33168
3CA3CC41
BCEBA6D3
BC425D1B
3C8AC593
3D180F4D
3D5E6A2A
3C4EB43E
3CFEDE5D
BD007C07
3BA7A8F5
3C4AE542
3D5CD0F0
3D0789FF
3C312EFF
BC8174FD
3C1509B9
3D559B37
3BDE3926
3C37AAD5
BCFF7F69
BBAB2E04
3DC34591
3D25E9A9
3A6EDBD0
BD000FAE
3C90DD23
3D9CB4FD
3D51573A
BD63F347
BD5B3FC0
BD0B9139
BD17F33E
BCC3FC12
BD8B60C1
BD048E7D
3BE4B463
BD4ECB48
BC0F1232
BD7F2618
BCEFF428
BD085387
BC77C09F
BD03FDAC
3C109E4C
3CB1C029
BA818877
3C3BDB1C
BD4E2667
BD34A119
BCFBB89E
3CB63317
BD167530
BDAF2B3C
3D18025D
3CB97CC1
3D2C98FB
BD58F20C
BD6A6371
BB92A318
3C055A79
3CA34FCB
BC13ACA7
BAE9C1CC
3D025EEF
BC496FAD
3D17FAEC
3D44190A
3D03122B
BCC67CFB
BC667C39
3B67A887
3CF9221F
BBD658BD
BBCFBF00
BD83AC25
BCEBAEAF
BD880A6A
BD80BF80
BD75236F
BD84D724
3BA0E05E
BD9D34C6
BD0DDC8D
BD17272F
BD8C3B5A
BCFD1B8C
BD70581E
BD9A80EB
3CA50A14
BCBE61C9
3CBE7A4C
3B271B5A
3CBD29BD
3D568446
BC7D5DA9
3CF8A67D
BCC88E02
3CB5A98B
3C06694E
3BAA33B3
BCE174E2
BD702A7F
BD562FBB
3C83AF9E
3A397C22
BB88EB42
BCF118C9
3C7BD84C
BC8C0523
3D06DB7A
3C431F2F
BD1BBE3C
3B3AF917
3D18303C
3DA1C879
3D90B29C
3DC0D596
3D65881B
3B40465C
B8E13150
BC74228A
3D45105C
3CA35AA6
3CB09873
BD622558
BD4DE973
BD4C5B0A
3C2EEE84
BCB249D4
3D11A8F4
3C89678A
3CB5B8E4
BCB0320F
3CF90074
BC5BDEBA
3CF048F3
3D6EB368
BC20E280
3D7A9526
3D980BD4
3CC9E820
3D89C175
3CF6668D
BCABB3E0
BC44042A
3D8046D7
3D63DDE2
BBB66CCE
BBE18CF5
BCAAA57F
BD1C31A6
BDA2D5E0
BC3DCFF9
BCBDF37E
BD9E260D
BD54F691
BD36E0E8
BDB80641
BCB9F9EA
3C342E10
BDCA0A6B
BCC4CFB4
BC212232
BCE453C7
3C04571E
3C63FE65
BCB35B80
3C46608F
3C31B933
3D57C7A5
3D820D68
3C4E0AFF
3CD9632D
3D1B3438
BCBFA110
3B614795
BD479651
BD80A04D
BD102CE7
BC9C17FC
3CB4AB9E
3CA44C63
3C9C6921
3D1E1420
BC95310E
BD38B707
3D05125B
3D5FFC53
3D20F060
BA5147FC
3C639161
3D0B06FA
3C32BFC6
3D9E47D7
3D1C4696
3D8758EB
3CB24603
BC821AE1
3D4516F1
3C9FE5B8
3D19E0D8
3CFBD29D
BCD9A09E
3D0B0218
BD4FDA9B
3C4528A6
BD84090F
BCB1C368
3CC008FD
3C3E65A6
3D170BE7
3CBE0E0A
BB5633E8
3D46DE7B
3C8F7A5B
3D7C83E3
3B8EA309
3BD00441
3CC109F7
3D5CAD3E
BCF99D06
3CA3CFF5
BC360A69
BD95B18A
3C929699
3D3CC6F3
3CF70FBB
3C2167E7
BC060012
3C674FA3
3C7A8EB7
3B89969A
BD8BBE61
BD4684A3
3C062E27
3CD6ECAE
BD67BD59
BD9D022E
3C42D96A
3C17F11F
BCC7F48F
BDA3EA88
BD0A3781
3D75B20D
BD10501C
BD10CCFE
BD4B5C00
3D1B5815
3ACB86CB
BCD17609
3CAB58B6
3D68A96C
BD30D27C
BCF2C57B
BC78B2F7
BD4F24D5
3C1BCFCA
3CE6FF96
3D1CAF84
BC9CAC37
BBA7FC59
3D91F3AF
3D54BC72
3CABC83A
3C914203
3BB6C93F
3D6E7654
3CEE1362
3C17258D
3D42DD69
BC687237
3B1FE902
3C9B6A6F
3B7A7E87
3D4E7B08
3C36B7A7
BC5C7F98
3D0AF287
3BC9146A
BBD38D3D
3C347904
BD47E21F
BD102319
BD58B6A1
BD359B49
BCE4F6EF
BD3B5728
BDC5C892
3C7796F5
BD31601F
3CDAB7F2
BB164F23
BDB99D71
3D01E436
BAA861DD
3C9BF296
BADD115A
3C826F9B
3BCEEBC6
3CA95B48
BD1F5FBB
BB42108B
3CA5A6C7
BBED890F
BDBFA083
BD678B39
3C45D1C3
BD83C73F
3C8D1B0F
BC887BE5
3C33D893
BD0F0381
BD847882
3CE2609D
3C32D9A6
BCF1AB51
3C3400D8
BD624E00
BC8B83C4
BBD86621
BDB08638
BC0ADF61
BD899712
3D5FC830
3D28C1D9
BCB9C240
3D678469
3D0605B2
BCB715B9
3C93ABFA
BCB526DC
BC466841
3C08EB1E
3D20BD10
3D26FD27
3CAEC32F
BB1D8330
BC7E2A97
3B1F4859
BD89F9AB
3C1269D0
BCC924EA
BD243E39
BD87121A
BC1342AB
3CB1D4E6
3CD968E9
BD9CA51A
BCF1E423
3CB8F874
3C9EEB2A
3CB88E16
3C0C5735
BCD872F4
BD32A4A7
3C40D6F1
BCAC65BD
BC7517ED
BC779220
BD36D334
3D18A377
BD230B33
BC71B92D
BC9AFFE1
3C2C517C
BD0B3C0B
3BA8322D
3D2EA8BD
BCCA480E
BD41DAE5
3CCF9910
BCD80AA8
3C197A18
3D26D725
BD3C6591
BCF8DE59
3B343E7F
BD3A48EA
BCAE46BE
BC9261D6
BCFFDAA0
3B68F866
BCD9779E
BD26F18C
3C9FB2A7
3CBFE70A
3CF64CBD
3D3855D0
BC7D7748
BC449DE4
3C79BDCF
BC86CFD2
3D21F4C0
3D470C1F
BC60BE1F
BC7D4F0D
3AF6B222
BC9790D3
BB781481
BD1E9F33
3C7CEB59
3C09C4EE
BCBD96C4
BB80B0B9
BD142651
BD4B3FA9
3CA078FE
BC8D57EB
3C91A8F8
3B9206B5
BD13B4AF
BCAED704
3C9B33B5
3D1BD55F
BD381D2A
3C4246C0
BD1CEE89
3C9F8CF7
3D60CA38
BC90386C
BC48954F
3D3CE19C
3D069AFF
BCBD724E
BCE85213
B9AAEEA6
3C8BD4CA
BBEE975C
3D1C9157
3D0E4B72
BCDA1C32
BCCFD88E
3D0ACBE6
3BA726D4
BAC58AE7
3C1C0316
3D2AF2B3
BC3E7408
BBC537CB
BD395DDB
3D2C0D8E
BD307CCE
3C416F20
3D7F369E
BD3B1D95
3D099F89
BCA57832
BB99E3F2
BBF47214
3D0E9E0E
3CBCFD65
3D0F7D6A
BD1AB603
3CC39A7E
3D09F6D9
BCF893BF
BCA546E8
3C8C8B79
BD0DDC4A
BD4B4FAE
3D24DE96
BD19AC86
BD27AA8F
BBE2DC03
BD4774D0
BCD3A689
BCBE9C65
BC7EC891
3D508E5F
BD0004C9
3B386BA4
3A18E830
BD056611
BD118658
BC02801C
BCBF6341
BCB71E2C
BCBEB220
3B38CA4E
39655905
3D2CB5E3
BD2C90E9
BCAE01AA
BD23A5E0
BD31C468
3A7A3338
3B6E30DA
3D5AAD13
BCB4CBAB
3D2C968F
3C16B5F9
BB1B91A9
BC8181D4
3C81ABA6
BC9FC3C1
3CFF150D
3C17ED84
3CFF88BF
3CB07017
3C93E768
3BA1C489
3D2CC616
BD43C468
BC304366
BBBECC14
BD01E7E3
BCEA2DDD
BCA8D3F7
3C5883FC
3CFBDD63
BC492A8E
BC8E0758
3BD17577
3C95FFE8
3C64A81B
BD0FB40C
3CB3BD47
BD237710
3BC53F44
3D00CF62
BCE14EFF
3CC5D90F
BD23733F
BC3EE7D1
3D37EB11
BD0352EA
3C664CAD
3C6CB7E6
3D2BC4E0
BC560442
BBB5CD5E
BD4705A0
BBC47F6E
BD054152
3D2DE295
3D03F305
3D39F2FD
BD39D67B
BD0DE66F
BD5150C7
BC88D76F
BC311983
BC93BF63
BC4C9C79
BD04FB14
3CCC8CCD
BD251C6D
BC191271
3CE1110B
BCF4A244
3D1AEB9D
BC97FC16
BC3455DF
3B8ED16A
3B13408A
3CB6CA7D
BB66C26C
BC3718EA
3C2FF360
3D4AB4B8
BD2F1CA0
BB683B60
BC9C7C01
BC37ADA6
3D0E8F26
3CF8C12B
BC284AAF
3CE2686F
BCBFECEC
3C5A7E9A
3D19B418
BD2894BB
BD236FBE
BD1ACAB3
3D144297
BC4D9768
3CAC3947
3D141924
BCFA037F
3B93ECCF
BB864442
BD1111FF
BC22E2EE
3C7FF45A
BC96C7E5
BA7562CF
3D334494
3BDCB6D2
BCEEA823
3C390362
3C23D971
BCB968B8
3D219809
39FC92D0
BC989CF2
3D078EB6
3D1831B1
3CD90BC3
3D31EADD
BC97F66A
BCA8F604
BC6E39F0
3B2642AA
3D14584C
BC4A3F87
BD14AD47
BC988100
BD2BACA0
BD13ED9A
BCA8F86A
3D318280
3CFE373A
3C5BE12C
BCA8D190
3CA2C82F
3CB55D10
3CC744BD
BBFF998E
BB33CBA5
3C36EFD2
B8997CB6
BD2DFF14
3D07E0FF
BC8EEAAA
BD35233D
BD199FD5
3B3912FD
BC90974C
3B8C4C49
3D449578
3D37A10C
BC04AFA7
BB94F05B
BA4CCE0F
BC8F9B61
BD27EF1F
3D159F56
3D5037CB
BD3823B4
BCA7F5DB
3C88C72A
BB2A72DF
BD09E887
3CE730D8
3D1AF285
BBC89989
BD38DCDD
BD06A0AA
3D0195DE
BD306D7C
BCDD1376
BC4F6F9B
BD652C51
3C41E0E5
3C7CE28F
BD04618F
BD5A7A20
3C6491CA
3CB81450
BD4FE0D8
BC875130
BD09F542
BD2AB81E
3C11CBE7
BB9DF295
BBACE515
BC9F0E50
BD0A6F20
BCEC9D87
BCAE5D2C
BD193709
BD108634
BBFD21BC
BC51A5FC
3D3264D7
BBDDACF5
BD0B5332
BD297A7C
3BE38250
3D1B8994
BD2EDFC3
3CD2732A
3CA9812A
3CA8D0CF
BBCDFDF1
3CBB85F0
3D1815CC
BCA8363E
BD271B5A
BCB235E9
BC63D7FB
3C5F1821
BCD5F2BF
BA5BE2E6
3C29049C
3CA06BBF
3D1C7135
3BDEBB3B
3B419881
3C59C95A
3D0D38E4
BCBD4D1E
3CDA3F63
BD21EA7A
BC4943EB
3BD9394A
BD3F10F8
BC9C2916
3D43DB22
3CD242DF
3D05CBB3
3ACBBE3F
3C6FBFFA
3C1D2791
BD37BBF7
BD4AC3FA
BCA5EF94
BC3A7ABF
3C810376
BC348557
3D4AAD1B
3CCB7505
BCAC2470
3CAE43FA
BC8B4E50
3CF8349E
3D374322
BC01070C
3C365429
BCF560B8
3C5CA41B
BC0EE7F1
BD47DC89
3D0F6C60
BBB7A673
3C55D01A
BC57EBAC
BB269D54
BD4B943E
BD2716FA
3C04D9BE
BC4F77B6
BD1ECBD4
BD5B2B95
BC9295A4
BC89AEFC
BCF528E2
3CC12281
BCC1737B
3B552FA2
BD34062B
BC5B6BA6
BCEE540F
3AE14613
BCC9C4D2
BD21558E
BBB64A4F
BC892977
3D86318E
BC89997E
3CA045AC
BD1A8395
3C40C1D4
BC982879
3D291667
BC9FA651
BD274D37
BCE885E3
BD1A84A3
3C21FDDD
BC8602F8
3CAAAC89
BD685927
3CD4D3A8
3C4E0C85
3D525F8F
3D2462F9
BAC0B94E
3D0C04F7
3D321566
3D2ED459
3C26A4E1
BC889B57
3D312F15
3D1AA118
3A437315
BD1C3282
3D362A56
3D35F6E8
3C8C9466
3C97C075
3B916CED
3CA59EA8
3D236079
BB6D3CEF
BC8D097F
BCEEE8AB
BCF5EFE3
3D1BD097
BC9E673B
BD181111
3C021710
3CFC4E1D
BB6B40FD
BBA35F18
BD321AFD
3CA4FE75
3C506F24
3CE77358
BBA33A72
3CDC2716
3BC3B01F
3D0B62C4
BD279528
3C4312BA
B9C51443
3D019796
3CE75F59
BCF9E77B
BD38512A
3C5CCD7F
BB868A2D
3B5B95C8
3B5A605E
BCE2AD86
BD05CAD5
3CD0523E
BC945567
BB1FC77A
3CC068DA
BD184983
3C9F1956
BD08426B
BCE8289B
3CDDCBA2
3D03D606
3D542D6B
BC834E46
3C7BA419
3C9E99BE
BD08E3D7
BD2C98B8
3CF54538
3CC03014
3D1C49F7
BD4E69E7
BC414140
BD6951CE
BCFE4BAF
BCAEE363
BD60D90C
BD4A4605
3BCDB1D1
3B2C40B2
3C8295FF
3BB7932E
BD73DDFD
BD42009C
3C9B9A4C
3CCE2510
3C5621A9
3B5BC1B0
BC3B4F6E
3D5FF76D
BC1BD6B9
3D704585
3D15B84F
BCEF040B
3D375564
3CFCDC8F
3D810C53
3CBC1381
3D03A385
3CA71F96
BD1B1921
BD1D89F7
3C8A8971
BC874221
BD8247D3
BD145F67
3CDFE165
BD175064
3ACD2A52
3C2E9D35
3BB5FC37
BCA8D003
BD05CE8B
BD9D2F7B
3D364D1A
3D081120
3C895D9D
3BE588F7
BD64515F
BC3584E1
3D098432
3D0C2C52
BB01CFBC
3D4D25AB
BC61B635
BD4A0AE8
BC959D7C
3CF73E75
3CA50E7A
3AC85F50
BC17966A
3B2C3D36
BBD4B2FA
BCDD5A21
3D45A4EA
3D26EAF4
BD5CEFA2
3C87ACFC
BD67DF09
3B9A7F57
3CFA8E2B
3C345013
BCE5D606
3D35CC6F
BB76D035
3CAC658D
BBDA9B54
3D3BB4F3
3D20E0AA
3C0BC82B
BD4AF59C
B9D25074
3C15708F
BCF767EF
BD46C45B
BC345F7C
3C7E30D4
3C93EBA0
BD1A1BD6
3BCEC9C2
BA0A8415
BD11D5F7
BC9A06B8
3B9559D4
3D3308CD
3CB5F03A
3B8C14A7
BC225CDC
3C7E5B27
BCA16214
3C96CFED
BC1D425F
BC51A131
3D756C4D
BD156884
BC7C248D
BD66CF56
3C5DA765
3CE685E4
BBA67700
BD0AE88C
BD7C0EE7
BD32E707
3C3A03DB
BD8BB50C
BC944C86
BD805C61
BD799701
BBD5D6F2
BD2D8774
BD16EEC8
BCFB514C
BC91B918
3CD90E09
BC909EC4
3D0F933F
BC92FA3C
3DA3B0EF
3D8A1A57
BD080EFB
BD564873
3C48DAC0
3BDA7B3A
3C8CEE63
BC8A5AB9
3BEB27F5
3C5A480C
BD8D306A
BDA0A16F
BD0CDB72
BC6112C5
BBD744DC
3CACD9CE
3D21CB8B
3B8A865D
BC9C377E
BBFBDC5B
BC000653
BA89EBF9
BA313EEF
3D8D23BE
3D7F52E9
BB004E07
3AA1BB6D
3CACA651
3D4AC07A
3D476E4E
BD4C8BB2
BC795845
3D23B1A4
3D3DFA1C
3CBBBEF0
3D359377
3CBD43B0
BCE31979
3D11A50D
3C9E28DF
3BDCB348
3D382A78
3C661985
3CB00B70
3D85D50D
3CCA7FA2
BC2B4EA1
BC35C8F8
BC842624
3C99CE1A
BD801C67
BD3C9AD8
BD586BC5
BC842AB2
3B0A0C57
3D21FD49
3C8E8ADC
BD60BB11
3AA478A3
BD337F86
BB4D71CA
3D05AB31
BD3BB05B
BD431315
BCF19A9C
BCEBB8F3
BAB9B0A6
3C70DB76
3D12A368
BD64AE7E
3CDEB503
BB8A08E7
3D3258C2
BCD6F244
BC61F854
BD4BEA49
3C4B21ED
3CA5453A
3AE54DCF
3CDDFA29
3D21E32B
3C904E33
3CA33FD4
3CD6A1BF
BC01A389
3A08CF1A
BA23AE1C
BD0E4A35
BCCB96B1
BCB5CB21
BCC445A7
3C828C54
BD121476
BD2943E4
3B41E7D6
BC951EAF
BBF29880
3D7763B7
BCDA742C
BD0BEC3D
BCB651FA
3D57D14C
3CAB7E97
3D0A1381
BC0E1DDF
3CD67410
BD34D61E
BC8845D9
3BF7E3BD
3C24BAD3
3C2FF72D
BC813F54
3D0A34CB
3CE53FBD
BCDCC7E0
BD472D2A
BD455B02
3BC4AFAD
BD14A603
3C1324CB
BB6C7DEE
BD3C0098
BCD23F9E
BD274A70
BCE969F6
3D2B2C5E
3D02B7FF
BD6E51EB
3D276183
3BB0C95C
3C8E9E92
BCC52051
3A0EE67B
BD280499
BD47ECE8
BD19165A
BC650EE4
BC47EB32
BCDF5CDF
BCB5DFCE
3D533EFF
BB858F32
3CDDDB53
BB231A31
BB68B6AB
3CDADBB7
BCA9CF3E
3D315ACF
BD1BC9AA
BD2FD0CC
BBE3B629
BCDC90EE
BD49BA5F
BB8E6091
BCF951B5
3CDBDA58
3D67CF25
3C3E55A0
3CAEB56E
3D0234D7
3D27BE3C
BC8D3662
3D4B9CEE
BCC40666
3C8582D9
BBA9B5F4
BCDBB3F0
3C8CE83D
BA2C52B2
BC6C7ADC
3C841BCF
BCE8081D
3C4D1353
BD05AC40
3D222CE7
BCBBCE67
BD293E0E
B9E62B53
3D28C5B2
3D381494
BD1198FB
3D200F77
3CEA71D6
BB04B8A0
BCF218FF
3C9A07A1
BD58B0BF
3D5D8164
BBAF8DA7
3C4E7C97
3CEA967F
3D15CFA0
BD0DC2D3
3D082E5E
BD72AF3E
BD21ED18
BD2282B8
BD6ED090
BBB08C5D
BD4E8BF1
3CC24463
BCB78255
3CD0B16D
3BCF303A
BD0C2049
3D0F36F9
3D4168E2
BC2B9088
3BB84307
3CE6B9A8
BBD06B0C
39171D94
3A81B3CB
BBCF83DF
BD0352AA
BCCD6248
BCF622C1
3CE09EE3
3C5978CB
3BA4072F
3CD1DB0C
BBAE3536
3D3644F1
3D8C236B
BCC55A5F
3D7AFCC1
3D56B3D4
BC2E89C5
BC17C7F2
3C59095C
BC91944A
BB79C0E1
B9322369
BD0EEDB4
BD3F70A2
3C4CE799
3D91DDD5
3C157EC2
3C7BFB0C
3D0E2F5A
3CECB727
3D8636D0
3BEF2985
3D0FFF2A
BCABDE6E
3CE746F5
3D83F37F
BBE9F2AC
BCADB010
BC11EF5C
BBD33B72
3B45980E
BC758864
BC943245
3CF7F035
BCFFFABE
3B1DB701
BD1DA73A
BD5F34E9
BC9C57ED
BD764E52
3D0607E4
BD9DB7F8
BC7E5E9F
3BCEA1C3
3C6FA4E2
BD0E80D6
BD2B1402
BD14A5C8
BCE18116
BC054A84
BC09755B
BD0F3995
BD499E04
3CABDFF1
BC2FCE72
3D6E2CFF
3D23F86B
BC491990
3D1B7098
3D215AA1
BBBDB0DB
3CD8EE1D
3D2EB819
3D7B8CFF
BD1C8800
BC1FB1B7
BCB21DA3
3C77CCE0
BD3F87EF
BC24FAF5
3C12A7EB
3C9EAE8B
3BC2FA16
3C9CA44C
BD15ACDD
BABC2BB3
3D3EB702
BCC2F6D2
BD601501
BC3BFFAC
3CD5468F
BC791F29
37B00975
3C799C1F
BD390148
3C75D821
BD922BA9
3BAAF23D
BBD42E7D
3CD9E250
BD4C66D4
BC1518FD
3D1B9F2A
BD4F0443
3BD412FD
3D184BA4
3D910629
3D555B75
3C906358
BD1CA5D1
3D68653E
3D1B1E4B
BBB56FF2
BC1F0DFC
BBC19A45
BC7E0D7D
BC064389
BD375667
3D065E46
BD820876
3C927498
BC4A1BAC
3C91890F
BBECAA01
3D48F39D
3D1C7340
3D9472FE
3CF2438F
3C697D2D
3D822505
BC9B9FF8
3D28CFCD
3DB6E654
3D5F04DC
BCD989F9
3CB4909D
3CAF50A8
3C67BA2F
3D303802
3D0BAC4D
BC3CC8EE
BD6844D4
3A15F47C
3CE61390
3C9ADCEF
BD55D945
BD3F07D7
3D21130F
3D2B48AB
3C8C39D6
BC7D90FE
3BB3D255
3D3EE769
3D0DAD46
3C8028A0
BBA343B6
3D35FDBB
BBA79372
BC2395BC
3D83575D
3D3C560C
BCAF0513
3BBD83BC
BCD7881B
3CCCE78F
BD1EF52A
BD1C249F
3BAD52A0
BBAD6559
BB39F0A3
BD7BBA70
BDA157A9
BD7E2CD8
3BA57F7D
BD7510C2
BDB9DF4C
BC96F030
BCC01740
BD321351
3C031B21
BBC662B2
3C2A11A0
BC049F41
3C9D4FDD
3CD10A12
3D68DBA9
BD0AE225
BD0F55F8
BC4191A7
3D0B990A
3D0FC8DA
BCE46DFB
3BC43A7C
BC108358
BC7C931D
BD61D8BF
3D35C6D2
3D217074
3CD4617F
3D3A5BA9
BCCCE807
3CE4E4AB
3CF3897C
BCB0F3F0
3D1A316A
BADFA3C3
3B536710
3B97EE0A
3D8A8BEF
3D1EE1ED
3BC1AEFB
3A4BE4AD
3C946A62
3CB516F4
BD8A014B
BCB3A8FC
BC2819BF
3CBB06F1
BD0C861B
BD649D4C
BD260ECC
3B5A2E31
3D2034DF
3C6381B7
3A88DCFE
BC3716A7
BCC4C3B1
3C774F55
3D6C9061
3D0AEE9D
3C9332A0
3CD866C8
3D151F2B
3C076735
BD48F52C
3D328DBA
3CC06533
3D87B57C
3CC46EC6
BD098195
3D29EA43
3C8249A2
BD71FE1F
3C5B5959
3D0073C6
BCC6E88E
BD17A5C2
BD6C5075
BCBDB449
BDA88FE2
3C1C81DF
BBD1DD75
BCAC432A
3C8AC621
BD10ACFB
BD6425CB
3CE44839
3CB283DA
BC575A48
BCCC5752
BD6B3B94
BCB3D879
3CCE52FE
BC8416E0
BCC090FA
3D35F655
BCF30537
BD7E51A4
3CB4D58D
BD37310E
BCD074E1
BCD6A5DE
3CA21967
BBD61980
BCC70741
BC8DBD3F
3D76040E
BCD927A4
3CD3AB32
3D1EC2EA
BCDA8868
3C7E67E7
3D0FF977
3D28C1C9
BCF6E8C1
BD18C057
3CF70218
3D347A37
3BA6BED2
BC8A9EC4
BD11B3ED
BBE9F9C2
BD75A32F
BD31EC5A
BD9CE543
3C1614D6
3CABE720
BD25C43D
BC702E4D
BDA90ACB
BD7DD489
BCE37A4C
BCC42382
3C86759E
BCB2DC35
B9E061E8
BC24B23C
3C64D4A3
BCB03CBA
3CC69DB1
BD15AC62
BBD9D914
3BC565A9
3D5FF825
3D75CBAA
3D0A5612
BD53AD89
BD094FA6
BB6E9B7A
BCE38986
3CA11698
3D142C6E
BC4DBA4E
BB986117
3C19F623
BD3CB2EC
BCA2B4A7
BC8DEC1A
BCE20BF2
BD78CF6D
BD931B52
BCADF0AF
BCC4116D
3D0096F3
BCC8F41A
BB95DA46
3CAB6D6D
3D2FFC37
BC8E664D
3C910E8B
3D0B8BA5
3D492090
BD0169E5
3CEEA4E9
3C9C7EFE
BD345014
3C8B876B
BCC6CEAE
BC5EEA17
BD5B9FD2
BD1E0471
3CBE78A8
B9BC51D1
3C9286B3
3C7E1594
3CA05DE3
BD24C262
3BBA1A2C
BA400939
3C1DC0B3
3CEC4ED9
3CC75F4B
BC31996F
BBB94BF0
3D22AA89
BCE4F9CD
BD4B886B
3D5F026F
BD119F71
BC2E1142
3C63CD22
3CD9CB0B
3B840926
3D48DDDA
3D28CC0B
3D83F58C
3D43F223
3D3D101B
3D63118C
3CB7B688
BB974515
3BA325A5
BC8EB6A0
3BBDDA28
3D258F67
3C8CA0CA
BCEB6786
BC5B1C2F
3B5C20B3
BC74B76A
3A8FC255
3CA23DB0
BCC7BEE1
3D0A8F96
3D51EE2F
BC190248
BD23215F
BCC59D50
3BF90C72
3D2F3B73
3C91604C
3C902C1A
3C704648
BC91C3B9
3C99ABB9
3CCA7E17
BC806079
BC7EB14C
BC12BC7D
3C60B107
3A503840
BD17F977
BA10A7E4
BD2ED5B2
3CB0CB99
3CA81C87
3CADDA7D
3C35B00E
BC745D36
3C37CACD
3C7297A2
3D5F61E2
BD29064F
BD351BA7
3BBDC720
BC84DBA9
3CA1FA79
BB22AA8E
BC7A5D7E
BD34DC47
BD2B86AD
3D6BF98A
BD3AC90B
BCF0717B
3CC492B7
3D3962F8
3DB7980C
BC39A036
3CB5007D
BD1F8AD0
BB74960D
3D3F030C
3D824ED7
BCB1210B
BD217AF9
BD45B99A
3C8DE36C
3D099133
BCD1250E
BCEB6A11
3C8341F1
3D4572F1
3D8B5B7B
3D0AAED7
BD00F3CC
BC0E3AA1
3DA43B78
3BB58F71
3C1D1AB1
3ABDC369
BB9786C3
3D1FD810
BBC29FFC
BD267E73
BD553A92
BC161FF8
3CE528BC
BD2A8833
3CD9376B
3D707D26
3D28DA73
3AD69325
BC5EFE37
BC8AED89
BD20DBDC
3CF16E13
BCB0A1C2
BC75DC26
BC1DFF5D
BD1FDF25
3D564C4D
3CC7467A
BD4A91EB
BD617542
BD8429FD
BD8074B1
BC7D9846
BD328FA6
3CDFD193
BD2937E7
BD859EF1
3D046CF0
BB245232
BCD4952D
3D09EC71
3C8EF4C8
3D610DAF
BD097584
3C31BD3C
BD260DBB
3D1A6C7C
3CE240B9
3D2482A5
BCBC50AE
BC8FD37A
BD23AB45
BCD69AB3
3B9FB37D
3CD877DC
BB2B08AF
BB854158
3CCD83DB
BCC845B1
BCC19071
BD731755
3D336204
3D0BCB45
BAF83077
BD3FDAEE
BCE1260B
3CC63ACC
3C6D1EB9
3CAF3C83
BD1B9F6C
3BF0FAC0
3C994DCD
BC8A7033
BDA8CB7E
BD0F0B5F
3D8C8E40
3D047F9D
BB3316F1
BAB475C0
BD8CD83A
3C0719AD
3CFFA48C
3D0CA1BE
BD9B711F
BDA4B509
3C98DE8E
BBA3C56D
BC876FA0
BD7A91B0
3C9D6B28
3BC6C4F2
3CEF007E
3A745CA5
BC331B6B
BCB3D276
3D53C7C1
3C42718F
3D2896C9
BB8F475E
BBAB99CE
BD2C757E
BD4472F4
BCB03CE7
3CACD87A
BD21144F
BBC7BDB1
BBAFC1D2
BCA88154
3C7C9CA2
BD33EEBE
BD01EF07
BD37FC57
3CE7F9A1
3D582AA4
3D285704
BD1762EA
BD9C4955
3D6042A2
3D2C0EEF
3D8A460B
BC2750A5
BCF491EB
BBBBC6A6
3CEBDF75
3CE977DE
BD2BB0CB
BD26BF0E
BBB1EFE3
BCC3E77D
BD313136
BD435CDF
BC40B842
3B914F4D
BD78FA39
BD50D651
3B8E26ED
3D2AD011
3CEDD7C0
3C35C671
3D92B0C9
3DA0B60F
BC905796
3CF468F1
BB83152F
3CE1DE3D
3D4B6C39
BCF5C3A1
BD0CEEA4
BD1A40D9
3D0B6844
BD0AC5D0
3D174461
BA4A1F1A
3BE3B628
BCDA8963
BC16988E
3D12E07F
BD9D3BED
BDC34B61
BDA983E7
3D0C5F87
3CD9CECA
3BFC8B87
3D2FA622
BD6F154A
3D835B4C
3DC50451
BD179C72
BC957378
BDA98806
BC761C16
3C856F5E
BBF29350
BD951826
BB662AB9
3C34D5CE
BD22039F
BC247D10
BBF0B727
BD2893BE
3C4FFC18
3D1F824A
3DA8E794
3D808E37
BCF5A860
3C99B969
BC22A6D1
BB394879
BD21C877
3B938503
3D49A425
3C44719E
BC36BE38
3B74FACF
BCDD7053
3D90C1FC
3D8E53F7
3D6FF873
3CF194ED
3D796C57
3D208DE9
BCA79670
BC97072D
BD80A546
BCEB0ABF
BC296021
3D4D0D43
BDB7B039
BD838947
3D1A209A
3C875355
3C1FBF43
3C8985DC
3C389A9A
BDDA2EEF
BD61CF22
BD371CAA
BD441ED9
BCD71EF4
BC96EC02
3CEA7280
3A818B13
BADCDD08
BDDD92C3
BD9816A7
BD6B922B
BBD736ED
BD016838
BD6C4B04
BD28FEAD
BD78CC2C
3CA5D8D5
3CE9C44C
3C11664C
BD5DA5F0
BB73CF8C
3C8B9CDF
BCB56CBD
3C761D7F
3D7F495C
3D392207
BD05EC24
BCB09C3C
3D20DD6F
BB94AC29
3CFFEBB4
BC3A04FC
BC871504
3C9E7A64
3D065745
3C9F4AF9
BCEB6B6C
BA9747DC
3CC229B6
3C86D976
3D19F3BE
BC67D2F0
BD906AF1
BC173336
BD6BD0C3
3CE323CC
3D129415
3DAF07F9
BCC646C7
3C8EF16B
BD40983F
3AEED87B
3C08A347
3C56BB21
3D13713E
BCE6DFC5
BD2CE841
3D24E6F3
3D38D55E
3DC28740
BC6F0400
BCDAD7B2
3C25C898
3CFA8324
3CCD93EC
3BA833D2
3D29AF47
BD8B401D
BC541FD2
3CC09319
BC9CBA96
BD106700
BC86BD18
B9349041
3D179BD2
BC809740
3CCEB015
BD427BDA
39A4F7A2
3C8F3407
3CA0D4AF
BC6952B8
3D317916
BD699623
3C54784B
3CA2E0B6
3D045059
3C79F448
BAF02B0D
3C4C5AA2
3B4ACFAB
3C8D451B
BCA3413C
BCF04993
BCBEDEB6
BD49AEDA
BBA313CD
3C0314C8
BD29674B
3BA2037D
BC99DEE7
BC8B0DC1
3D3E1B60
3CA4573E
3BC5062D
BC53A158
BB2961C2
3C2949AD
3BC9B454
BC8C1660
BD3E138B
BCC2FBFB
3D0A8327
3CE83A24
BC5F7857
3BEAF1FC
BCEF9829
3D182A84
B69BE7A0
3CFBC09A
BC0181D3
3D35582E
3D2536D1
3C1ACBFF
3CFA9753
3A3A63D9
BC830721
39DD1EC5
3CDAB5D6
BD34E7F8
BD4A041A
BC95EDC9
3BFF5B5E
3D18C81C
BCB88AA6
3CEBED4D
3A818DEA
BCBC6B68
BD0940F0
3B3D7FF4
3CAF0C21
BC2B22DC
BD1F4692
3D4E5367
3D1B89B9
381413D3
3CDD9497
B8106B76
3CF2B7F9
3C252B3A
3CFBC910
BCE29C16
BCFBDEC7
BCA825F4
BC292487
3CCBB57C
3D3523AF
3D12438D
3D294DC9
3A3A759B
3D3A3D0D
BD00021F
BBB2BB61
3CC6FAD0
BCBA2921
3B3CD58E
BCC51DE3
3B9ACB20
3D32206A
3D4C0ED0
BC3FAE50
3AE4A5A5
BD680808
BD4B1341
3CA755BF
3C0BBD3F
3CA1FEBE
BC7CC7CA
BCE7424A
BCA7C4B3
BB63E4DC
3C83C4E3
BBDB3B02
3CAFBD2C
3C9F8C71
3CC9AFC9
3B146BDD
BB25B3E6
3B9EB744
BD430DBE
3BF63246
3CEC1795
BCC2C6BC
3D0A03E2
BCFC4F9D
BA247AC7
BCA211FE
BB89F736
BCF09FB0
3D119690
3C8D3DD5
BCB91F1F
BD818015
BC832C16
3C960E55
BD662BCE
3C59E8C3
BB9B960F
3D0BB7AF
3BB98636
BBD97B7A
BBA8AE66
BC491FC2
3C13ED1B
3D2F3A14
BC358F1B
3CB8471D
BB06277E
BCD269AE
3C18B99A
3D6C5599
3D19D644
BCC59B3E
3C37422E
BC48FFF8
BC50DDB2
BD4F7F82
BC277008
BCFA1415
BD4FB9B9
3C127161
3A5D0C6E
3CD22B19
3C157735
3CBE2D9D
BCF8627B
BC7BE2AA
BCA5A5E0
BCE4C52C
BCCD4437
BD152E5B
BC8CC13B
BD22ABC5
BD50C021
3CCAD985
BAB201BC
BD17DC84
3B0ED54A
3D4569A1
3D3443CB
BC7BEE50
BB663131
3D4C8E74
3CD9464A
3C88E1C2
3D5C2D9D
3C9D9B08
3BC9632E
3CEB9E6D
3D02AB57
3CB15993
BC5093A5
BB6B39F6
BD10CEDD
BD352815
3BD75E51
3C27CB83
BD073D0F
BA1CE381
3D84EF8F
BB106CA4
3D3E0121
BC92335E
BC23DC88
BC4022E4
3CB0934F
BD06717F
3D1FBEBA
BD26A652
3BC8996C
3C83F79B
3CD6AA35
3CD32C5C
BD4B011C
BD216B0B
BD20A232
BADA3B94
BD2A6643
BC0DE61F
3C756ABA
BD12A304
3C1E2422
3C140B90
BD497430
BD247481
BCB9D496
3C901949
3CC99EDD
BB9D20EF
BC0B845D
3CAE272C
BC9B118A
3D389BE2
3C99773C
3D7363C1
3D557C09
3CA37135
3D3F57C7
3D1E4FEF
BC1256D0
3D44423D
3CC35B90
3C608CC8
BCBBB659
BC41E6B2
BD3EED0D
3CD5D112
BB055262
3D038C76
BB8661F4
BD51C3CD
BC78773D
3C49484A
BBFCF3D3
BCAC6B3D
3D0BCB01
BD09B702
3B9654FB
BD34BADF
3D1F6455
3B7882C6
3CC0D09F
BBF5B780
3BDB6227
3CAEEE32
BD69D7B3
BC360817
BD555218
BD0E4E77
3C05BC9F
3D066C8F
3C687EFF
BBFB7188
BD14766F
3D2745D4
3CC4005F
3D21BD35
BC8A7154
BD81D835
BD154E75
BCA4F302
BD18EA93
3B8B9A24
3A6DA8EC
3D410422
BD40BBEC
BCB08357
3C1FC128
3D5A6B15
3C248491
3BAAE94D
BCFD4DF1
3D71A344
BD19990A
3D022215
BC91EBF3
B9620D49
3D6F9392
BCA8CE02
BCE9BB8D
BCDD6470
3C8D0254
BCC2B78F
3D011794
3CBD8533
3D15F4FC
BC1E2DA0
3D0A2B8D
3D19DB43
3CFF7C49
BD4A2E1F
3CA733AC
3C52DFC7
BCAFF12B
3D604414
3CC3FA0B
BD207B5E
BCC59E4E
BD2B39B2
3C44D57D
3D359DF2
BC8CFD2B
3AF22E14
3D570F9E
BD131D27
BD11B0D3
3B07788F
BC15A011
BD32C08F
3D0FA10C
3D435C70
BCD016A8
3D066617
3D1A29C7
BC8450CB
3CF7510C
BC2F0472
3D390E79
BCC454F7
BB8DA6D3
BBEA7A4A
3C178610
3D27C283
BD105F2D
3CBF7656
BC3885A7
BD41D4A3
3B9DCC25
3D828E87
3CF0BB85
3D7D72A6
BB86C424
BCF515BC
BC8E0BEC
BCBFF471
BCA8E4C5
BB893E06
3CCBA28E
BD0BCDFE
BC18CA62
3BAE42C8
3D2842AD
BD01D234
BC8E823A
3C663AF9
3D459FA6
3D38198C
3CA9AE8D
3C4D20B1
3CC965A9
3D15AD5C
BC9817B1
3D079516
3D00FE76
3CA75183
BC7D81F5
3D294462
BD7352C7
3D1905EB
3B1DAF20
BAE12BAD
3D1A7BCB
3CE47F8C
3C922A91
BB47E8DA
BD515E3D
BCA3D49C
BD391D11
BC9ABD66
BD540B51
3CE37780
3CFBEE0C
3CA30055
3CCF7912
BC0A2DA8
BD0E917F
BC1CE08E
3D13E1E5
BC182618
3B6F0E42
3C000B57
3C4319CB
BD01A27B
BCF444A6
BCA18F53
3D09400B
3B2375DB
3AC207F0
BD1AC6DD
BD139E55
3CA7FDE1
3D15D536
BD07A820
BBA621B2
3D265C86
BD4A57E6
BD2EF7B9
BCF6D7BD
BC5BF757
3D05CDCF
BC8D3B3D
BC0FD198
3D49ED6E
3CA918E0
3B4E68BF
3BBADD49
BA9DCCBA
BD14ED74
3D09E6AE
3D0F10F5
BCBB9DF1
3C3CEA3B
BBF5F457
3C1B4EC2
BAEFD871
3D0EE44E
3D133B9F
3BC2FEAC
BB80EE9A
3D02E010
BCE0D66D
3C32F24B
3D2CF7C1
BD1C1B7C
3D15D0DD
BD6AE05B
BCFB5E69
3C996656
3D327A54
3D21FCE2
BCD591A6
BD3F848D
3D21BD5B
BD1426F4
BD094602
3D386DDC
3CDE063E
BD3F5559
BD1F846E
BD061C90
BD06D422
BCFFB724
BCD65583
3CE9F28D
BC88F248
3CAB62B0
3C23D93E
BCEABDD3
3C8E508E
BD1D6312
3D01F841
BBBFBBC8
3C49263F
3BB8B7A4
BD3B9667
3BA5182E
3C6E27F1
BC995A46
BCFA511D
3CBA35DE
BD146F9B
BC1B1253
BD22C03A
3CFF0498
3BE1604A
BD1E0821
BCD1F1FD
3C1C421B
3CA78DAE
3CCF1879
3D0027F5
BC571DCE
BD02CE66
BC1E77B8
3D28BE45
BD1CF578
3A98263E
3D3A970E
BC1E3AC9
39FE71B1
BCD7A698
BC9DD697
BB4B1FB1
3C89B1D8
BBAF3F6F
3B64F400
3CAF5143
BBF93342
BA4AF5DB
BD34AFE9
BC98F4BD
BCA2B168
BCAEE2F5
BADAD446
3CE0E081
3CF9AEAB
BA9510EB
3D4D4659
BCC1B0F6
BBB55C2D
BCE4AAD6
3B6681E7
BD1F4AE5
BB8953B6
3B5D16F7
BC8189FA
3D207251
BC886476
BD6DFB02
3CEB79FA
BC8F32DA
BD254161
BD5BC8CA
3D222A21
BD3A802A
BCCF0961
BB72B7AB
3CEE2475
BD03AB38
3CAF9E80
3D3E5EA6
3CACD17E
3CCB5706
BD04F178
BD0C91B4
3D3B74B5
39751E90
BD327880
BC9F507C
3D127056
3C353EA8
BD06BDF9
3BA440DB
3CF7E219
3C683CFE
3C471AD3
BC4D2C79
BBF28D1D
BD20BEC8
3D1C2F41
BD0E006A
BD472BF4
3C60C1D7
3D24D83F
3C803229
3D29795D
BCBC80D4
3C530967
3C68ED6F
BD3D2B94
3CD4276A
3C7EBB15
3BD56310
BD43E19B
BCF82AB5
BCF8E704
3C977BD5
BD1580F6
3D3D45C2
BD25BDC8
BD38FB24
BCF26B68
3D485DAC
3C7FA6A5
3D691272
BCA0910B
BD36EE20
3D1C5CC0
3D31BDFF
3A3DFD3B
BD445243
3BD173A0
BB7BA0AC
3C2DE6F1
BBD2F672
BD41ABF8
BD56B4D4
BD1B9A01
BD3E1273
B8758557
BC590421
3D15D926
3D369D23
BB2F21A2
3BA8D71C
3D187377
3D53B19D
3B2379E3
BCD04A04
3C84C844
BD352745
BC67F7A0
BC6113C4
3CF2DB14
3C8AFE64
3D281B8C
3D0946D1
3D4D72EA
BD0709E1
3D02AA00
BCD8969A
3C9D0B4F
3C8ADB3F
BC14A8F1
3CA9C6A0
BC4B6773
BD01E030
BCDBC1BD
BD41B6AA
3C972AD9
3C6F63D5
3D23113A
3D147AE0
3C1053E6
3D50A6F8
B9B03922
BCC88268
BD638A1F
3D0DA2C8
3D0C67D0
3D303BE8
BD3CBB62
BC8C0FD6
3CD37370
BCD8673F
3D078225
3C87165A
BC86C7F7
BC202034
3B87C359
BD4A35EA
3C07D07E
3CADF7F5
BBC4463D
BC421F3B
3C112F49
BBD35156
BCECBD87
BC5D4B81
BCD10509
3D05C0E4
3C6102A8
3C014981
3C960D0C
3C3BA165
3D0F6376
3C92D2FD
BD518BD8
B97D27C3
BD2E84F7
BD6777FB
3CC759CD
BC02B4F7
BCAC3719
BD66837B
BCBC037E
BBD8A6D5
3C9DF1A9
BD026BB1
3D66F692
3D0F3260
BD32E7AA
3D27B485
BD063FF2
3BF12244
BD228847
BCAB4200
BBAA255B
3CFBB053
BD13D257
3CCCFD55
BC3B4537
3D033432
BD5FAF59
3C8A77C0
BCD44018
BCAFA7B4
BCF6EE5C
BB39BB96
3D044041
3C8BDC00
BCD33CEA
3CA667FE
BC95866D
BCC557C8
BCD2D2B6
BD4ACE0A
BC0860BE
3CCC0936
3AC9DA0C
BD1FFF01
BD28FDA5
BD5A3F8F
3B8176DA
BBCE7CED
BC795940
BBC1D8EF
3C335B19
BC57A6D5
BD108325
3CC21055
3D4AA2D8
3D22EC4C
3C51F5B6
BD02308C
BD37192F
BC483A87
BCF3C402
BCCD7A33
BD10DB08
3D0D3258
BD30469A
3D019D21
3D2C7934
3D494D35
3B95F564
3C651C45
BC072F12
3C825B70
BD36C60B
3D3B0E42
3CE272E4
3BCA28A9
3A71DEAE
3B28678D
BD3D4FB7
BD15AFF7
BBB8F6E7
BD805B34
BD11FC77
BB1B27C8
BD30A511
BB3DAF39
3D248E90
BCDB1DF5
BC21BFE9
BCD369A5
BD38E169
3D2DC298
3CE745C5
BBB63D6F
3C847FE1
3A960D0E
BCEE5F78
BC686BC1
3A1394BA
3D0691AA
3D196E89
BC3F56A5
3C90CE53
3C90F3BE
3B800CCD
BCD7D287
BCBC538B
BB2C5E76
BCEBC87E
3CC247ED
3C1E9E44
3C8312FF
3CA4339B
BB8B2B3A
3C17A4E3
BD4DF9A4
3C137712
BCA26538
BCAE8FFA
3CC44346
3BDD487C
3C9FBDDC
BC85EE7A
BC335E61
3D14D88B
3C9493D6
3AC5181E
3CE5A7B3
BCBE3FD4
3CA408F0
BC9DA0B6
3D29D3A7
BD345F12
3C34A14F
3C639C8D
3CFC28B5
BC79A913
BC857856
BD176145
3D4AAF49
3C681FB6
3CCA8B5F
BCCB7B6B
3D245694
BCAD8267
3B23B8ED
3C890E0A
3C73942F
BD3F8EE9
3C9B82ED
BC692FF6
3D45F662
3AA91DF0
BD2F17A7
BC1669D9
BD415BF6
3D40F55F
3C8E936A
BD29E1D6
3CF21738
3CC85FA7
BD3F2835
3C4F9432
BCCE1402
BCF9C64E
3B35F0BA
3C71EAE8
BD1508F7
3D0FEE47
BC86DEA3
3CC60448
BD11F214
BC6AB3F4
BD1AA82B
3D05E015
BC25319E
BC973A2B
3CB0E214
BC9B1B81
3B8CA463
BCCD641C
BABD0C0D
3D211E26
BD0F3458
3D26BF9D
3C3AA8F8
BCA5FC7A
3BF8468D
BCE2C4CE
BC6B44B9
BD4867D5
3D15BDF2
3D3F194A
3C87E397
3C742728
3BA5F591
3B58638C
3CD13D81
BD29FE96
3CBADCD8
BD0A82AE
3C4CA5B1
3D1FCAAF
3CB6AD54
BCE3CF05
3D50379D
BD2462C0
B84CF8BF
BC50C4A6
3C3ACACE
3D16BAD2
BD2817E7
BD0032CA
BD1D1CA5
3CA44359
3B1DAF25
3D26FDDE
3CF9FBCC
3C1477D3
BB8A54F5
BD23A466
3CC25FA6
3C9FDF31
3CF715E2
3BCA2FCC
BCE6BE6D
3CF91BD6
BB32E919
BD4216AB
3D4A8D58
3BD14460
3D1C694F
BB076FC5
3CD82574
BBCCC7A8
3D333A18
BB9AB1A7
BD4B2BC0
BC0B2570
BC6245A9
3C14BBF3
BCB06D88
BD4A4FD2
BBCCF33D
3C9AD5A6
3C0D69E8
BD1C2DD8
BC5EB079
BC68B86F
BBD04915
3C608849
3D30C852
3D442597
BC674AFF
3D343918
BCC8A7E0
3C1DF287
BCA68235
3CCA0705
3D1FC6A3
BA9F6131
BD1D6B6F
3D28B133
BCB06407
3B8A862A
3CBAED08
BC99450B
3C82A889
3CFA1008
3C8C1344
BCE54EDF
3D0A37A2
BD0F4838
BD55EF1C
3CAE4DCB
3C91F6F0
3D2DF109
BCDBB165
3CEF055C
3D0DC4F9
BD09BB60
BC313F13
3CCE9B2B
BBA59E4D
BCA32D85
3CB730BD
BCE826E2
BC818411
BD451286
3D32CC70
3CAFDF9B
BCEF903C
BD4CC82D
3CED83CF
BA6053B6
3C236595
3CAA7F9F
BD4386D1
3B61D4B3
3B026EAD
3AE3035E
BD3D1F55
BD0E591A
BD021C52
BD19AA4F
BD26F5C0
BC9809A6
3D451D12
BD5643FE
BC7687D0
3D0673BE
BD36557F
3D02EC87
BD0F8F9C
BBD6A768
3CF524A4
3D5E1BA3
3D13B087
3CBA8576
3CDA4AF5
BD0404B8
3D2E98A8
BD3EF864
BD23816B
BCEB6B9F
BAADE947
BBDDE5B5
3C669F50
BD13CD8C
BD2CAD1D
3B008691
3C775099
BD256585
3C6B6064
BC26E92D
BBB0A5EB
BCF5F825
3BD7F78E
BD216780
3CB9DBAF
3D33F835
BB5F73BE
BD430188
3D421815
BC11415F
BD12DB8F
BD1E95F6
3D331258
3B180444
BCDCFCF3
BC829359
BCEB0064
3B96B020
3CC9E6F6
BD050C22
3D1FC814
3C194927
3C9527BC
3D3CC287
3C898B21
BCCF99E6
3C91B2A1
BD3999A2
BD733B57
BC436AF2
BCA23A88
3A0F8D77
3CAB1996
3D2080A4
3C244D23
BBE1EFA0
3D3F4D38
BCA2859A
3BE33AD9
3D42E522
BD3F4FF2
BD110D2D
BCBF03E8
BC180F1D
3D550D1A
3B24C037
BC801B56
3B854658
3D03DF80
3CFBB506
BB0351FA
BD185881
BD04D9D1
BC594BC3
BD4CC6A6
BC398472
BCA8ECF5
3D20C081
BB5C4A41
3CD0A606
3D534BE3
BC2E7D4A
3CB82179
BD1895B9
BD3B9099
BCC483CB
3D37889B
BC928BC6
BCDE7B50
BD5C89F3
BC23E243
BD33A7EF
BD4CF039
3C7D93F1
BA9B35AC
BBDA16E4
3D03E393
BD18B8F7
BC0A7FA5
BD171CCF
BBA2C64F
BC89133D
BB38FFA4
3D0DE22F
3C27BC5B
3A5BA941
3CAF8396
BD07BE82
3D202E11
3C96568B
BA92F9CB
BC3264D2
BCBF5589
3C4C3926
3C037ADA
3C2A62D9
3C344737
3C873B76
BCA6607E
BD4C8FB1
BCB079CD
3C0F6359
BD58BCFC
3D164F93
3CF71F20
BD3D899D
BD44A8D7
BCB4BA59
3CA48575
3C0791CA
3D1F9AAD
3CC420FA
BC36AC56
3CF58E05
BD24486E
3A50EA82
3D066D13
3B5762E4
3CC70EE4
BCB89172
3C18681D
BC98B64A
3CC91D30
3CC8E3F8
3CA446D3
3D2EA057
BCD63283
3C2DB9F4
BCCCE496
BA320EB0
3D3AD4E5
3C49D801
BC1FB91A
3D3B3E0C
3D0A9E60
3C6A5FE3
BD17BFF4
BCF82B21
BB8A0A05
BCB7C37A
BD20EA0B
3C666262
BAB487CC
3C1F6B16
BD5A3D81
BC0D0BCA
3CB78A7C
BD3B014F
BC9EF5FF
BCC8093B
3CF855EB
BC9F2CC1
BCD61CE3
3C4F4630
BD41A2DA
BD12F013
BCE4439D
3C27F78C
3D1265BF
BCF87FBD
BD24FF25
3CC372E9
3B39303E
3CB6D21A
3B7E73EB
BD307343
BCBCED8E
BD46E077
BD34B868
3C6F84C1
3C08CA9C
3C3EA278
3A711395
3C5B00D4
BCA68D54
BC412365
3C8B40C1
3CF5B117
BBB2F32D
BBE3F55B
3CABF6F2
BD020C9A
3CDF6D57
BC84CC18
BD259C9D
BD1D12C0
BD05A2DA
3CBB6E8E
3CCF8DC7
3B945EB7
BB78026F
BD34A8FA
BD39388A
BD33ADB9
BD3B452A
BBB6B2A4
3D183FC3
3A250BC1
3CF234FB
3B9867D5
3CB3D646
3C3AF7BC
BCE678CE
BD56E302
3C8B3F53
BD376505
BCB5561C
3D0D1FCD
BC8E9811
BCB57979
BCA9FE8D
BB260492
BC171851
BB448C5D
3C9DEA9B
3C8E1159
3D1DD179
BC45C984
BCD7B554
BC8A2C33
BC842A22
3D2B5ACD
BBAE5348
3CB660F7
3C99183B
BC1B8677
3CFE3820
BBA084F2
BC00EB6D
3D241429
BCD8D3EE
3D155FBE
BC0B6FFC
BC91D46A
3CE75452
3B1E12DE
BCACB5D5
3C045AE1
3D13F527
3D2207C9
BCC9B1BA
BD354DA5
3C9A13C6
3D15CA46
3C2B8819
3A20BAB5
BC171D69
3D3266EC
BC038632
3A610613
BCEDD6BC
BD33BFD8
BD04FB43
3CD50922
BC85877F
3D05EC16
BD1C825E
3D103CDA
3D0B1A95
3D5840D7
3C7FDD85
3CAE072B
BD039AB6
BC9A3DF9
3A7180A0
BC6D12B4
BC27876B
BD31AB44
BD064741
BD231CAC
BB1E5626
3CE90484
BC8498CF
BC2A2124
BD2FDF17
BD1471B0
3D007556
BD07ED25
3D053015
3CBA6F8B
BD1F8084
BCDAA595
BC88FE65
3D0DBB6B
BC824899
3BD1799B
3D0D9E1C
BCB509F1
3D2E5B1B
BC1916A2
3C4C6ED2
39CACD15
3C93D7F8
3CA2BEE2
3C07C06B
3C40C8AF
3C1FB68C
BBE14473
BCBF70BD
3D0DF4CC
3B1C116B
3D0EDDBE
3C47568B
BBF615A6
BCD9D1EC
BD46DC3B
3C88D0AA
BD42A618
BBD00B2B
3C8B02EF
BD367880
3C15A5E7
3C18B8AD
3CC66D57
B9813D62
BC710A6B
3CD0AE3C
BC51EDBD
3D1F3B0C
3D00D269
3D1442D7
BD09D591
BC2AF6EB
BD065FCC
BC56088B
3D0F85D9
BC5F76BC
3D1A007F
BBEA1E36
BC121187
BCAE86FC
BB529410
BD0156BF
BC55DF14
BD1B4D2A
BC36AB92
BD1F73BB
3CC3B001
BD68CC52
3C93BEF2
BC78A0B9
3D075F45
BB0617A8
3D2006E3
BC5865AE
BB1EFA63
BCE85E83
BD651A4F
BCC45D58
3C52BB49
3D2C1137
BC85A6E2
3B59CF15
3B9F0633
BCB7EDBE
3D2D0B81
3CC518FF
3CE0A647
BD38CF91
3C99BC40
3AA6B2DC
BD3CB763
3BF35B60
3CD742C7
3CAFB466
3D27B501
BD13D097
3C2E0C67
BCECBA75
BCE99603
BD3E67CC
3C8477FA
3BBE5BA9
BD2CB696
BCCD97B8
BCAC12EA
3D2D8937
3D4B79E7
3CB2AA68
BC45F34A
BBDE3731
BCC49DBA
3CC5B777
3B01658D
BD6C6BE7
BD3D1A15
BCADD965
BA9D8CDD
BD073CCF
BD1E6235
3D25CF9A
3C9B2061
BBCE34D3
BD323D0D
BC556364
BC942358
BAD200C1
BCE8DA5D
BC359BB1
3D25EA3C
3C845B22
BC35FDD5
3CC648CB
3C02E338
BD4BB2E9
BD04C78B
BCAC2721
BD629FBE
BCAECD1B
BC383DF6
3C817F99
BC513629
3C0CF442
BD588942
396F5BF6
3C917BE6
BD3DCAD0
BD0A370F
3D25799F
BD234426
BB8A3D3E
BBF6294B
BD1871DE
BC9F0585
3CC4AABB
3CC7349D
BD5C612F
BD0B7FB2
BD0D603D
BC463668
BD5B221A
3CE3DEAF
BD014DEF
BD286185
BD3BEEEF
3CF9815B
BC93DEBC
BD395561
BC0CCBC5
3B367947
BD21716A
BD1E94C7
BC23ECDD
3CD51EEF
BD26FC80
BC7BB9FD
BC7BE71A
BCAF109B
BD335D20
BBD91811
BD5314DE
3D1924F8
BD2E0F74
BC17A19E
3D1D2D54
BD046013
BD0AED5B
3D18B31C
BCDEB3BF
BD13822C
BD0A9CD6
BB6BCB7F
BAAEBB7C
3C8D359D
BC6288F0
BD2B063C
3D09FA39
3BBAE994
BD144D16
BC15C764
BD34F654
BD1EDD80
BD02D491
BCA2CB89
BCB27E97
3D15A9BC
BC35DB52
3C3B00BD
3CEC1900
3D2DDE02
BD2D32F4
3D4832A3
BCECBAD5
3A8AC060
3D09560F
3D1F92D4
BD493BE6
BD5828D3
BBAB880D
BD169819
3D42F7CB
BBA2A6A5
3C64DEAC
BC8A2FFA
3C4CDC04
3D0545E3
3D875839
BC0ABA9F
BD03EBB3
BCA5A7C6
3CD904C8
BCA2DF92
39FA047E
3D18D5B8
BD1C3531
BD5BAC99
3C817E88
3D0EB83C
BD3BAE2C
3C071B5B
BD0C1D27
BCDD530B
BD240F3D
3C4BBB97
BD03E392
3CDDF4FE
BD1E9DC3
3CE9E20D
3D5135E2
BD063F9F
BD442B3A
3D39A291
BCCC65AA
BD16F015
BD1E87FA
BC9F1A06
3B1D08F9
BCF74A8D
3C547701
BAFAE93C
3D5000D7
BC09A42B
3C90BD58
BCD4553E
BD2D43CC
BB23060D
BC6D99F5
BC02CF12
BC497ABA
3BD2CDCF
BD138CE8
3CB2507A
BC570499
3C844DF6
BCC95713
BC6A3C10
BB18AEC1
BD10F4AA
BCF87547
BCBAAA01
BAD041C0
BC72884C
3CAA1F0E
BCBF25AC
3CFBA92B
BCEDF142
BD061DCD
BD4E54BF
3C9B9ADE
BC105382
3D05E963
3CA5BB98
BD0224A4
BBA49E06
3D2B2464
BC008455
3CC99886
3D2692B0
BD0C14F3
BC280A78
3B3B4875
BCE4D036
3CF7B93A
3BB53CD6
3D13962E
3C9A5872
BBFD6C95
BCEF9813
3D2413C1
3BA1DDDB
3D2A29E3
BD3A070C
BBA7A424
3CF04089
BCEB3270
BC90ADAE
3D259819
BBC189EB
BC73F81A
BD356AEA
BCD82A97
BC246D47
BC38DE51
BC59DEA8
BD39D648
3D12F03F
BCE3D877
3D29AC7C
3CD09DD7
3BC7DE16
3D46526A
BCFBB9CA
BD0DE35B
BCA004FA
3D06C7C1
BB1E4083
BD106C71
3D2B33F6
BD0B7180
BD1DA9CF
BCEBF107
3D0C0F87
3C770152
BCB6A4F3
3C003BC7
3C12BFD3
3B157D62
3D0AE19C
3D2EECA3
3AF477F0
3D2DD3D1
BCE42EE3
BB85AFBD
BC372CE0
BAC96DE5
3C2BB520
3C593CF2
3C9E1A45
BD467DBD
BD690BD0
BCE56970
3CF2139F
3B96C5D5
BD76700C
3CACCA87
3D10DBB6
BCEDCB96
BD2C16F0
BC77A2DE
BCE9EEA4
3C9BBA39
3C6E58D3
BCBCF94C
3C8D1693
3D7A96B1
3CD8CC3E
399EFFA3
3C38B423
BD6093FD
B90DEC73
BD0B24D5
BC9E5FCA
3D44E667
BCC33BB9
BB38FDDD
BCA5EFB2
3D3627E0
BC68F7FE
BD2557D1
BCE8DD0E
BB399DB1
BD1FD5BA
BADB567F
3D3702A0
BCA5D926
3C144D89
3CA322FD
BCCC49E9
3D0B70CA
3D057F93
BCEE78EC
BD44C6F2
3BBC6CF7
BD45932A
BD0CA093
BC9F8344
3B85E557
3CCAFCDA
3D4019D0
BBC3C84F
BCCD799B
BD217E59
BC9CEA8C
3D088547
3CA43D01
BC8F5C72
BD1168D1
BD179869
BD1F5F3E
3CDA34BB
BD6ECA58
BAE1BBA7
BC8A64FF
BC90B3BA
3D06C9EC
BD7FC231
3C71C76C
3D1CFFF3
3D121C9F
BCD75CF1
BCA1C2EF
BD31C270
BD03BE59
3CC68E34
3C68859F
BC6428CC
BBA96975
BC945529
BD1CA1EA
3D607D9F
3A01922E
3C8D7D53
3CE119BE
3C2B6F57
3D917247
BD23EFFD
3C564E7E
3D062A5C
3D20F48B
BD3DB55C
3D5F762B
BCD0CF61
BCF61A77
BC7A05E5
BD878844
BCDC0BB3
BCC6E54F
3C81E8D3
3C7BE65B
BD9EC3AC
BCB71584
BB9EFAAA
3D5DE2A2
BBA29A5E
BD8B5E10
3B56B6FF
BCE44586
3C41F987
3D30A9BB
BB5C2EC5
BD703FBB
BD095F92
BCCF3FBA
3984E043
3D2C8488
BD275DD4
3D0216F4
BCFF04C5
BC89907A
BCE2318C
BC550591
BCFC1087
3D861BDC
BB8D06B7
3D1F11AC
BD194EFF
3D1FA5B9
BCE244B9
3D5E5C76
3CA43CC6
BD0E05C9
BBE9A752
3D3049B7
3CF7E60E
BD148B17
BC4404D6
3CF2528E
3D32B814
3BFD8AC5
BC38804C
3C1808A5
3C3F6E7F
3C745E95
BCCF7854
BCDF88F5
3D421162
BCC4342D
BA6F111A
BCA35C22
3D2F9162
3B10BBB1
BD5377B7
3C719B32
3CA3A8C2
BC44D7C1
3C50B090
BC798ADF
3C73D99C
3C393251
BCF7078D
3D06A52A
3BEAF04F
BCBAF57D
3B9ABA4A
BD2CB3BB
3CCE59C3
BD4D2A24
BC849866
3D349300
BD2FE267
3C62FBC7
BD3A6427
3CBC5699
BCCB8294
BD58048D
3D317912
BCB0F86C
BD0BA21F
3AEF3B4F
BD4A7AFE
BB92C59D
3C4BEDAD
3CBC4BC5
3C857543
BD207E62
BC1DAEA8
BD38560D
3D235089
3C22A204
BD4FD8DD
3D2E3CBF
BB93D5B5
BCB23EE7
3CFCCCA2
3A672E2F
3D6DE26D
3C2606D8
BC89BCC1
3C8C94D9
3C5CD628
BC0B9A0A
BC842C2C
3D5FB297
BD0CCE6A
3B8D82DA
BC997573
BCB80794
BC6A1219
3D1F6275
3D11E8E3
3D7DA445
3B33657E
3CB2357E
3C0C3981
3A01A810
3D4232E7
3A76B06E
3D96FF0A
3CAAA4CC
BC441B6D
3D6B0F0E
3D00478D
BC01426B
3C079529
BD3B0B09
BD12E538
3D2A3B27
BBC6DEED
BD180E3F
BC99649B
3C53D088
BC28657A
BCED6944
3C4DA1CF
3D04B926
BC559E89
3CED1B8D
BD367CD3
3C7FCFC4
BD2CEB4D
3D29422E
BC826D14
BB5ECA85
3B444F21
BD3FB868
BCC5B3EB
BC854CD7
BCEC2017
BCED33BC
BD579C2F
3CA0113F
BC10EC15
3D4E1751
3CE0E63E
BD135066
BC490982
3CA6637C
BCBE6633
3C599551
BC93F62C
BB1BD86F
3CDCE004
3C3BAB38
3D0F9E52
BD173A9C
3A9B6B05
3CC3BB6A
BD614500
BD351D51
BC8D61E0
3DAB170A
3C4D4FC0
BCE0CF79
3D4E8129
BC5F9FFC
3D7655CA
BD0C2B23
3CC21F9A
BC3D0545
BD1BCB89
BCCB91A4
BC3F8591
BC936FB6
BCD51438
BCD995EF
BAD0DE10
BCB862DD
3D4F30B2
BD3000EA
3AC91BD9
3BBEC734
3C9EB29C
BC87107C
3D7AF3B7
BC0F36B3
BD195CD9
3D08A921
3D2CF186
BCB9AFD4
BD0B3145
BC1B0671
BCBE57EF
BC2D1348
3B6591F8
BD7CF16A
BA1F18A0
3D0FE6CA
BD084E19
39FDC794
BC99C41C
3B8233DA
BBB980BC
BD13F781
BB0EDC37
BD845819
3D076834
3D21BF41
BD3EA8D4
BD31AD4E
BD2EF23F
3D17D9E9
BD133E8A
3CF8887E
BCBEFF2F
BC5F758F
3D3620B3
3D23EA64
3AA6584B
BD3CD4E5
BADFEF5F
3CECAEDD
BB7109EB
3D25DABE
3B6D741A
3D85385E
3D5C8629
BC87A187
BC249932
B860C943
3CAA7E9A
BCBD7E23
3BC9809B
BB3FAC74
3C506413
3D1A9475
BC30BF0A
BCC58DF0
BCCB315C
3C204825
BAE4E052
3D414865
BD1A7548
BC2D749B
3D6C5664
3D07EFA8
3D2104B8
3CE39C11
BC8362A7
3CEABAFD
3BE71149
3CF715FB
BD3C8A12
BCEA8260
3B3BC9A2
3AF824BD
BD204F30
3B9D934A
BB829B33
3CAD34F3
BC9729C5
3D864378
BD1CAC9B
3AB76002
3D191933
BCF9BC74
3B494348
BD23F9C0
BD38FABD
BC13495F
BCEA641A
3CDF7C1F
BD0C7BED
BC9C740D
BD04D25B
3D92DC10
BA482F82
BCF5C85E
3BBE40E9
BCF8531E
3D4BC897
BD256D2D
BC776A68
BD2502A4
BC6858EA
BBA4A9E7
3C2070E7
BD091108
3CAA4DC6
3BDDD3FE
3CEDA2A7
3D35FEC1
BD3C5BCA
BB8FB476
BB5B649A
BD472813
3C6DA723
BD669BC5
BC6E54A7
3C828368
3C51CF1E
BD055CB0
3C87A901
BD22A419
3BD71244
BC9C263C
BD0CE483
BC0FE801
3CE871F6
BD36B633
3D1E46F6
BD1D3BE7
BCCE6970
BC721BF0
3D1490F6
BD4EFC10
BCC07F29
BC81C4F4
BC8093D3
3CC7981A
3D2909D1
BC0EAC99
3CD05AE1
3BC0A3B1
3D16C47A
BA8D304C
3D1E9508
BC98D4CF
BC865216
3C1A06F9
3D205FF5
BC0741FB
3C079CDF
BCE83E59
BD1A42DB
3BF8DC90
BD5658DA
3CE51FB9
BD369FA2
3C8E146B
3C167D77
BCB3E0F9
BC8D5695
3C81B10D
3D26F079
3C417631
3B92280B
BCF87344
3D39E086
BB626C1A
BCC70A92
BD2ED0B0
BD09BBB4
3D6E3AB1
3C14271B
BCBF6161
3D0B1749
BCD63019
3CE00FA2
BCFFEBA6
3C8CF89F
3AEEAF0C
3C4FA8B9
3C6BDE96
3ACE7EB5
BD3BA1BF
BD535E8A
BD407187
BD901611
BD5BC805
BCA7C46B
BD1E8E9B
3BB4D2E3
BD44BCD1
BC49B9A2
3C79EC1E
BC0F7927
BD224428
BCEC203D
BD397003
BD83B50F
3BF54577
BBE6E704
BD1337FF
3CF85D3C
BCD14A29
3D9C53FB
BCE3A5BA
3CCCF5A7
3D434E61
BB880812
3D43213E
3CFE2625
3B31E2C8
BC1DA66D
3CC524B7
BCF0AD67
BC8D30AC
3CBE9ED4
BC338EF4
BC73F648
3D480504
3C463E13
BD5A477D
BD0B2319
3CEA5B5C
B9C1550D
3C91E780
BD0B03D0
3D544F46
3D6B8BF8
BCC96395
3C4318C5
BD4413D5
3CCF9643
3C9276E1
3CD00736
3C9891F5
BBC20551
BD2CF55C
3D5DBBCE
3B5EA937
3CB49358
BD2D6758
BC41F1D1
3D6E1D14
BCBEC5D3
3D00EAE1
BCA1B981
3CDA65C6
3CCFAEBC
3D423274
3D543556
BC002D38
3D1DF7BC
BC5DC9A4
BC84CECC
3CBCB83E
BD1A59AC
3B91F5AD
3D754019
3D41AB1A
3D66C875
BD405B97
3BE43292
BD100DFC
3C606D13
3D2151D4
3D08329A
3D2D836F
3CCDDA80
3D7B308F
BC8D625F
3D290F15
3D5ACE14
3D236D09
39E04755
BBB4AE22
BCD53EC5
3D0F7E9A
BD41633B
BC9FD0C3
3D41E8DF
3D40137A
3B8D6B49
3CE95ABF
3D402D73
3C3A4CA8
3CE9B93D
3D6C43C0
3CF2E8B9
3B02B964
3D27C0F0
BC656401
BC7087BF
BD220C29
3BB105F6
BD4426FF
BCBDA9BF
BCE2875F
3D5AA66D
3CB2F161
BD0B74B8
BC0DEAAF
3D08EDEA
BD0BE0DB
BD56053C
3D1EAD50
BB82ECF0
BD01751E
3D548D10
BD18E2C2
BCC351C8
3D21C3AF
3C9101C2
3B9E2872
BC32B850
3BA101F5
3D3AD18E
3D21DA54
3CD3026C
BC17A162
3B02042C
3D65F1A5
3D0087C3
BCD08C88
BD1B212D
BC20B208
3D53AC36
BCC720B2
BCAAD874
3D21B992
3B913A95
3D4CAE14
BD033941
3D569DB7
3D00495E
3D36D7E1
BCADD82B
BCBC3C99
BD109EBD
3CDD9E31
BD28BB33
BB23C3B5
3C2A5C75
BD2E8B3C
3D20C602
3CA2C9C9
BCAA8E3A
3CD58B47
3BA60EC2
BD2C5A54
BB7AA522
BD035A2B
3CDFBE42
BD28BB29
BD077935
3C4ADA4A
BD242C4E
BCB39E60
BD336324
3C21EF28
BAAF571B
BD168563
BD60754D
BCEA771F
3CEFA285
3BEDBD81
BCEF8A98
BCD3A01F
3C4AF589
BCB38EE9
3D67A171
3D1B9EEB
3C5A24A1
3C934038
BC547693
3D61FDBD
3CC8ECC5
3C62ED84
3D3C3E21
BAC82940
3D14D67D
BC2E4219
3A614B8F
3C3776B3
BC68D7BB
BC8DBC90
BD43A661
BAD2218E
3CF17514
3CDD135E
BD10BA01
3AC5C2C2
3CF647AA
3C866842
BC86EC34
BCB552AF
BD2571E5
BCE4D38E
BD11F7AB
BD320D80
BC7102BA
BCE69184
3D36AA2D
BC263108
3C12A2F5
BCA56DD1
BD30A7DD
3CA9376D
BD557A1B
3D772EA0
BD3CB64E
BD2966A6
BCB53996
3D2749AB
3D49CBB9
3D1ED830
BD307B75
BD049451
3D370D81
3D255DC3
3D34B9C7
BBE3CF29
3A0BF2B9
BBE6FC0F
3D4C8E85
3D4A5459
3CD63ED8
BCBAD5F1
BBEB743B
BC12072A
BD363688
BD5DB649
3C6D0621
BCAA3A5A
BD34B280
BD38CCE8
BCF7AC25
BD6F32E1
3D0AF188
BD3B68EE
BBD38124
3CE6A8C9
BCA8CD17
BC59BBA8
BC4A6D7D
BC5B41B6
3CB20A7E
3CDAC239
BC7D711E
3D09C090
BC70DAF2
3D2EFCC4
BD2D5EE0
3D5EBEB5
3D4CFADF
BCDA4DBB
3D41059C
BC7C3CC4
3A8C99C1
BC5D7EE0
BCCE53E1
BD4E3573
3D25243D
3CAE4AE7
3D200921
BC50A08B
3CF646B5
BD6505B1
BCB31297
3CFC9B49
BCCD15D7
BD392309
3C166463
BC902656
3C35AC3B
BD0E154A
3B84C8D2
3CD887B7
B910B760
BCF88BA3
BD0BBE3C
BB3C3FA4
BD15334A
BD3FD88A
BD8BFED7
3CC86658
3C9D4898
BB36AC31
3C231E9F
3C84BF16
BD26E61F
BBBE4AF2
BC767FF4
BC4CAACE
BB311E19
BD207F41
3C5914F0
BD3E9140
BD5AAA4A
BD0ADFB5
BCAD200C
BD0F7A82
BD00D92C
3D0566A7
BC6A2543
3C4655A3
3B79C6D0
BD16664F
3C521EA7
3D81BFD9
3D551134
3AE9C981
BCFED399
BBB1A2FE
3C6AC6F7
3D2D0CAA
BD628906
BCBE276D
3C3CAF04
BCF2D686
3D18A5A9
BD624EEB
3CD8DDA5
BD84EA4D
3D0F734C
BD474E51
3C51F1D8
BD81E373
BD917436
3C4A546B
3C58AA93
BB9AA3D3
BC437A5E
BD1A44D5
3CDC3BA1
BBBB3F6D
3C27E3D0
3C8E66A2
3CC5B346
BC4834D1
BCE17DFB
BC791933
BCE3A2C5
3D2EE835
BB72DF3D
3D6EF20D
3C9701BF
BD2F52EC
BBB97761
3D03F0D9
3D5EC9F2
3CF955FA
3D240C2D
BD319EFA
BCF2847A
BA91A4B7
BD1A9BFC
3B672EF5
3A359DDB
BCD10AD3
B88C34C4
BA47D73C
BD0DA3EA
3D4E2191
BCD06AB5
BD62DF43
3D41A4A0
BD13139B
BB90E211
3C0875FD
3CBDB007
3D3AD10A
3CA00A34
BD03507F
3D978026
3C9E5C48
3D421098
BC8485B2
BC8516F5
BC1CED58
BC2FDA1A
3D1A3549
BD209A1E
BD0B7FC4
BDA6CC68
BC7DF0EE
BCD68820
BD855E6E
BCFD37E7
BD987AF5
BBCFB95B
BD3FD9C7
BC8A5A6D
BD9EBE71
BD192BF7
BCCB4FE0
3BE1A229
BC30EF9C
BD539C19
BCD57BC2
3C857135
3D084211
BAA509C7
3D172C5C
3DD55917
3D8E3686
BB7E7771
3D230CF3
3CF0C312
3D106F09
BD2F39C7
3AED7423
3CAC8EC8
3D00CAE6
BC92E1FF
BCA9F406
BBE1AEEF
BC87BF71
3D42DDF5
BD3FC322
BD34AAE8
BC8701C6
3CAFF357
BD1240FF
3D16265E
BB0576C6
3D11AD10
3D51229F
BC9D1EFC
BCFFE93B
BD1A0EEB
BD2E4908
3C884C01
BC3B87D0
BCA31DF2
BCBDB94A
BD2EA7B6
BD904F7D
3D412D69
3C754B45
BD45F58E
BC0D8BE3
BD4ED93B
3D33715F
3D4C68B1
BD0D333C
3CBBFD9E
BCF2C818
3C8444A4
3D5D1604
3D2E4A39
3BACE6B9
3D32DC46
3D4AA042
3C95C23B
3A9979A6
BC8F1E79
3C2DD64B
3D3476F8
3D8343EC
BC909E2F
BC67E619
BA851A94
BCAD2468
3D48AB03
3D86D0AB
3DAFC5A1
3D9850F3
3D104B91
3DA2AC47
3CD3848A
3C84D511
3C16C3FE
3D0E106F
3B920C3E
3D2CF935
3D935074
3D03AE44
BD43CC60
BC9F8AA0
3D2DDE91
BD118CC9
BC8EFCAB
BD1BDBB1
3D2861A6
BCD1B6AC
3D320370
BBB76F6D
3CCAE50E
3D4A29CD
3D53BC5C
BCE30415
BBA7F3D6
BB5D8EEF
3C419C13
3B9B4BE1
3B9F7CB1
3C4F9C55
3D4AE122
BD1C36A3
BCAD8D23
3C549A4D
3D406B19
BC356548
BD217EF6
BD8B70D1
BCB63B3E
BD908B69
BD3B901C
BC9A002F
BD6486F7
BCD11D31
BD7483B0
BC777912
3D3EDD04
BD17C730
BCDEC700
3C7AC04D
3CDDC0DF
3D41921C
3C08329F
3CD7D520
3B6E0AA5
3B90114B
3CE1B8F3
BD01F995
3D1DF1E1
3D89652B
3D031462
3C688ACE
3DA92AF3
3D348188
3D4C588A
BCA9CD42
3D4334F6
3D547F7A
3A4AEB4A
BCACDBDD
3D0EA380
3D57AEEB
3CD8A56D
BBC53753
BC3D6034
3C0D205A
3D1838D7
BAE8E862
BC5A8408
3B05CFCD
3C5042F0
3C97241C
3D814DD5
BC0AB57C
BD292184
BD3AEE89
BD15C5C4
BC7F4299
3C696C7A
BD0B256A
BD4B7355
BD441580
3CFD5876
BD1E8331
BD7DC5E1
BD6DF131
3C4AFBCF
BCFE2D7E
3D653894
BC08DC31
3D14E75C
BCB3F1A4
BCF25CA7
3D515295
3D35D409
BCB4BB5D
BCA3A758
3D52485F
3CF1154A
BD3FF0E7
BCC5A9A1
BCF2D2D7
BD14F85D
3C8D1C57
BD51C33D
BD15F782
B9DA2634
BCAEE7FC
BCBCF5A2
BCA7EE8B
3C78B24D
3C552AFD
BD5C131E
BC148E7E
3BA007E5
BD7D7AD7
3CB3E15E
BD6693D5
BD62EA7B
BCEF406E
3CD772EC
3CC99456
BD1F605F
3D2BCC66
3C905348
BCB9950E
BCF7B925
3BA33371
BB100D01
3C9ED809
BC005733
3D483E82
3CA51EE3
BD396661
3D0D0CED
3C8DDA70
3DA0C6B0
3D58637D
3CB13558
3D5717E4
BADE7CFF
3D8EEF0D
3D65AFCD
BBE218E1
3C224A7B
BCBC0BBC
3DADCE51
3D79D345
BC6B5D29
BD4FE2E6
BC04B23F
BC7DDCEE
BC3175BD
BD9501F1
BD8A65B6
39EE2778
BCB818BA
BD910D12
BDA5A6F5
BD99E05D
BD375694
BCD291D2
BA964EE9
3D04DBA2
3B74451A
BCED86D0
BD0F7D6B
BC57E5FE
3CCC095D
BCB63BE5
BCC83FBD
BCE70E0B
3CFEB673
3CF8E13B
3C377767
3CA4AA5A
3AF76771
3CC837CF
BAC2A56B
BC4CBA39
3C6AAC16
BD2BDEB0
BC97863E
3C90A64E
BCCBE51C
BD6CC359
3CBC1A62
BBD943FD
BC74CFB4
3AEC2E42
BD7C3040
BCCB6044
BD4ADED2
BD734E89
3D013178
BD877205
BBC72C4D
BD3494B2
BB6B066C
BD4FC7E2
BD217A68
BD28B977
3D11466F
BC46F4C5
BD954E00
BC530C93
BC424520
BD4B6CC7
BD7A73F9
BCC333E4
BC793EBF
BD130128
BD6A85EA
BD4D0218
BD77DCCB
BCD9FF5B
BD79001C
BB9F13AD
BC905443
BC398EBE
3CC295DB
BD0407FF
BD413F9C
BD5130B1
BC4A73F2
BCF71FDF
BCF1171D
BD2F0AD1
3CD25D76
BD04A034
3CAB165B
3BE8EC21
3B28BFED
BD0DF111
3BE78DB2
BBC8F34C
BCCBD19B
3D28569C
BC8AF6AD
3C118E1C
BCF23715
3B9CAA93
BD2D50F7
BD049E33
BD213A9A
BB9E32EB
3C1D942F
BB3447EB
BAA9617C
3D39B792
3D2F60B1
BD3A6724
BD0B0F0C
39F16F86
BD4B71A2
BD046467
BD290716
BD474E74
3CC32520
3BCCE29F
3BAB3497
BD0D05D1
BC951943
3AD2A761
BD2CB7F0
3D177E07
BD1823D1
BD1C2028
3CCB4F8D
3D1BE79C
3D1E20BC
BCCAE607
BC4C6975
3D2A00FF
BA4DFB78
3D428C1E
3D206815
BD359EF3
BD4BC287
BD3588AD
BC15FE07
3D1C009A
3BE97D5D
BC9BA3B3
BD037B47
BC899E8B
3C0B53DF
BCBE5FB8
BCC4EF32
BCD13CE0
BD096E3F
BCD525A8
3CDFAA4A
BCAEC654
3D165532
BD1660F7
3C65D628
3C283EBA
3D03B2F0
BCD24929
BD3A2E60
B9AEF90A
3D523518
BC90E0DE
3D46CB95
3D09D1E6
BCC2CE83
BD2C03C6
3D0ADF2F
BD2C5997
BB259E46
3CB6A475
3CE6DE66
37705A1F
BB4A010C
3D307A3C
BD33BED4
BD39ADE0
BD17E7DD
BCB075D0
3CF06C0D
3C9F0EF2
BB66FA77
BC1AE4F3
3D23CF4B
3C073C87
BCB07723
3D2EBD33
3D32CBCE
BB96F536
BD1AC2AE
BD2DCB44
3AA67A0F
BD16AD86
BCB04383
3D609E0D
3D3C8510
BCAFEC47
BCF847B4
3CBB89E5
3D34B43A
BC40C4E5
BD1F34A0
3CC0AAB0
3C85884A
BB8C15F3
BC1BE39F
3BD2236A
3D1D7D13
3D265614
3BC13FD3
3D115F62
3A5A98E9
3BE060E5
BD357A66
3BF3E215
3D28C56B
BD06D051
BD04E88A
BC820000
BCA543C4
BD3760E5
BBEBC2F0
BB22164B
BD44A353
3B48A265
BB950E5C
3D44AEB8
BCCA3779
BC97B339
BD468A51
3CC3482A
BC26A98B
3D2DA620
BD313180
3D358BC4
BCC8E9CA
3A3AD124
BC6F2F30
3C9BC4A6
BD0B700F
BBA01262
3D0BD2FD
BC9E9443
BC90E135
BD4BD425
BC5A210B
3CC5AF3A
3D27ECE3
3D23C11D
BBFAF32C
BD0657CB
BC2F48BB
BCA28BC1
3D49593B
3D11B13F
BCC7D459
BC32B59D
BCC8AB4E
3CEF62C0
BD03EB4E
BD137B3B
BC199B92
BC8D94CB
3C4A806C
3CB68451
BBEC0A6B
3A36CBD0
3CFEC577
BD1FCD44
BD1A34A9
BCE5A584
BD25C5A0
3B229186
3BC41732
BC73F38D
BD1E9372
BC9768FA
3D4E7B7A
BC35E2D7
BD0F6231
3B4913C5
3C90FB54
3D079882
BD4F3982
BCE67389
BCE75132
BD0E432D
3D353726
BD0ED873
BCFF52BB
BC0249AA
3C91F541
BC084E0C
3D0C06A2
BCF81463
BCEA380E
BCC2AD27
BD4B731C
BC3BA641
BCF531CD
BC0BC2DE
BCC26368
BCE1DF72
BB9B607F
3D0D0977
BD36C2B3
BC9D786B
BC950BA3
3C365876
BC4F2846
BCE8F9FF
3B246E55
BD124212
3BEED62C
BC0B9005
BD0C6984
3C0C4202
3C59CA4C
BD03853B
3CBBB8D4
3D06FFC0
BCBACF55
3D250E37
3CEF762C
BB7B5907
3B9F71E3
3CB0291D
3D05BB3A
3D2231CC
3B999F04
3CE84CCE
3D24A467
3D2472CE
BD051FD9
BD277E02
BD334D56
3CE00328
BD04B368
BCC63472
3C8249DA
BC5AE716
3CEF4B77
3C827CD5
3D1BA82C
BCBAAFC1
3D2D6292
3B2684AD
3C979E59
39E38ED4
BCF529F7
3D35FDB4
3BEBEF1C
BD433995
3D0425DD
3C8BDD1B
3CD43B46
BD2B9C7A
BCF763BA
3CE12ECB
BCA04A9D
3A9DBA48
BC985D1D
BD285622
BC8CAEC6
BD3D0C30
BD024460
BB82ECD7
BC9200D7
3B32C7C8
3D198B1D
BCC72CDA
BD493D09
BD1E6B95
BB4CF36A
3C85468A
3D0E0945
3C6E8624
3BE37CB0
BD413F9A
3B50FC15
3C543766
BCC5851E
BCD1C320
3C6D9066
BC537BE6
3C6B1B19
BD0E2B39
BC54D08D
3C452E95
BD10C8ED
3AC55500
BD01CC72
BD0F9D15
B902E2FC
3D330DC9
BABE55BC
3C925046
3D2DEB8D
BD1F7F87
3D1D7B0F
BCB92808
3C5BA7E1
3B431435
3CD9CA08
3C6EE1CD
3CAEBC39
3BFB388B
BD0BF072
3BB9F304
BCCB8187
BD285B1A
BB1D3B74
3D0BF054
BD323C7C
3CCC3BCD
3D0378CB
BD26CFA3
3C59097B
BCB88BF4
BD238325
3D054EA5
3D095D70
3CFA467D
3D31BEAB
3CF229F5
BD048ECD
3CC47677
3D3AA0CE
3CC6E60A
3C483604
3B391294
3C845957
BD42007D
3D284EFF
BCC553F2
BD452BE8
3CECE194
BCB81764
3C183034
BC858F1A
3CC41B7F
3C4061F9
3CE543C7
3B4EB2AC
BCC510DA
3D244147
3D38A780
3BA9C030
3BA6D994
3CD97ACB
BCD731BC
BCA5E6E8
BCC108A0
3C0342E3
3D092A0F
3D2550A5
BC1AE344
BB9A16CB
3D50BED2
3D19A067
BC53FE29
3C9C37D5
BCFFA250
3D0278F5
BC7D0116
BD0D1699
3D1D1411
BD47A927
BD08D80B
BC2E6193
BD2DA85E
3CD9827F
BD2204AE
BA96F68B
3D0F3C51
3C759411
BC6ACF68
3D1409B3
BD2994A5
BC36BEB9
BB6C8F84
3B720BDB
3D05311D
3CE7EA36
BD3C161E
3CE5F2DB
BC9BABE5
3D239201
3C82DA52
3AFE45A4
BD26C262
BCEC89C1
BB1BE7FF
BD25FBA8
BD068C92
3C90E574
3BF393E4
3D35DAFD
3CF5E899
BBB19088
BB1AF328
BCD8C5E8
BC3CBE55
BC46C123
3D28FCCA
3C171D62
BD309C7A
BC924E73
BCC56F38
3D262A67
BB6BCF75
BB7391BA
3CB6BCC8
3D1AA1E6
B884C541
3C32E280
3B98E6AD
3D0E3562
3C3DBD21
BD0F02D1
3D176F10
BD20E3F6
3CFEF275
3B8BAD69
3D09DACE
3D02F82B
3CA82171
BD5719C9
BD305775
3D03F66F
3D1C5789
BD621030
BCD3178F
3D1CF2FB
3C6A294F
BABD2C13
BA93D198
3C4632C7
3D4181C0
3C47B13E
BD098506
BD41C774
BCB5BD74
BD49C096
B8E81076
BBAC5847
3CBAD21F
3D38EB71
3C56C2B2
BD18601A
B87A353C
BC17522F
BC920E5D
BCA2C6B3
BBFC8113
3B8AF688
BB9110EF
3C9B8B77
3C71D32B
BC3095D2
3D2AAEC0
3AAD6C81
3D34C832
3B370D26
3C303A98
3A851324
BD342ACC
BD3502DE
3D1AE873
BD2ABE78
3D6ABAE7
3CD2F3FC
BD2238A4
BC8588CD
3BEC3477
BA580E2F
BD592D62
3D0BCA91
3D12D261
BCF928AB
BA4FCA73
BD116B3D
BD16363A
BBD3DD65
BCF606D4
3BFDE86C
BB3ECD7A
3D13386B
3B01C7B2
BC26E885
3BA4EED4
BD31B160
3D245911
BC82A41D
3CA157F1
BC92A4CB
3D087CAD
BC36825B
3CD03D31
3D2616BD
3D3CB4A2
3D5E0549
3CB34BD1
BD3C2657
3D403FD3
3D2C507D
BCA95B21
BCBC53DF
3C53A8FE
BC818F95
BD68CB5D
BC85E53C
3C98B841
BD3745BD
3CED4886
3C81F303
BD2E1F39
BCE0F743
3C721941
BC414F1B
BCC2D6A0
BD58150E
3C444DE3
BC81A6C9
BCA70CE3
BBE7A917
3BDC36EC
BBCDC087
BCD05C71
3D204A29
BD563493
BD19CB59
BCE80D33
BC160646
BD5A9A84
BD4A9468
BCEA3DA1
3D32C2E1
3D4EE448
3D34A6EC
BB44818E
BD30109B
BC871F70
BD2DC8F0
BD775B78
BCCE5025
BC6A17BE
BCA37879
3CF7F856
3D0A1614
3CEB0AFB
BD185E7D
3C73E2D9
BC1C1742
BD37BB5D
3C935ED3
BCE6FF2D
3D56C9FE
3CE8C8FD
3D37D699
3C962181
3D35B402
3D329565
BD39E241
3D5752F3
BD068C6C
3D2D2461
BD29FA2E
3D346125
BCFAD458
BC4F71CD
BB103E4F
3D228387
3C256846
3BEA3DCA
3D235D8C
3D276409
BB7EE60E
BC87F060
BC74AB72
BD127518
BC35C92F
3AB322BA
3CF7BBC1
BCBADE09
399AFFF7
BCA43D80
BD11A0AA
3CDEEC88
3CF8E8C2
3B7D1452
3D36630B
BC537E52
3D405BAB
3CA06453
3D2C1E4F
3D1B5355
3CD9BBE5
3B88930B
3D111CA4
BD1BBE68
BD5BE0AD
3D3CA0EB
3C64B78D
BD67CC13
BBF21F7C
BAA09913
3A9E7EAC
BD2907BC
3CEBCEA0
3C9718CB
BD1E3815
3CFB2246
3D13C6DA
BCB6C52A
BD6E551E
3C8D03F4
BBB94B1F
BCF38420
BBE8B359
3C59BCC2
3C9AA7D6
3CA863B3
BC4C7A43
BD1D8515
BD3B119A
BCD9A6D7
BD2F261B
BCDE9122
BC257BC5
BD015F8A
BCF5873C
3CFA27A8
3D04EBC9
BD211E3F
BC5B15C3
3D0FD6FF
BC6FAC49
3D002B07
BCD93041
3D23A4F0
BB41C39F
BB157AC3
3BC7A8DB
3C57C236
3C82466B
BC874F79
3B722F7A
BCABD9A7
3D235E6F
BC1EAE68
3CB0105B
BCF2C94C
BD386661
3C486570
BBB2E84F
BD0DEFE8
3CCB73C7
BAF0C1F2
3C8C5AA9
B9CB51F2
3C1E03CF
3C7A7570
3CFAD4AD
3D14F9A6
BD0DBD3D
BBC7BE43
3C80BB55
3D482D42
3CD8B6FC
3C6F521E
3B49A4DE
BD407269
3D5C088A
BD361665
3CD4649F
BAC4D7F8
BC57C66B
BCBFBA7E
BCDE672F
3C2E26EC
3C2F46ED
3BE8B50E
BD39CE87
BD35120A
3CE4031B
3C511924
3CF4EB62
3AE4BFC3
3B92AC80
BD51487D
BD03FEBF
3D826B0E
3C63B368
3B277875
BD167E77
BD152754
BC4AA825
3C22349D
BBCF20BC
3D14BF9E
BD432A32
3D511FCC
3CC2AC90
BC4727DD
BC36F3C4
BCC0F3C2
3BAA5B1D
3D2FAF7D
BD1E2A5E
3D0A88FE
BD447297
3CAD160F
3CCC2E86
BC27C33F
BC9F10AC
BD063034
BD09D84E
3C26A7E8
3CF3D3CC
BBF014E1
3CF1B277
BC19B698
3D3E9C63
3D5E761B
3B8562CF
BD0D6C5F
3D01D0C6
3C82001C
3D239C14
BD4C413D
BD2DA608
3D20DB15
3C91D27D
3CACEA85
BBDE931B
3D126C68
3C9096F1
BD0BA03D
BC2A65AA
3CBE745D
BD19A7A8
3D40711B
BD2ABE75
BD4A5408
3CFA3542
BD51CA8A
3CA51A2E
BD48529C
3B9587AF
3C8ED6C0
3C997162
BCAE383B
3D2E4745
3B91FBF8
BCF287C3
BD2203D3
3B6E8D7F
BC4A798C
3C7515C8
BC175DB0
BC63C7CE
BD305DA7
BCB54708
BCAAB355
BCC83B35
3C549831
3D195718
3A8FA182
3C6BB998
3C2D3ECD
3CC9BCEC
BC16EF1E
3BC52309
3C40E75C
3C40CEC1
BBED6E9D
BD16FBA1
BD39B94B
BC9D6911
3BAA51C2
3C964AED
3D0FF76F
3D3C3E7C
3C892333
3D249633
BCE899F7
BCE7A560
3C87B8C4
BBC9DFC7
3CA79759
BD400957
3AE7D884
BD7CE3B4
BD323C5A
3B9FF63B
3BC0E5C9
BB8C240B
3CC35DBB
3CBB8F26
BC4493A8
BCC9C74D
BC207AA9
BD1A02C3
3D5AD8E8
3B131EB0
3D256CB8
BD18BED8
3D08E46E
3CB23B9D
BCBEC9AB
3D26EA56
BC31AFF5
3B3748F5
3B02255C
3C4B1256
3CC0B33A
3D062DD4
BBF9A009
3D4E8292
BBCA0911
3C29F75A
BC95B1A3
3CF61121
3BF61064
3C5BB485
BD44D0DD
3CCADE6D
3BA225B6
3CE15BF8
BCC196DD
BCA60F2C
3D17CA1F
BBD825F6
3D335888
BCA52A74
BCE28E49
BCD5FE08
3D3BD7B8
BC11BA52
BCDDF337
3D2E0D1B
BC315F38
3BCB3D70
3C0CD56A
3D257F09
3D5CF873
BD3D6BCE
3CEA985C
3B398211
BC5218A2
3D2C62A4
BCFEA2B6
BB6F1ED8
3D0967D8
3D10FBF7
BC9C6E81
BC6BB0CC
3D01F46C
BD0717EC
BBE35140
BCBDBCB1
3D3E9F2A
BB3A904B
3D358252
BD2B48EC
BC4A8BFD
3CB15F4C
3CCA4E2C
3CA3788E
BD2A819B
BCCA3783
BC620285
3D62AD0E
BA92180A
BCE06BAD
BCBF052D
BC89A2D9
BC988895
BC851F42
BB8EE081
BD008F55
3D17EE46
3CFAE377
BD421E2A
39E68E66
3D3A7998
3D6457C8
BC01991B
BD0047FB
BCC05762
3D4B6263
BD149885
3BB995F8
BC349003
BCA8EFA8
BD30FA70
3BE660C6
3D1C1B54
3D0CD9CA
BD5E82B5
BD208330
3CCA3B09
3D34AA7E
BC8557FF
3CAC055C
BD6F16AB
3D0E0E72
3D3FD394
BC3B37D3
BC2698AF
BCB50646
3C65D88B
3D1B202D
3D760CCF
3CA1F82D
3CFBC0A8
BD128808
3C5BFC6F
BD05A585
3C74F5AB
3D566391
BD077FED
BBE568CF
BC2EE475
3D21FFAB
3D1BCFDB
BB4BE90C
BB8FCBF4
3D145C06
BC02EC4B
BCD76616
BD0F5BAF
3B0791C6
3C972237
BC5507DC
BBBC44AE
BCE14967
3CE36968
3D361769
BD665983
BC7542BF
BD02F053
3CC43BBA
3CBA8D2B
3D0B0996
BD0E0656
3C1E4C27
3D006C7D
3CD62A58
BD707C10
BD502529
3C7EB668
BD341541
3BD50780
BD610914
BCAC3677
BD2D41E4
BAD2B29E
BCC23AF9
3D2A1228
3C8E5CAF
3CFDB125
BD00EE8C
BD526846
BC3302C4
3D0AA9B8
3D0D905E
3C61C14B
BD34B355
3D2C8831
BBB6AEB3
BCCDF2B0
BD03A607
BBD1F472
3C95A3FF
3C5DB6BC
3D46C70D
BB56FD86
3CE39C2E
BBF7C511
3B30C160
BD45AE40
BCA04EC3
BCFADB64
BBA3F79D
3C3DEC87
3C510906
3D002F33
3D1DE290
3CAB8C96
3B7C47E7
BCC23EA8
3B18E1FC
3D1CA505
3CE38A61
BD2CA6FF
BCFAEF36
BD6C6632
BC7940AC
BD334605
BCE240AA
BAC95CF9
3C3C05ED
3B9C790A
BD103AAD
BD367B04
3C42AB36
BCF89BDE
BC3509A9
3C91B36B
3C5EB9A1
3CC26C6C
3D2ABDD9
BC2D2F9E
3D477A52
3CDB79F7
BC9B3DC1
BD0A9A1A
BD15E1F8
BCEB4916
BCF72EA7
3C2BD3A2
BC27B722
BC7A9278
BD445D6A
BC3737F8
BCE428A6
BD5AE3ED
BD25104E
3A0CAA73
BD8B1F9F
BD87E542
BAF32409
BD2EB9C1
BD3941E6
BCA351A4
3D8BA82D
3D38CCF3
3C2D3080
BBCE3183
BD1C5174
BCC31E58
BB450F5E
3D2A3CB2
BCE04064
3CD55BAB
BD59BE30
BCF877AA
BD011D13
BCB2A8A1
BC77B0A7
BC4793E7
BD3600A7
3CE0B6B0
3CBEBB12
BCB5AEDF
3D377E3C
BC95FCA2
BCAB97F5
3D3D724D
3C4E2787
3CB348F9
3D35D039
BB1DC018
BCA301DE
3CC16416
BD44E7EA
BC68E563
BD2D540D
3D2B4430
3D418BB7
3C877F27
BCD5F602
BD29A0C1
BC935880
BD1D2AF3
BC84156E
3D056634
3CB4ABC7
BC44A960
BD0CBE87
3CFE81A5
BD19F10B
BC0258FA
BC30D2BE
3D41D294
3D6957D9
3D65E5A2
BC6DD1FF
3D3B2C39
3D405348
3D25E225
BCD8F043
BC928546
BD63E310
3CFCF5FB
BD012705
3D31778A
BB916C0C
3C4361E9
BC8A0C9F
BCA293EB
BD4C4764
BD2D1A56
3CD02944
BD411743
3C5636F7
BD1C400C
3D095473
BC14ED5C
BC9DBE50
3A3687F9
BD1A5DBB
3D4EFB23
B9E9A664
BCC2A439
BD498C29
BA6BBD55
3C985CFE
3D38F356
BD53EEE9
BC06368B
3D37C264
3D5873D8
3C890D05
BCB40669
3D150825
3CA54D08
3D0AC349
3D2882BE
3C37E9CA
3BD20FAE
3C0F4B09
BD213F21
BD1791F6
BCE07898
3D105E30
3D65B07F
BC8E6C8E
BD15C9D8
BBBBB6B7
3D3958FD
BBF6ACBD
3C70A86A
BBC6FAD8
BD364BB3
BB660E8E
3A9F092F
3D373AD9
BB2E97E1
3D04BA5E
BC76D063
3C73ECC1
BD46A987
BD2D29CF
3C63E296
BCAE734B
BCCA3766
BCCFFAD9
3D70C2D0
3CCE4822
BD1EC462
3D42D3F8
BB3C8FA4
BCAC9E5D
BC38423F
BABA4A20
3CD164AF
3C825881
BC9FD553
3D37FB96
BCDE34AA
BC96EFF7
3D25AA02
3C936EA2
3CE286D2
BCF04F73
3D443B10
3D54D545
3C151A9E
3D295AA9
BCBC4B6F
BD31E200
3CFFBDE0
BD177934
BCC68321
3C57B46E
BC52DAA5
BCF24244
BC9A1C1F
BD039C80
BC00FD7B
BD346090
3D225D86
BD2BA70A
BD020475
BD0F26C6
38A1B814
BB4CD644
BD49E5A3
BD396EE4
3D47CDAA
3CFF412E
BBC9F3BA
3D384C31
BD223CEC
BC988763
3D30F820
BD26715F
BD02EBB5
BBB35CF4
3D4CBFB9
BD3399EA
BC8AD8E2
3D411793
BC5C69B6
BD43B633
3C52E5B1
3D12DA5A
BC6BA034
BC856187
3CAFCB28
BD4E7B25
3CC69DE2
3D08FEC0
BD2E9BEC
BB65ECFA
BCE557AD
3D0226DD
BCC12F2B
BD36FD47
BC6848E7
BD1FF854
BCAB9955
BD334302
BCFF069E
3C00920B
3C2E0B0A
BD252C25
3CFD3628
BC3C1DA3
3C8C0526
3A071152
BCE37F05
3C8DED63
3D4D694C
3B346C6B
BD36E688
3CED473C
3BADF6D0
BC8DBC08
3CF80CF5
BD456D83
BCD9F51C
3D3ECCD7
3CEAB443
3C39F09E
3D2EC1A3
BD2D0E3C
BC558FD3
BA959CFC
BCF68327
BD1655D6
BC8AB251
BD4A2774
3D26C9C4
BD46ABDC
3CD4477F
BCCDB8A8
3D320964
BCFB1856
BBAF41C4
3D2CA6A2
3D102B15
3C575AA0
BD0BE1B9
BC909069
3D093D94
BCEDEAF6
3C92825C
BC72EE51
3D23C494
BBEDE0AC
BC154E7A
BA93D906
3D444BD8
BB8C5C8D
3D1DCDD3
3D1F7658
3BB05299
BD46A885
BBE2B3A2
3D236A96
3C2FB3B6
BC1C84DA
3D057649
3C0AA27A
3D316D49
BCEBF098
3C8BB7D9
3CC87FB6
BD1FBF50
3C8169DB
3CFB052F
3D338ADB
BCCA4D1C
BD28E8F6
3C1F6325
3B6CA99B
BD2E0460
BD09B537
3CF547D6
BC1650DA
BD4092F8
BCBDB545
3D0069E0
BC3D8F11
BD12C08E
BD1435AB
3D27306C
BD14357D
BCA2AA02
3CE8EB7F
3D44E8E6
3CD07140
3BC51126
3CEC06ED
3B7D60E4
BC10F58A
BC001A84
B9995236
3D032752
3ADBEB92
3CA8373E
BD24EEB4
BCCA539F
3CD2E64F
3C4B72D8
3BDF46F6
3C660659
BD46812B
BD2AD540
BCB96C13
BD1DC1AD
BC6B7A87
BC1E9CF6
3D1AB4AD
3CB12F87
BBB03144
BD27B476
BD2E0C6B
3C9AC4B9
BD42877C
BCCE0AF3
3CE6E615
3D1E2E41
BD4EAAAF
BCA81EEE
3CB651A0
BD1251A0
3D04C381
3B91DA5D
BCBABDF2
3C3C7644
3C20F1A8
BCBA1189
3D2F3D26
3D36E8AC
3B218D07
BCBDDBFF
3D060226
BD47FA01
3D4B1D52
BD403F99
3B2D61DE
BC72CF43
BD4D47FF
BD2AD4A5
3CE10AFF
BC21B367
3D25E8AC
BD04EA36
3CCD4BFF
BA584789
BD31D6DB
BC6DF905
3D04FC22
3C91F775
3D061035
3D1F46A5
BD0952A5
BC4369AF
BCA7A18B
BCD5681D
3B9A426E
BA8C39E6
BC017647
3CC82AFB
BCCAE74C
BC626037
3BC25714
BCC292A8
BD4CA149
3CEFCEDF
3CB955BB
BD03FC5A
BCD8B45F
3D0CC8DE
3D486B69
BBE1E9CD
3D108675
3B7BBB10
3C6C294A
BD3304C0
BD531BEA
3CB61FB2
BCE4C94F
BCA885E9
BD49FAFC
3CA9319A
3CD996D1
3D362D4A
BD34E1BD
BD37FA7E
3D1FB953
BC93A5C0
3D2A3785
3D05BDA3
3D15B4B0
3D104281
3C5AAE3B
BD256C27
3C14F6F9
3D2C8447
3C099B4F
BD33F16C
3D02C85A
BD2C8641
3C59E91C
BCA0064D
BC4F3DFD
3B8676CD
3BDBDAF1
BD00603C
3C49962B
3BC7FFA0
BBAF140A
3D154B9B
3CEDA82C
3C65F677
3AF79D60
3D1112B6
3CD1DA7C
BCC25574
BCB0263E
BD3EE79F
BCC3A66F
BD111775
3CB0B4F9
3D10B33E
3C31F6C9
BC412FD6
BD13667C
3C9B7A23
BB58ED8B
BC7AEF40
3D090E30
3D1646E7
BD000857
3D2BBBDB
BC3B24B1
3B471475
BD2E218B
3D253679
BD28424C
BD057D0D
3CB897DE
3C0AC10C
BD35067B
BCD98C60
3C85F490
BC8F9684
3C7F0F4F
BC9D8BBB
BC1112CA
3CB64762
BC87B14A
BD1D3865
3AD447CC
3D04A090
36AF67D1
BD36DAEF
3CFE6A25
3CAD918D
BD3597AE
3A8C61F3
BCA9807C
3C88B95F
3D1345AA
BCA0DF21
3D0715D5
3D0B1B30
3D137FE3
BD3B0639
BD40E3F7
3B890707
BCF97E47
3D24EEAD
3B1E2B37
3CA2222E
BD1C8BB4
3D28F54F
BACB945E
BC9DCB17
3B9BDF99
BCCD4F68
3D0515AA
3D51AAD7
BC091D62
3CDDE942
BD1227D2
3CF053D4
3A2FCD96
BCB04ECB
3A246F49
BD169E79
BD2DD3B0
3C9B277A
BBB7BBE2
3D24ADA6
BD0A91E2
BD21196F
3D4019E1
BCABE34F
3CCFE2BF
3CE9C5B4
BBA058A1
BC288137
BCE94590
3D18020D
3C8DF559
BD3DFF11
BD0A4D28
BCDB60E2
3B372685
BD2FC1FF
BCB9F419
3CE11ED1
3CFF6C4B
BC848D63
3C0202BD
BAE0DD6F
BCDD83D9
BCFD3C9A
3D421E61
BD1A6888
3C4EBEA0
BC805BDA
3B0BF20E
3CF9F92F
BCE290F6
BC2109DE
3CBEB82E
3CFA144C
BB6C9A97
BD24845C
BCCF237D
3D05A65B
BD17931C
BCDDBC3E
BD188198
BC2B8B62
BD1BE194
BCA2984C
3B964C1B
3D2664EB
3D00C6BE
3D081795
3CE9DF89
BC7D21A4
3D48368A
BCE7E75F
3D31E57D
3B7CD090
3D2BE689
3C61393F
3D8AA87E
BC861F60
BD1442B5
3C8841E9
3D670E3E
3CA123CA
BD36F6D5
BC931926
3C04C055
BBF0215F
3D1D9552
3D1AFF40
3D024D94
3AA770DC
3CBA3E46
3C85845C
BD21B0E7
3C8755B1
BD448E14
BD2991F8
3D157C44
3A52BA74
BC8F926A
3CB079D6
3D03E857
BD3FF328
BC960A44
BBF61C8C
3C091678
BCA5B680
3D49AE1D
BD2D7CD6
BC40DF0F
BD2731FD
BBAF31EE
BD385BB4
BC653152
3CC954FE
3D2351F3
3D2E472B
3D2E2F28
3D38D08D
3CDFC7EC
3B756844
BBEB4EB5
BC71C8F4
3D4392C4
BD1326AD
BC43897A
BD319CC5
BD324454
3B67C22A
3D69CE64
BCD34C4A
BD385413
BD184D75
3C813744
3C202956
3B7A828E
3C6F685D
BD152DAD
BC5AA440
BCA7D64F
BA0FAEF7
3CF6BC63
BC72AD75
3D1F995B
3CD48AC8
3BAFA41D
3CC70FB7
3CFC4551
3D829ABF
BB372DFE
BC34A881
BA85F3F6
BD1BF7D2
BBE5A4E4
BC8CFC58
BD2209BF
3D256318
BB9BC949
BCED1BA6
BAD77CC6
3C69269C
BCBA24BB
BC3F238E
BCCA3AC7
3C28CEF1
3C3D783F
3D145E89
3D3C2097
3CBC940C
3C98CC86
BD4DB360
BD0F0D3F
BC53CED9
BD01378D
3D51C7C0
3D55C174
3BF32E21
3CC15149
BD37D960
3C613C1D
BBCB98FA
3D251D7C
BD122AF0
3C7B3CD4
BCA95FFB
3CB4D71E
3CBC250E
3D07D09E
BC21AA58
BCEE52AB
BCCD639F
BD20E4E1
3CD527D0
3CAD00DD
BC8EB694
BC376355
3CFDC143
BD1BD1C0
BB7DC0AF
BC9FAF76
BD76B181
BD5F207D
3BDE2B3C
BCDF301E
BD22533A
3BD5B289
BC61AD5C
BD129086
BCE82B22
3C973004
BB5C244D
3C9D1D0B
3C4AC8E1
3D1D5EB1
BCD6D5F1
3CAA4995
3B0F536A
3CFBF0D6
B998518B
3D196A05
BC99052E
BC97140B
3D66082E
BD322E9C
3D44A4CB
BC07D42C
3D05A437
BD843E7F
3CE0C956
BC6B797B
3D0A7E90
3C07EC8C
BA218C02
3D0157BC
3D2AE176
3D6AE133
3C8E5048
3D2C15FD
3B8E321E
3CDD3946
3D5D1C67
3D1CBF3B
3D1B8E7D
BD03F5EB
BCB113B6
3D32CB47
BCBE4962
3D09B7C9
BD25E6FD
BC0C7CBD
BCD5C9C5
BD56A00B
BD2754C5
BD261D55
BD67EEB2
BD3EE182
BC93738C
3C989728
BCEC87B8
BD1ED183
BD030E1C
BAE2AE43
3D3DB429
BCE0BC2D
3CEF0C1F
3D52D0ED
BC126912
3D212855
BC07D0EB
3BB1D286
3CCECF28
3D1AA756
3C7C8CCC
BB0B6A06
BC0B3B4C
3842626E
BCC116F7
3CA16D70
BD369A34
3CBB5AE4
BBA75ACB
BB88E584
BB41852B
3C1CA69E
BCF5919D
3C0359DF
3C2BD291
BC950103
BC37CB79
3CFB5D4D
3C9D3085
BD18899C
3D2C6A86
3D5218E8
3AF94C37
BAFDDDEA
3D546B6F
BCC5F2A7
3D2EE231
3C8721C0
BC28D1DF
3B4CE4BE
BD2E034B
BBFD6B63
3D0F9908
BCBE9506
BD2C73CB
BD4A74DF
3CD71D79
3D0ED2B2
3D6C9C2A
3B6C1EEA
BA971D49
BD37732B
3D64716B
3C19B9BB
3D1F461F
3C96F11E
3D3CEE14
3CD551BC
3D185EE8
3D01C62C
3C6B4433
3D0452BA
3BF0F7DD
3D06E3AF
BD115F9B
3D0C02F6
BD49D2DF
3CCD20CE
BCC42661
BCF2392B
3D0AA96A
BCCE3D86
3BC35B13
3D275E6E
3CF3F69A
BCD376EA
3D22B624
3D3D708A
BD05114C
3D39EE6F
BCEA4BDF
3CD26A09
3CF49E80
BBD14A35
3CEDAF11
BC911C27
3D44AB05
3C01ABAE
BCA2E240
BD36FF6B
BBEC38C7
3C859A90
3C44228B
3D06C7A7
BC411A37
3BD7F688
3D2059A7
3D3BFEE8
BC56266E
BB90BE4F
3BC03628
3CA0121D
BD2E708F
3C9B8559
BCA09466
BCCEF6B2
BC8B9310
3D10BA7B
3C1AB4C3
BCE62015
BCD8C360
BCFC5C1D
3D19155C
3C988608
BC08067A
BC81B11A
BD3125E8
3BCC2D51
3D3BE148
BD25FA6E
3CF0EFBE
BCF23FAA
3C9E839F
BCB78289
BC49B03F
3BCA23B0
BD492D0B
3CD75F3B
BB093699
3B6C7383
3CA87252
BBC9E126
BD0B17C6
3D13B470
3C856C79
BCAB94F7
3CDCAFFE
3C5274AA
3D45686F
3B89D371
3D08A8E3
BD63789E
3C8885C0
BC0D4238
BD671B8D
BC493B56
BCCD31FF
BCE041EC
BCFA7DE7
BD806164
BD6E11BB
3C42FE9F
BCB611A3
BD5670AC
BCDA5CB9
BC8783C4
3CC9C7B0
BD476897
BBB94C78
3CCA6804
3BF4797A
BCEDC651
BB965AAE
BD582B78
BBBCF26F
3D223CEC
BC99BF6A
BD3AB664
3C9A0033
3C7B6EAA
3A546B20
3CE80A41
3BC689C5
BD3C5926
BCB00FEB
3C869F92
BD56EB71
BD4B5030
BD19B2C8
BD5B38AC
3CFE3697
BB80DE68
BD513266
BC0A04E0
BCB08ED6
3B2036AC
3CAD7D19
3C94D64B
3C8C329E
3D1366CC
BCE280ED
3BFAF6A0
BCF5DBB5
3D2DAEBF
B8C6F9D2
3CAE6E56
3C9DEEDE
3CA6DD5B
3D4DF5A1
3D2532C1
3CD02273
BB640F0A
3B9EFFA8
3CF3E609
BC868D4F
BCEE6C8C
BD40B83F
3CADBD85
BD5B03C4
3CFCB7AB
BC2E6353
3C808CC8
3C730ED0
BCF15EF8
3CBF6509
3CBB1B3B
3B4F7234
3CAC2291
BD243668
3CD9123D
3D0A187B
3BC88BDF
BD4BB521
3C20AE08
BD0FEB83
BD177035
3CAD8CBE
3C439657
3BEA093C
3CC9026C
3D3597F8
BCEA6A76
3CB17597
BC93BEC2
3C0715C6
3D59A89E
3CD5F370
BD1B02DB
BB6D5E49
BAED28CD
3C398801
BC673135
BC7AADCA
3C090763
3D009C3C
3C042B32
3CF2CE27
BD4A4280
BD2EBB7A
3D1B8F0E
3CF29114
BC68401D
3D42D300
3C8FD43A
3BD2F489
3CCD989C
BD0E5D6C
BCEAC8EE
3C6826C1
BCC56953
BCB59754
3C1956D9
BC8E7969
BCF07F26
3BD5DD84
3D0F976C
BD04D723
3C11F4CF
3D3AE693
3D083349
BCAC1B14
3D60EBAD
3CDFAAA3
3CD679D9
BC5B275D
BBEA3EE8
3D1AEEFD
3D4491C5
BCCC579C
BD09D0E0
BC7A5824
BCE7F6C3
3D01C2DF
3CEB8075
BD2682A0
3BE73AF9
BCCC54C8
3CF67CE4
3CBB45E2
3C283160
BC7FEF16
BC38E8C7
3CC13417
3C954EBF
3CD93EDC
3BBFF9DF
BBC25592
BD529A40
3A5BEEFB
3AB9F823
BD608D99
BD0B9E69
BB0D3ADC
3CFDA392
BD1761BD
BD2F6F08
BD2B6C42
3CA8455B
3C12EA90
BD07CFFE
3CDC2DD3
BD00814B
3D0A0393
3CB2D189
3D319F2F
3C823D1B
BBD9763D
3D513594
BD6BD834
BC7313A8
3B005B01
BCE16286
3CA3065F
BD08F1C2
3CB7BB43
BCAFCBA4
BD721FB9
3C267A4A
BCD11F28
3D1D396D
3C2D96A9
BC923D3E
3D2ACC12
3CEDF023
BD2B838C
BD1C534F
BC5413BE
3D1B1DCA
3CDCD2D5
BCEA75A9
3D364B89
3CC343B4
3C8C580E
BBD9F6AF
BD22879C
3CE5EFED
BCEB434D
3CE35986
3BF70962
BD53CC01
BBC02E5E
BCFC9A03
3CC54CA6
3B36F116
BC518DFD
3CA6A30D
BA8C60BF
BD33FFCD
3CC6046C
3D000F8D
BC582BB7
3C4F942E
3C651FB2
3CBFD2CE
BC74C0F6
BD0749DB
3AC01504
BCEBB71D
BD5DF1FA
BD010457
BB582A75
BC8E7496
3C7D5F9A
3BC91068
3B953FFA
BD1E4FE2
3C544D0C
3C6FC240
BD2979D1
3D05F860
3A83D5B9
BC83E511
3D0B8E45
3CF4C317
BCFEDE74
3C30FCC4
BD38E6F8
3D55E22C
BBFEB51F
3B5D443F
3D342DC8
3BF30621
BCC2FC10
BCC1E789
BD28535B
BA6B066A
BCC6332E
BBFC2137
3B930B2E
BD12E236
BCC52680
3BF74A93
3C9AC833
BB115BFB
3D285AE0
3D188472
3CAB9F2D
BD324197
3D1BE603
BBAB05F0
3C758F71
BCD05D62
BC98CD35
3D15C7C3
3D3198C8
3B51D879
3D112684
BCAB67AD
BB8918F4
3CFD5F79
BD317683
3C337E53
3C4DBB22
BBBE63FA
BD64FF16
BD8C8787
BD72B056
3C40802D
BCCE143E
3C80B1A1
3D219975
BD4E4C59
BD0BF86F
3D2F033D
3D5124B7
3CCF7AB7
3D1BF78E
BC192354
3C93323A
3D04692F
BC2A120F
BC1C226F
3D0C427F
3D3C94C4
3CACA278
BD423F66
BC66138F
3CA20DFA
3D04F351
BC5F67B9
3A7EE94C
BC665D3F
BC565918
3BCFBCA8
BCB89603
3CC6FED9
3CD68EE3
BCA3DBB1
3CBFCD38
BD47D732
3B2A8BC6
BC94C304
BC364F03
3CB30C3F
BCE0036D
BCFED6B7
3D1F4BE4
3D27B537
3CBCB841
BBCAD00E
3CEBD46B
3CD3D92C
3D12E866
3D2EE4AA
3D3C182C
3C559839
39F572E9
3D232E3F
3D082E95
3C1375DE
3C84705F
BCE104E4
BD1E64CA
BCEB938F
3C3FDD94
3CDF5E39
BC2BA49A
3C9131E8
BCB98322
3C477822
BCA778F9
BD3BA6CB
BCFF2D0E
BC64C400
BD2A3AC1
BD197243
3CD684E7
3C20C362
3CAF544A
BCDFC8B3
3B4CD572
BA1FF8E5
BD552326
3CEC0193
3CF93F9B
BD099AAD
BD5617E4
3BF7EDA8
BD15A19A
BD2DC41E
3C9030E1
BD24BFF6
3B728E5F
BC861B3E
3C9F9493
BC40E5CB
3B1F0FE7
3CA0D9C2
3D2DD6A8
3D16EA20
3D0A03FA
BD067C8D
3CF7DE96
3C7A0C32
3D028990
3BD92904
3D550DD5
3CBF5E88
3D53E7ED
B8965788
BD367AD2
BCB00F8F
3CDAA041
3B70765D
BD59B692
3D26A508
BCDC4093
3CF5F937
BCCBCACF
BB408B5E
3D392280
BCBC6A92
3B32A915
398A28B4
BD475BC5
BD0CB327
B993A776
3C1B42AE
BCBDFC5A
BD2D9FDF
3CD6B17E
BD4149EF
BB5C9F68
3CD81BDB
3CBC435F
3CFB0BEF
BD08709A
BBF7844E
3C87F79D
BCF4546E
BD2107A4
BCE534FA
BC9533E2
3D1A11BE
BC7AD166
BD1B6E26
BD07855E
3D13A35A
3C573CD5
3C5E197B
3D1802EE
3AA4970B
BCAD6240
3D338166
3D2BE433
BD4522D7
BD6A5329
BD0A85E3
BCF04769
BD5DD82B
BD32A259
3CA8AB36
3D1FE657
3B61F234
3C01A532
3D05E745
BBE257F2
BD3B0F02
BD480B0E
3CBF8F0F
BC5C1FAE
3C514264
3D112570
BB9FB624
3CA866C2
BD2655BE
BD5546B1
3D0ED90F
BBA236D3
3CFF69D9
3CB438AC
3C79A340
3BB9D368
BCB278DD
BD2570EC
3D2F728E
3AE5EEA5
BCD14CA6
BD1155A0
BCAF30EB
3D4554FB
BCDC4F94
BCEC6BC0
BD5397F4
BCA5E4AA
BD6E5C96
BD71042A
BC5C2622
BCDA77AF
BCAC19A1
BD4FCCF1
BD4A6236
BD1999C1
BD1F08B1
BCBBBC92
3B99371B
B7D2F808
3CD78F37
BCE1213C
3D2677FE
3D1B663C
BCFB73B8
3D47D47E
BA4C3E1F
3D568E7E
3C5A6ED7
3D6CA63F
3D72D0CB
3D02FCE3
3CECAC93
BD33390B
BCE45E99
3D277D29
BCE062F4
BC008956
BD3F31D0
BC6E2264
3C952D4C
BCF26ECF
BC684669
3B8816A7
3D46550C
3BD33866
3C1ACA65
3B4B3AC7
BD20C5B1
BD74C7BD
3CCD01A4
BD50D8F7
3CF10B9E
BD38995F
BC2E9330
BCBD0888
3D21459C
BCE7ACA1
BC34512E
BCAD4355
BBEEA871
3D757066
3C8BA6B9
BC210844
3B3BB20A
BD5AE91B
BCA115EF
BCA01FF1
3D51F717
BCF8559D
BCB75C54
3CD09A77
BB34EB7C
BCA54DCE
BD6C891C
BCECD15E
BD22012C
BCDBB239
BBF2AAD2
3BD4D842
3BDAA403
3B072945
BD6F8511
3CEF678C
BCD562CB
3C177B24
3BD4C249
BD33211B
BC1E119B
BA751B6D
3CC99E82
BC14CE44
BCD853E9
3CE3DAFF
BC74D60F
3C61E959
3CAAA899
BC9971D9
39CBB370
3CFF2463
3C530E91
3C9280B6
BC20C374
3D06A1B1
3CF36EB5
3D2A77C9
3CE690E9
BC430A6A
BCC0D320
BCB6E9B7
BD10B20F
3C1EF5AF
BD2AE1E4
3BFF7255
3BB8E86B
3C7799A5
3CC39976
3C9737C6
3CD161A5
BD2B6A4E
BC88BEE3
BBA22528
3D02A7C4
3C9DDDA5
BD1E4F49
3CAEC049
BD25D3D3
BC15E2C4
BC2317C1
3CECF6D6
3BF8FC7C
3D418210
BC869655
BCD7528E
3D50BA8F
BD787DE6
BCFA35B3
BB4E1006
3D3E6E4B
BC8B4E0F
3CD9B982
BC442E14
3D66354B
3C9AF431
3B7EFC9E
BD1097DC
BACB4B06
3CDE3402
BC84CF76
3D037EFF
BD0DE7B3
3D3D534F
BC7EA6A0
3C816DC8
3C08EDFB
3B98EEA9
3CE1A2FE
BD2EE6F9
3CC2D143
BD48707B
BC6A593A
3B6ABD16
3C7535DE
3C858DFD
3D24A62D
3CD79ACB
BD115475
3D40314A
BCA4AC9B
BB98167A
3B418DC3
3C3319B5
3CB5C991
BD26787C
BD10F903
3D153CB7
BA8F7C55
3BDB98C8
BBFFB3C0
BCB515AB
BCBE3AC9
BCAB58C4
3BC595A7
3D1D5F81
3D09F0B1
BC143C9A
BC04BD13
3D4ED748
BD318FCA
3CD54906
BD2C19C5
BD19A2C1
BD32F85A
BAF42E0B
3B840DAF
3D2184D5
BD4EF8A9
BC40240B
BD31A6A6
BD5EB6D1
BD35956C
BC9BA862
3D30A8D4
3CC357C4
BA0B92D3
BBA969B9
3B93BF02
BD2C1C0D
BD229C25
BA28B261
BC953D59
BD06F583
BC2059B2
3D03AB9F
BC58F35E
BC7072B7
3CCBBE5A
3D8625F2
3D73D707
3D4D4D1A
3CE0EA8D
3CDE52F5
3D66BE67
3D3D21E0
BBDD8145
BC8A387F
BBAE8453
3D4C4766
3D000F99
BBB1F3F3
3D1BEA15
BC4C97FC
3C722A20
3C8A682D
3CC47A1D
3C5A12DE
BA10B821
3CD38BFE
BCB0E5EF
3C44C177
BCBA5508
3C6DCF87
BD5D63F3
3CF4A2B9
BD06538C
3BE781EF
BC66E6DF
BB652D25
3ADDB01D
BC3CD44D
BCB4AFEF
3CDA8CC3
3BFFB4D4
BD081416
BD371CB7
BAAF739C
3C0E9E9F
BC40B3BF
BBDE87C4
3CEFC621
3D26DFA2
3D29D295
3C1B8D54
BCEEE488
BC60073C
BCA664EE
BC874629
BD146772
3CDE9321
BD838AFB
BD3DD6FA
BD7975B3
BD7F97A7
BD4AE987
BD7B2D8B
3CAD4090
BD528108
3CFC22E0
BD13BEE9
BC66CDF2
BD2E3A29
BCC2A346
BC9101B4
3CD288FA
3D2979C5
3C74CCB5
BD210DE2
3D0131E9
3D214A58
3C2A6C5C
BCC18963
BC83B06C
3CF13DF9
BD16ACD1
3CEDDA0A
BC9337CB
BCCF4783
BCD68816
3D276F23
BCCB9345
3C9B4DE4
BD19B6D6
3A2DC37C
3C76A6AE
3C0FE582
3C3E2C52
3B5DEA30
BC9A4BB1
3D2622A7
3ACA5FF6
3C8B5256
3C2BAA22
BC609562
3C559FA2
BD79EF02
3C683173
BC6F7D2E
3D154711
3CC3EE8E
BDA0D03C
BD8397DA
3BC70C5A
3C86F48B
3C52547D
BD9AA0F3
3C1A2E9F
BC4E1973
BD37F76B
BCBE60E3
BD6A06BA
BC961FA9
3C457B10
BC03F336
BD6E45F0
BD0A48FF
3C797513
3D06450B
3C2CF925
BD3077DE
BC38CE2B
BCCC3FE8
BD2DF8BA
3D479BD8
BC02E324
3D4EE79E
3D004178
3CAEC2E7
3BD1BA7D
BCAEB158
3BD7526C
BBE42824
BCAF59C7
BD466AD5
3D55F6E7
3BD701EB
BCB4299E
BC072559
BC75C8B3
BCABDD12
BB01389F
3CBA6C74
BD241A9F
3CF74E7C
BD2D55AC
3D0458AC
BD47D07B
BD023E83
BCED3619
3C28937C
3CE88434
BD35140D
BCF42B3E
3C821377
3CB0F58E
3D0BBACA
3CEB0E93
BD28C6FC
BB928CDA
3D4A89DC
3D34774B
3B706682
3CC199FB
3C9A6F96
BB279E36
BD3D89B2
3CDBB308
BCB40BB6
3D16D9B2
BC8C3E1D
3D006163
3D1473C2
3D4103D2
BD2FF666
3D46A4A1
BC851452
BCBCE928
3CD8FF0C
BD0EF8C2
3CC0D586
BC3FBBE5
3C0C0A94
BC80F0AA
3CEB0A03
3C037797
3D4A3961
3D199A42
BCD5AF8A
3B49BA0F
BCA8916A
3D3F808B
3B8AA1D2
3D312363
BC688726
BBA5C518
BC5F92F6
3C5181AB
BD2730F3
3D2F8E2D
3D04B32A
3D502112
BD12C3DF
3D58B6CB
BD0302F3
3CDAAF98
BCBDB6F8
BBF1CB05
BA016311
3BC0A039
3D4F86EC
BD3F6A1A
BA97D1CA
BD10FF76
BD5317CB
3CC6B8AF
BC429970
3D322B97
3D4000AC
3C600EE3
BD41DE16
390EC104
3CC26BA9
BD3557BD
3D19D6E6
3B6981EB
3CB73F13
BCCA9885
BD354C82
3C2036CC
BBE72ADF
BB162678
BD3C6411
3D036EF7
BBE47654
39239500
BD127B53
3D33CCA5
3C496DEA
3CAFB055
BD1F93CB
3CB63E39
BC8D40FC
3CA040F9
BCE5FBC2
BD5F89BD
3D055E19
BC8F9E7C
3C8C4581
BC3303A2
3CA11DBD
3CE946B7
3C916F4D
BD535DAA
BD13B7B0
BC4DDD7E
3D00EF48
BBF1A349
3D13B350
BB26D475
3ABC2208
3BC6C4BE
BD045255
BC27F5C1
BC9FD83D
BD21E52E
3CEE90FE
3CB578B0
BD22A990
BCA587A9
BD127069
3D11E1D0
3D062FFF
3D402AD0
3D523310
BB867B75
3C9CF4E7
3C90B46C
3B8975B3
3A46A2AA
3D1F12B7
3C82A7E9
BAEBDBE3
BC51A556
BD3F1FA0
BC8CE55E
BC8F6F1B
3D007D29
BC84B3D7
BD3E6983
3C896323
B96FF1E3
3D4017C4
BD31037F
BD2B5DBB
BCB71502
3CDC9444
3B43551F
BCA27F90
3CA333C9
BCF838E8
BD0FC201
3D0A7EDB
BD320BB4
BD145342
3CB609B3
3B0F7ADC
3CD970A6
B9717C24
3C777B33
3C7202A6
3C70A3B7
3D094EAF
BBC7A79E
BD33BF1C
BD0FAA96
BD01C747
BCD9DE06
BC9B2D75
BBBC002D
BCD519FA
3C1C02EE
3B2E7DAD
3D06598C
3CF41028
BD1D403A
BC30A194
BD1A63AA
BC96D200
BC98D4FA
BD546529
3CF4DF1F
3C3E339D
BC0BF284
BD08C300
BD61F000
3CEF3CC1
3D3A4761
3D007567
BD10ACA5
3B693EC3
BCC81E57
BC418BE8
BD36354C
3BD3DBE0
3C81E88E
3CA144CE
BCD512B3
BC87FBE1
3C906636
3CB2C5FF
BC908F85
3C4BBEA3
BD3DBA5F
BCEEE12D
3C77C1BA
3C0B8B28
3CC6E0DE
3CCB5307
BCF67AC5
BC2985C0
3CF6A1A7
BBBEECED
3D2A234D
BC0C9EE6
BC084C24
3CFCA630
3D3E96AE
BC387C50
BD037BF2
BC2EEA53
BCAE7E96
BCD15866
BC8362F1
3C281718
BD01A3B2
BD5D10BB
3AA4FF55
BC597665
BD16A06F
3CDC82CA
BD604572
3C87BBF8
BC140EFE
3D218980
BB9E7654
3C7935C5
3D2610CE
BD12ECA0
3D1A9B99
BC6D8083
3B9BC0EC
BBE841EA
BD2DAC59
3C82E9A7
BC317F57
3D24164B
BBE33386
3BFE56CF
BD35B3AA
BBD871D7
BC20A086
3CFC883D
BD27E625
3D19BED1
BD5B20E8
BCADBCC4
3C965388
BB3D0CC5
BC36919F
3CAAB0D0
3D47F780
BB30D722
BC58194B
BCE2EF81
3D73FD37
3CA5EEE2
BB4A9B8B
3D148F0C
3B729569
3CC9CCE8
BC256A75
3D24D914
BCF134A0
BB5440D6
3CED173C
BD75E4FC
3C4A142E
3CB91D63
BC6C626A
BD21E75D
3D0558CC
3AEBA067
BC5CFB59
3BC2DCA5
3D04983F
3D2346D1
3C8AFE41
BD2BF039
BD82EAE1
BD3B56AC
3CA3D473
3D1732C7
3D5A8F72
3CF1D399
3D04AE1C
BBB3F8C7
3D4A98CA
BCB6B908
BD02EDE2
BD5B7A72
BCDF78FB
3BD0D2C7
BCD3F95E
3D2799CE
BD1825DB
BD4AB548
3CDDDA71
3C06B98B
BC28AEEB
3CCE0334
3CE6CC0C
BB890F86
BD09C82D
3D45207A
3D12E06B
3D5CB9F5
BD19DBCC
BAFCFCB4
BD1B8E77
3C0CEBBA
3CC40E04
BD44B2F8
3AB46E5D
BD31B726
BCBEC725
BD281C68
BD2D801F
3D057E31
3B265920
3C40FFC9
3BF91C8C
3D0CEC34
BB366158
BD35AB1B
3AF670E9
3C3B073B
3D067030
BBE659D3
BC85C395
BD7DAA83
BD30B783
BD0E89C8
3C8D95F0
BD00A813
BC0C72F5
BCAC01FC
BCE25DDC
BD5E5BD8
3CEF2E25
3A9E5723
BD0D27EF
3B69297F
BC8D78EC
BBFB5AC4
3A900468
BD35B173
BCCF9362
3D2A2472
3C90DDB9
3CAB994F
BD03ED83
BB16E7D4
BD0C819F
3D0CFC18
BD03B5AA
BC1BFFA3
3C112D8C
3A7649CA
BCC1D453
3CAB82A5
BCB6716A
BD2ADBA1
BC213604
3D02D99C
3CF759B3
3C92E91E
BD102D38
BD12E58B
3D356AB8
BD11C83C
3CCF1300
3CAB0678
3D190A9A
BC904715
BC2EED8A
3D39AD2B
3D2B548E
BC8F2438
3D042F6F
3D39378A
BBFEC673
3D63E448
BCB6D54E
BCD7242A
BCFF04B4
3D3F012A
3D0D7326
BD42C3DE
BB53723A
BC48FC0C
BD470A65
3C969179
BB14402F
3C27E31C
BD308CB1
BD4121F7
3AFC4930
BCE26EE3
3CB247A9
BB5A0CE6
3CFE0C7E
BC737446
BC361E10
3CD92AE6
BCEAB5FF
3D0E5F92
3CB2E877
3D279D90
BD03FA13
3D30566A
BB1D3F72
3D456750
3D15D1A4
3D2D8F97
BD285FE1
3C66B6BA
BCC8E476
3B6F77C2
3D5C3E22
BBB52101
3D39E824
3C020F69
BD31DA0F
3D41B400
3C034B7C
3CADD811
3CD50EC5
BC39629F
BC2EB0A2
3C359E5D
3D88CE63
3CF86159
BD457EFD
BD87D9F0
3AEEBEA4
BBFC2988
BCE04ACE
BD12D239
BC87402C
3D0F4592
3A80B056
BCF3B417
BB47016C
3D3FC6A6
3D5A76DB
3D955231
BD24D4AD
3D05D2E0
3D20E16C
3D9C7045
3B59B266
3D314B38
3BF85DD1
BB778F16
3C315FA9
3CBD2842
BC060F04
BCCE4238
3D673DC0
3CC33C34
3D6C3F73
BD190148
3CACC623
3C5BF8CB
3D3D8DC7
BCDACBF7
BD552CB0
3CCB0634
3C802AA4
3D6A8F58
3D602AB3
3C36B62E
BCD6397B
BD0AC6FA
BCB21B2E
3D07B205
BC90D6F3
3C100599
BC61F572
3D44F563
BC82AD2D
3C8F1865
3A9D59B1
3C8BB03F
38B48D3A
3C1E52D8
BD060AC1
3D5A88D2
3D5A7CF2
3CA37090
3D188DF5
3C4D247F
3D36A568
3D329FCA
3A8C433E
3D226C6B
BC7E40A6
3CB05E8A
BD9CE595
BD43B04B
BC906B52
BD1A7D20
3CB4D6D4
3D9FEA99
3C09E05D
BB8DF1AC
3CFE2CF3
BC6DC6D5
3D09A779
3C1935DA
BD0FA09F
BAC6B097
3D6DB99B
3C954442
3D354A41
BD550415
BC2C8FEF
3DBDA5FA
3C87CBB9
3D042676
3CA3F6A6
3D243A22
3CAF5310
3B2695AB
3C50075F
3D0DEF5C
BD29901E
BD9A1FD8
BC371139
BC04E6CB
BC74DA0F
3D72F62F
BDA1D9CD
BD022236
BCD198E7
3D32435E
3D269F6C
3CF02A68
BD13C39E
3C94A130
3A2C9FA8
BC219A1F
BDBFE3C7
BCB8D101
BBF6C10F
3BFDAD0E
BC04B8ED
BDABB124
BDB12BC3
BC589611
BD10108C
BDC44315
3B26FD00
3BDAF8FE
BD3E2CAC
3CD4224F
3D92D53F
BD69DBAB
BC6CD0ED
3D41246B
3D841DBA
3D56E153
BC157DF2
BAD1278A
BCC78F54
BD301454
3C8D4A06
BC8F6CE2
BD690CD8
BD0FFB78
3A9ED3BD
BB888AB4
BD2FA6E4
BD6C091F
BC459278
BCDA4A5F
BC86D1AB
BD4375D8
3D04D5EA
3A829407
3D819135
3DAF162C
BD09170B
BCCD919B
BB660530
BBE18D8B
3D979D5F
BD775C58
3C51895A
3D03F761
BCB18CFB
BCB4F3F2
BD7F3F97
BD047B04
BBA997AA
3D01E647
3CDA5F13
BD8DE146
BD87EC44
BD56E6AC
BCBDC9C1
3C98B820
3CC6F01F
BCE4D398
3D0F76B9
3C6B465C
BC17805F
3C586A1C
BC32884E
BD27E212
3C55D92B
3CAE05BE
3C9D9C00
BD244557
BCA17E27
BB78FF08
BD697D1C
3BE023B6
BB6B0977
BD713B82
BD26187E
3CBF54B7
BDAA271C
3C8A782C
BD0B0944
BDB95732
BBEC39E7
3D0F9874
3D29BB7B
BD68A1ED
3D00F78A
BC32EFC6
3CF0E16A
BD02916E
BD889E09
3AF2887A
BC93645B
3CC8A32E
3D1C7DAD
3C8095E7
BC99A3D6
3CACFC41
3CCC090B
BD3E9D27
BCD8D8BD
BBBDB77A
3D457473
3B430808
BD11599C
BD1E8951
BCB8A837
BCEEE3A9
BC6FA3BE
3C3E7278
BD922670
3CCAA6F9
3CDC4C5F
BD19AF05
BD81DF4C
3BB135A3
3C523613
BC61139D
3C7713CB
BD946590
BA45169F
BAEF3DC4
BD220F5C
BD93B196
BD795350
BD0BDD76
BDA91ABE
BBC10CD3
BDE44391
BDD0CC40
BD1D92AE
BD38986A
3BDE818B
3C056A8E
3D84AC6D
3CBC0979
3CA6DF5A
3CBA8CFF
BCE91A47
BC7DC78A
BD525E41
BCFDCEB3
3D035CB7
BCFCCA4B
BD741FB3
BC63AAFA
BCC4FAFD
3C20BDC7
BCB576F4
BD48E2E5
BD8CFA32
3C904CF8
3BAD8E38
3CCDD970
BD43316C
3D04E2CE
3C52B911
BD8F4E23
3C7E8B10
3C647437
B9E85A4F
3B97F012
3D3599A7
36EF6684
3CF740DA
BAFF0F3F
3D9F0817
3CA5663F
BD14C1AB
3D991449
BCD877A2
BBB39273
3C2E7736
BD4C9D20
3CDD7AAE
3D3C16E0
BB85D985
3C806556
BD904C57
3C113DBA
3C923A58
3A063731
BD324C7B
3C7CDBAE
3CA5B1BA
3D53D66B
3CA55331
3DC2F3F4
BC9378E1
BDA46324
BD729306
BC64E7B8
3B9F6F33
BD5228FC
BD146922
BD8FA543
BC9AA20D
BD029AEC
BD9DA71B
BDAFBEFF
BCBFA498
BD04F6A0
BD59CA22
BD9ECC7A
BDE8D345
BD2DDFB7
BD6F7ABB
BC4BBD50
BD81F7E3
3C5EA6CD
3CE64813
3D317BDB
3CA1081F
BD47210C
BD4FD323
3D06EC37
3A29204A
BD4A330D
3C7C6CC6
BD5011DF
3D0D0F3A
BD023C1B
B96378A8
BD59C751
3D48C706
3B738A29
BCC2C21A
3D383017
3C976E6C
BCC38EE5
3C2161E5
3D4F1E6F
3B5F8786
399C8CF0
BCC558D1
3CF894A4
3D013FBE
3C34EFCF
3D89E61C
3D56FA3A
3D18ACAE
BB84AE84
3D12627A
BCAF9C94
3C4309BE
3C948B07
BB61D812
3A302EA2
3D996590
3D273B44
3BA2C3F2
BC3057E9
B9B659C1
BCBB7481
BC0EC6FF
3CEFD71D
BCFECD58
3C2765AE
BCA12227
BD5B7589
BB0CABED
3D0FD9A0
BC13E6A5
3CFE0F19
BA965B89
3D009442
BCC4A6C2
BD3BFB9F
3C523FE4
BBD3D2CF
BCDA8039
BA136D44
3CD95F73
BCC5961E
BBA0DFA3
3D80E643
3CD90745
3D70D20E
BCA3DA69
3D8B4540
3DB0C503
3D99969B
3C7E636C
BCC21192
3C3B22EE
BC39BA9D
BD71D263
BD067F88
3D3461E0
3D17E53B
B9CDF0ED
BC79AADC
BC7DF419
BC17D725
3C5A2B69
3C975184
BB415933
3C2CE769
3CF29830
3D455196
3D165292
3D5BEE60
BB22E66E
BA716E53
BCA18CDA
3A19B7FE
3C65B635
3C1E3493
3CBA04C7
BCF43E46
3C98B15C
BCC0CBA3
BD4DFFB8
3B2B36DC
BD30DBBE
3D26A384
BD1DDB4E
3D042004
3D15D3E6
BCDE741E
BC6C6B99
BD095510
3AB8A91C
3D3F9564
BD6AF8C1
BC4DCE76
3C1A9442
BD177113
3CD76F7D
3BF93A01
BC05471E
3B5CDBD5
3C75CF38
3CF1386A
BD3713C9
3C8D3B76
3D3E577A
BD3CDA7B
BD0A0BE8
3C032760
3C544B1B
BCB09B0E
37174B72
BD52CFF5
BC80F80B
3C44A447
3C1CC5F0
BD17969E
BD5AA36F
3CFB0A26
3C9ED88C
BCCBD7AA
BD503728
BB382EA6
3D1A4CF7
BCED29CD
3CD2B23C
3D03BCEA
3BC9C09B
BB426977
BCB44BB2
BD0F01D3
3CB696E3
BD04DFAA
BA357D4E
3CEF6543
3B83C95D
BCFD7096
3D227343
B83FAA4C
3C90A456
BB049C91
BC2F0EE7
3D366888
3D3CE0C0
3CFD397D
BCFB33C3
3D14AEC1
3CEE73A1
BD080F9B
3C6F4977
3D18C60D
3D35154E
BD6EAAE1
BCA9FCFA
3D1E7ACF
BCF922A4
BCFB03D7
3C5FAAF6
3C206AC4
3CAEDA14
3D40E3B9
3C7295D5
BD03F32B
3CC64BDF
BC79BB90
3C757A42
BC0D209F
BCFD6BD5
3CFF9D1A
3D180B1A
3C80AAEF
BA995392
3D3392D3
3C8A46DB
3BE6D715
3D192490
BCE1B618
3B63A4DC
3CFAB226
3D4D66B0
BCD6FFAC
BC42A3F8
3BBAADA6
3D3D5EF0
BD15D60C
BD0D732D
3D1B8DC5
BD337EAD
BCA132D5
3BD3A7AB
BD40E1E8
3C6421D6
BD69AFE8
3D158896
BB8EBBEA
BCF65C84
BBDCC309
3CA0FB28
BCF340B0
3C24059E
BC6BB623
3C02ACA1
BBB47052
BD8614D6
3CC07325
3D26EABF
3CA074DD
BD471E94
BCF861BD
BD0F5BA4
BD48D927
3CE54771
3C36D271
3C88E051
BB6C59BA
BB4CFCAA
3B74CD7B
3C75AF10
3C2D9C58
3D2EE3D2
3CA2359B
3C925EA7
BB891448
3D4451E8
3D4C85A8
3CCD32A9
3CB05AA5
BD7F936D
3D61B0B7
BB91181F
3D472397
BCC5AF79
BD2547CD
3C052821
3B81C0A1
3B333481
BD3099A1
BB076B87
3D08C591
3C20A0B4
BC89E017
BCB6EC70
BD135DA8
3CD0293B
BA5E3893
BCE83404
BCD115AA
3D8DF703
3D2B1865
3D0C792A
3D6EBDF3
BC5C9052
3D57A9E7
BD17A78D
BC8CBF64
BC71C544
BB64955B
3C46A5DD
BC71089B
3C88292A
3C47F638
3B8D2917
BC93C054
BD39D039
BC08064C
BCFD24DE
BCE7ED68
BD4195C1
3D467DDD
BCDF1907
BD0E8266
BC460CE9
BB20A2C3
3D3D5013
3D41F5FA
3D2EF0B7
BD1E979E
3CE1965D
3C19BCA1
BBA95277
BCDB33BF
3C4DFDB8
BC141418
BD4402CD
BD1EEEBF
BD4DF506
BD3F979B
3D1EFB8D
3CA25F34
BC37B1CA
3AD3BB0E
BD914A44
BD4DFDA0
BCDB00F4
BD42F663
BD417C14
BD4CDD9C
3D448A1D
3D2250A6
3CC4CE3F
3B82B704
BC88CD85
BD0576DE
BC7885BE
BCBA0B35
BDB7A925
BDAFECDB
BD8D1588
BD0C68A8
BC940D8E
BC9AE36B
BD4B1CDC
BB84A2FD
BCD98D63
BC3AB4E0
BD128F20
BD0F88C6
3C542BE1
BD3FA8BE
BCB7280F
BBD4CAFF
BCA5B5DE
BC8ECFF3
3B89077F
3CE177C2
3CF2D6DA
BD057D37
3C93BF92
3D5D32BA
3D33FDFB
BCB2130C
BD12C98A
3C87D254
3D405087
3BF06581
3D3C291E
BD03BDD8
3BDC5A5D
3C9B00DE
BCFBD4A3
BCC372BD
BBB1DDF1
3D2A47F7
3BCD5006
BD252DFF
3C36F069
3CECA406
3CF86160
3D0DE2BF
BD02E94B
BD224262
3D58F236
BC2823A1
BD8264E9
BCFBF40E
BCC14AFA
BD56CA7A
BD562E0E
3CDF7E88
BC301450
BD295505
BD4EC87E
BCE8AB4D
3C1A5ED0
3C9E2D46
3BA92DE6
BD573114
BD176F9D
BD6D424C
3C01020E
3B5014F0
BCA436CF
BD6E2CEC
BD058F35
BD36DA4B
BC497AEC
3D28369F
3CA63901
3CB2BDDB
3D2B1D58
BBE83EF0
BCBDEFB1
3C5872D3
BC77ED86
BC766FFF
BD3F9665
3CD97D37
3CB57E16
3B898981
3D54DB51
3C90E115
BC8D4197
BC43A448
BC7E05A1
BD21C22D
BD663106
3D255276
3C9DBB8D
3CE8D123
BC90F23E
3C3CAF39
BD1DF941
BD1FBE74
3C94D762
BD551C41
BBB2DE98
3D2CB78C
3A873A3E
BCF97535
3D2E1B01
3CFD9800
3C2F9E80
BCC842FA
3C910D54
3D198148
3CE3B32F
3B58A9DD
BD177AC8
3D2791B1
3CEB2766
3CC21AEE
BD2ABC4B
BC71EFEB
BCEAA063
3C1F2285
BD0205D7
3CEE6E3B
3BE3A5A7
3D3D4AF5
BBCDF89B
3D2CF86A
3AC3F05A
BD2A3B63
3C256633
BBD8D4E3
3D23DC36
3D24149B
BD0550C6
BBA255E0
BAB0FB0F
3D39C458
BD3CD503
BB1FAB9A
3D7A604C
3D42A5B6
BB586BA6
3D113ECC
BBB3481A
BCFA51A7
BC4E7E26
3D040DE2
BD256284
BDC85999
BA087C91
BD3BD439
BD2A0EA8
BD9BB6C5
3B012F5D
3D11662A
3D3E4B6C
3D108BF6
3B86EA98
3AC9901D
3C7E2C68
3D56211F
3D0443BD
3D284BFF
BD9A0B02
BCB54109
BC0B8E6A
BCE87533
3D1D3624
3D095528
BD3A46A5
BD0A6FD2
BD87DA5C
BD77BD26
BCE2FCC7
BCF037E4
BCA8661A
3C9A4447
3CAC6C9D
BD2AD8BC
3D238175
3C86395C
3BE93C50
BD274A12
3B9311C4
3CA90C61
BC8A848D
BD2B9AA9
BCA9125F
3D52823C
3CED3719
BC82A11A
BD43C0CF
3C86E717
3D96EC70
3CADB66D
BC21DAD3
BBACE9A2
BC734734
3D2AE044
BBFC1675
3D0F7E05
BC2892A2
3D15212C
BD412B27
3D45CD2E
3D26D788
3D08B654
3BFDAA76
BC5BF428
BCA121A3
BD5B6B26
3C128652
BD099E59
3D43E8EE
3C37A0BC
BC17B14A
BC36FC1B
BD7C9381
3DB5E115
3D995340
3C9994B0
3D0F9386
3D09F1A2
BBB95F20
BD054620
3CB8C392
BD0644F5
BD1A6167
3DBC3D84
3D3BA06D
3D59C6BE
BCCB0CA7
BCA18615
BC8EA87F
3DCABA9D
3C585CF4
3BEE6084
BC85B625
BC13D643
3BB25225
BCEE93C5
3CDE99C7
3D07F9E6
3D7F0AE8
3D14AF1F
BC9DB904
3D0CDC29
BC86F5E1
BD4F5CF1
BD64A22F
BCCB1571
3CA177F6
3C7189F2
BD1BB83B
BD911AA6
BD0667DE
BC30D397
BD35B0E8
BC88EA6B
BD513567
BC5B8B32
BD923FC3
BD9BA30C
BD335772
BBF3A427
3C858F82
BD8F691F
BC7F5773
3C401818
3D4F33A8
3D6A70DD
3B61BF8B
3D50E92A
BC07EEFA
3D562C87
BCD976C0
3D9BC88C
3D2BB6A1
3D09CF15
B98AFA43
3D00EDB4
3BB1BF6A
3C33163D
BD4DCF73
BD4AEB23
BD0ED508
3CB19A86
BD41AB0D
BD877ED5
BD19CF87
BD27F9FB
3C931A85
3D54170A
BD04A89F
BC1FC2D4
BCB9F77E
3A730F13
3D307102
3CF574D5
BD690BD9
BCC95AEE
3D144068
BC87D3C3
BD329AF9
BD50B5F4
BCB009B0
3D0B8462
3CC3ECAB
3BA22A89
BC8ADE4C
BC6A1682
3C1587EC
3D0FFD40
3CAAA80D
BD5D85B3
BBFD10B8
BD3D7700
BCC7F03C
3D10BFF5
3D09CF8D
3C676866
3D6D1734
BAE531C4
3D15555C
3CBF7773
BC38DC93
BCA7C93C
3D0BDB2C
3C5E48D3
3CD99989
BD151774
BD8178FE
BD2681C1
BC352EDF
BD2D5D8A
BCCDE7C8
BCA38537
3C68A77D
BB58C78E
BA6FC5DC
3CFC85C8
BD2B8EBC
BBF19A35
BCF1D72F
3D239071
BD11BB54
3D0AB28E
BC7D2C7C
3D339621
3D17C028
3C8F2B00
BD30E6C9
BD8896E3
BD3DB913
3C60A727
BA57C536
BC915F9F
BD258142
BD53D115
BD5EA160
BD98ED4F
BD631E96
BB3E4516
3DB61DF0
3BB67818
BD14CBAD
3DAC0BAC
3D491B73
BC8FDF66
3CCB0F62
3CD0C18D
3C5B6BE5
BCB39A29
BD10152C
BD8444A7
BBD49E32
BD4AB53D
3B83819F
BD0F81C0
BD298F7E
BC5F5CFE
BCB511FA
BD05CAE4
BCF10F38
BC5AC3E3
3BAB5475
BC9AC287
3C49A837
BD679EB1
BD34DC42
BD23D858
3D26D611
BD1715DC
BBE11E06
3CA3D1F1
BD3B22EA
3C001941
BD068C30
3BCF7D9B
BDE136CF
BDC38C30
BD882282
BCA3FDD8
3AAA3FCD
BD442702
BD7287C1
BD234EA1
BB80BD6E
3C29CBDA
BCE233D9
3AFDC49F
BD3A9E28
3C9C2DFA
3D85ECD4
3D1F0E36
BBDE4907
3CDAFD54
3C8CE251
3D748B1F
3D28FF3D
3D31540F
BBC00860
BD01F0CB
B9E1E5EA
BCB43A18
3B8EAC87
3D9FBA08
BD0B52EE
BD009B62
3D0F1BEB
3CBE91FB
3D059F9C
BB018D82
BCEC9D3F
3D013774
3C892754
3C399929
3D541435
3D27D3E1
BD1F3400
BBBEBFFB
BD2A55FF
3D09EEEB
3CF6CC21
BD555E38
3D1409BE
3C26D822
3CD3A4E0
BD5703CB
BD955C83
BD7BF1D3
BDAB6226
BD3449A4
BD3C30EE
BD342072
BC6E32D0
3CC6704F
3BF934CB
BCB79540
BD68ED43
BD90919B
3BE1DAE4
3C3AAD8A
3D42AADD
BD6CEDD1
3B446EC6
3C95BB65
3C394531
3D948FEE
3D4235FB
3C936AEA
BC07F2F5
3D39E5D4
BD49DE64
3C2148CA
BCE13EF2
BD358197
BC6EEA53
3D1E3C3A
BCB6E109
BD321A9B
BD583DA9
BCE7AF43
BC54FE9E
3C77DE19
3CB953AB
BD369519
3D3281B3
3CE8EF5C
BD1A1035
3BC4D0D8
BD165015
BCE19865
3D5925CF
3D4366BF
BADDA689
3D3A0566
3D8F8510
BCE00A52
BCD26586
BCD71E67
3CA5A6A6
BC69211D
3CEC4583
3D75CD05
3D8026A3
BCEE5A32
3D475BEF
3CC585AA
BCCF6B82
3D53CBE0
3CAC9AA3
3CD952CA
BD212DBF
B9B23CFE
BD0316B7
BC8DBDF4
BCFD0E9E
BD154B26
BCC22EB5
3CFAC841
3D333F68
BD3BC604
BD9C2E93
BC023B2C
BCAB2C75
B717A920
3C46032D
3A82BD98
BD65871C
BD13BB73
3CCD2E3D
3CB1FF9A
3D539D68
3B4A8D5C
3D8E527D
3D9CC1B0
BC8405E7
3C85A76B
BC9B6B7E
B7D1D998
3C29AC7E
BD5F7845
BC817A44
BD471610
BC902FA9
BC91A6D9
BC045D80
3D308D48
3C0FB709
3C11FB1F
3C1885B8
3D0725B4
BD1CC978
BD13B42D
3C439AD3
3A4E3F76
BCFF8166
3C573A83
3D174B36
BD44BC03
3CB9C9EB
BCB2F6E5
3D1A9217
BC01823D
BD19186E
3D0456FF
3C8FE2CD
BD3CFA0A
BD373A34
BC2C547F
3C8904DD
3D286EA1
BB993CE7
BB378D12
3C9E51F8
3CEA558C
3CC63F65
3C89ED13
BC8D301A
3C969699
3CEBA022
BD45A864
3D3D9C63
BC05C7FC
3D12600F
BC40B23D
3C456204
BD592BF5
3D20996B
3C92638E
BD49CD92
3D158F44
BD3C9642
BD5F7FB8
3CC6A643
BC2E686C
BA870D31
3D0DA233
BD5FE419
3BD694BD
BBCC9222
3CEE2486
BD36C879
3B3BB922
BCBDE58E
3D0A5E79
BD5A8857
BC841BD2
3D2CC945
BB1129C0
BB817565
BD386D27
BCCFE626
3CED0D67
3D216F87
3D14737F
BBFE51A3
3D06C133
BD69786C
3CC72EF5
BCDB24E6
3C63B162
3C306386
BBD93506
BCB63F49
3C7E1FF8
BCDB401F
3D2B10B2
3B6C4164
3D16B21F
BD4ED01C
3CEFF787
3D1FE78F
BD233B7C
3C40617C
BD34BF24
3C80D1DC
BBFC3B4D
BCE2DC54
3CBAFE41
BB37A3A6
BC50C6D5
BC5F7A0E
BC32336D
BCF38F02
3CB25575
BC3BDC86
3D2F5B77
BD098725
BD206066
3D00586B
3C92D71D
BCAAD249
BC0CF236
BD0288FA
BCF79149
3D37099F
3B398DC9
BCFB6F7D
3D172322
3D1A7B6C
3D373706
BD022480
3D2E8053
3C712546
BBDF6B69
3D6A55A7
BCDAF101
3D21C5D6
BCDD3638
BB72849F
3D27434A
3C9A1C4B
BC8CC764
BD221A47
3BCD1CE5
BC58B304
3D279CF5
3C8A7C43
BD15D1D9
3C570230
3D2379B4
3D648099
BD1D138C
BCCEA784
3B81B8F3
3D3337E6
BD0424EA
3CB7DC2A
3D166ECA
BCC44102
BD011D17
3B643320
3AA1036F
BD1FA1E4
BD43D13F
3B9E9680
3D1F56D4
BD26C980
BD271AB9
BC0978A5
BCD0FCF5
3CEDE4B9
3CD56BFE
BCA541CB
BD097F05
3CB59AB1
BC436ECF
3C2BC123
BD542466
BD113A9F
BCFF2C41
BB8094DC
BD51015F
BB1BCC7C
BD1B008C
BB833A07
3C1710FB
3BC18237
BBF7658F
BD01C176
3A93C791
3AF34C61
3CCA584C
BC09BA33
BD464172
3CB28AA5
BC5E4A02
BD0C1B2C
BC914E79
3C92FFE6
3D46C4BB
3C740C8B
3D05F0D9
3D3991EF
BCE7F264
3D55BCF8
BD59D27A
3BFEDD56
BCD2F180
3CCE899B
3D58302A
3B001774
B9EAFD23
BBEC867A
3C9C3181
3CC89676
3D3F65DF
3C7C9E6C
3D6DBCD1
BD0B3C71
BD2BFFDB
3C82D3FB
BCAC7A97
BB8F7CAB
3D2BD559
3CA469DC
BCBD2006
BD1A7747
3B5F5D4F
BD1FCC01
BC920776
3D0BA48D
3CCBC5D0
BD2ACCB7
3D13CA2D
3C7E90BF
BD15C4F9
BD0FDC71
3D0BD590
BCC106C4
BC088B31
BC1ED306
BCFDB2BA
BD2BCBD8
3AF528F4
3CDDF7D6
BD1A2BA2
BD4D20ED
BC854C8C
3CB51419
3CD86229
BD15A786
BCC48066
3C920937
BD01AF3B
BD5FDFC5
3B4A716E
3D3BA7AC
BBB81D81
BC8647DB
BB6B4BDB
BD05E671
3CE19426
3B443487
BBEC481C
BCBBCF2E
3C67850B
3BB0F03B
3D43C47A
3D1098D0
BC604A29
3D60833D
3D6FC8D4
3D22BAFB
3C9C0570
3C8108C0
3CE7E650
BD2424F6
BCDD450B
BCD9154B
3C8FE7AD
3B7A5F84
3D0A26A6
3CC0680B
3BBC9F22
BD37B637
BC8BDB8F
BD049BA4
3CF4AE6E
BCE4B4CE
BA690226
BD0FFB90
BC905DC6
BCF88258
3D1E4844
3D0369F5
BCBCB34A
3D01AE89
3CCC2CA8
3CCDB8A0
BD2A5D56
BC5CBF09
BD133C83
3CB01CB6
BD22C7B0
3CAF9FCF
3CEC3897
3D3E5EE5
BCCB885C
3BC95563
3D093B0B
3B406856
BD16DF78
BBC8BD4A
BC71D7F2
3D016F9B
3D267BF3
BD1AAE78
BC4A361C
BD040CF5
3CF0EC75
3D0921DE
BC0C357A
3CE100AD
BCDFEC55
BCD8C678
BD561AA6
BD5F1CD7
BB8C6397
BCBFF15D
3B9931ED
3CF9F218
BD395A20
BCF9724D
3D359289
BD24E0F8
BC5F7DC3
BCA7B078
3CC1A203
3C3F8B91
3C04B2EB
3BE7547C
3C6D0FE6
3D174BDB
BCE85F5F
3CFE0AFA
BD14C98E
BBB66CD7
3B5B940E
BCE08E5C
BD163E95
BCE69FD6
BC1A2A42
BCF18EEB
3D0CA17F
3D18E9B1
BCD1C41D
BCB1C6F3
3D574303
BB8D355B
BCB2F7D7
3D2AF9FA
3D08C7AE
BCA317D1
BC429D7F
3C55752C
3D30E724
3B054F90
BBFAF5F8
3C88EB72
BD5CE1EB
BBC1D38F
3BCCC6DC
3BC0BBA0
3D1664E1
3A08ACEC
BD24D90E
3C9A9980
BD5D9799
3A88F03D
3D3BDD1A
BAEDE8AE
3D2E660A
3CA3321B
3CD9DDB3
3D62C60B
BD36492A
BCE448F0
BA548FB6
BCDCBEDE
BD2908B4
3D786C4E
BD027C13
BD2C1964
BCE13A9D
BD1BE9A5
3D4F796E
BCD6A9F5
BD03C09E
BBF5A2C8
BD0C5187
3D6024D9
BCB8BE5D
BB9DE0D5
BB56FE97
BD27F601
BC687C3B
3C5770C9
3D476B8A
3C5E332A
BD002979
3D091D63
BCDC4B40
BD02AACE
3CFB0385
BC31A7B9
BD8D32E1
BD90FC9E
BDA600A2
BBF21107
BBF9FE8C
BD6D3F39
BCFC0E4D
3D817E63
BB142E3C
3D946F9C
BCDB60D3
BD584526
3D7402C1
3D8A6F28
3D8F0164
3B62EDEE
BCA8DFAB
3B4DD2FA
BD1AB090
3C71F5F7
BD3009C8
BD21056C
BD454E62
3B51287F
BCC0026D
BCFD2741
BD220C0A
BD399FC3
3D223C88
BC0340D3
BD1EDE85
BD44BF7B
3B7032A7
BD2AF31E
BD324CB0
BD1A19AC
3B4600F9
BC79D85C
3D02E7DF
BD026DB5
BCB041D7
BD28204B
BD69BC69
BCE3DF2B
3C21F22C
BA2ABBBB
3C714CC6
3C689192
3CDA514D
BBB01528
3D84AFA2
3D3D7EC5
3CCFD462
BD2CB92C
BD9401D4
3CCD8006
3B8CA114
3D6FC0DC
BCA0A2E7
BD3A46F0
BCC9E743
BCD52F47
BD2C5FD8
BD47C883
BD5F0095
BD16FB67
3D5B58F0
BB4C37C3
BD81D984
BC3675A1
BB5ED000
3CE5BAAA
3D31D27D
3DB0A865
3D6B633F
BD8C94F8
BCED799A
3BAFF92A
3C8D3C00
3C5F59DD
BC870AC6
BC157795
3D548296
3D2B958B
3D7C2067
BD503B80
3BFDDC1C
BCE55D77
3D963431
BCAACC86
3CB206BE
BC2FF65C
3D8DED98
3BEB6E44
3D08601B
3D82ED8A
3D12D727
3D6AC9AE
3D270EDD
3D6B1A4B
3C63BF37
3CF15E6E
BCC9C8A5
BD3D4333
3D4F5831
3D93C46D
3D171F36
3C3AED51
BC477844
BD8491F5
BC811187
3CD82841
BD4BC031
BC66080C
BD97E9A3
3CD7C511
3D1EFA1A
BD901427
BD01DAEA
BC94A78D
3CC28F97
BC858047
3D217DFE
BBC80064
BC23DFAC
BC85877D
3D25F8B0
3D7A0494
BABAB1AD
3D0B2D60
BB8682AA
3D544C49
3D256200
BCA25CFA
BD783BFB
BB63A5C5
BCCB8DD5
BCCD6391
BD912117
BD921245
BD5AF212
BD1752AD
BC85DEF0
BC43ED54
BD7644BD
BCEB1443
3C8AD21F
3A802349
BCF4BB96
BCD5DB6D
3C3BD0FA
BCC3F6E0
BD028BDE
BD1EF5B2
BD1370FC
BD089B0D
BCBC069F
BC8F4909
BCDB0A81
BD96CCF9
BD95F41C
BCF84E32
BDC02617
BD58986F
BD125CBD
BCD9C432
BBF98A79
BDFBA274
BDDDD373
BC838EEC
3D44F39C
BCBDB49A
BD83F3FE
BD95D509
BB9BDCF7
3D5ED87E
BCB8D4D2
3D235CA1
BC81BC83
BCBCFFA0
3D05D8F6
3C7BFB2C
BCC508D6
BCFFA3E6
BD81D840
3D147B4D
BC9DE1E7
3C696742
BCF9D00A
BC205E76
BC96DC6E
BD5FBA2F
BD0CCB55
BCDAC629
BBD01ECA
3C90DE66
3B13507F
3BEF5EFC
3D9FA582
3D0606C5
BBCF2DFB
3CD59D2F
3D466C05
3C4D8EE9
3D754384
BDA38CE3
BD59B992
BD8B94CF
BCEA6E38
BCC5EF00
BD4AEB2F
BD7CC9F5
BD2FF6DF
BD9A9320
BD662B49
3D3A3EC2
3CED37B1
3C006C46
BBFD7FF5
BCFD2BF5
3BDA3D38
BC0B8369
BCE0FF85
BD7B09F7
3C9A051B
3D8D4E97
3C9E64D1
BCE0CD69
3B81DA5E
3D8947C8
3D408EC8
3C892BE8
BB9FF278
3C2A615D
3D06704D
BD720791
BC6E5503
3C96D4B0
BD3C5511
BD002941
BC2103DB
3D37B040
BC9FD899
BCF381CB
BD6C095B
BCC4FB60
BBD53FFE
BD2CE367
BB431F4C
3D24B9BB
BCA5D642
3D02CB89
3CCEFA1E
BD5F782D
BC93872E
3CCF2D58
BBE8AD37
BD92E310
BDB70751
BD8AA153
3D090A3A
BCA8E561
BDADDF66
BCAA950F
BD96526D
3C913D7F
3D83D985
3BC076A2
3C807FC6
3D61A7EF
3CBBC9F0
BC846FCF
3C31D1F9
3DCB6D28
3D315843
BCAE06A6
3CFC5145
BCF9D26B
3AE243CB
3D9AB34D
BD01CED8
BD1E46CB
3D04A094
3D41A19A
3D841461
BC1BB13B
BCE41C47
BD940B47
3CAAF9ED
3D3C37EF
BD1DF597
BD676ACF
3C9C96C4
3D2C8C97
BD1441FC
3C2E2B0E
3D0595F0
3B8BBE10
BC6932B1
3D279F8A
BD5B2BB3
BCCFF664
BD145F04
BDAFD2E8
BD0BE37B
3D2604F4
BCC3B4BE
3D16AA0A
3CE5B626
3C8345E2
3CCF5C4A
