BD23B0F7
BDAADCBA
3C67B9E3
3DA9366C
BDAF9BB9
3D968729
BD8778B1
3D8476EE
3D0F1C11
BDAC66E3
3D8A09C7
BCE1C8C7
3C36EB87
3D6544F5
3DAF7DB1
BD83A3A0
BD303028
BCC82FD6
3DB8A603
3C3997F6
BD3BA4B7
3D8E47B2
BB3BBC92
BD9A1C30
3D843431
BD94459B
3C681392
BCA7AC3C
BD95D4DD
3C8C3D30
BCAA4765
BCAA18E7
3B56BB0B
3D270E86
BCF31EAA
3C90357A
BD4B393D
3BA35067
BD2F9609
BD7BC034
3DA3A301
3CDAF0CC
BD85B05B
BC9227D1
BCCB80F3
BB119E94
BDAA4A42
3D706F45
3D8233A2
3CDE7860
3D5D1F16
BD0AEEAE
BDAA1101
BD2911C3
BD70EF7E
3D274715
BDB9E53C
BD6460B6
BD190582
3C35FAEE
3DB4F900
3D9B4311
3DA6C7DB
3D68DE6B
BCC1E47E
BC1E8CAB
BD2B5674
BD3EF60C
3DCB8498
3D03DF79
BDB7D63E
3D91186D
3D5778C2
3D6239CD
3D2747DB
3DACDB76
3CE304CC
3D7A2A36
BD7146D4
3B3B6580
BDAC1FFB
BD017FC1
BC7384AB
3DAC8DFD
BD892984
BD407E3F
3C07AD03
BD85748C
3D224263
3CE531B5
BD9270B7
BD6559E3
BCEC5028
3D9A0D7F
BB5EC5AA
BC9E4CEB
BB0BE589
BAABA452
BD16A5F4
BDAB4918
BC7DACED
3A285DFF
BD77A7FB
BCF25A2D
BD1F768D
3D3C354E
BCB7C19C
BDAEB67B
BD236A94
BBAE953F
BA64A27C
BDB2DD66
BC900218
BDA6E5EC
3DBEFD78
BD122AAE
3D28C3FB
3D0B09A5
3D8AE774
3BEFAF37
3D8349EB
3C9918A7
3D2238AF
3C9C5AB7
3D92A84F
3C6CFC84
3D99464C
3B8B16E7
3D36B925
3CB31FC1
3D9A02D5
BCC7193E
3C60E617
3CE26152
BCE8C133
BC7A484F
BD2181EE
3D8B207F
3C60A114
BCF3240D
BD0FDFE7
3DA6C7C1
BD854B81
3B7BE9FC
BD23241B
BD4EDCC9
3DA3DA02
BDB631E2
3DA74400
BC72B18A
3D9242C7
3D82C473
BD934E9F
3D3404A1
3CB05127
BD6936D9
3DAEDF6F
BD80CDC6
3C221CA1
3D8607FD
BD69CA13
3DC6284A
3DB3DC52
3CDAE262
BB830E50
3D8BD990
BD1EAA87
BDB05D74
BC2E2890
BC7BE60A
3DC0E44D
3DA97E04
3D849614
3B98EA5F
3D3B2A1B
3DF549E7
3C055D6D
3D9956D0
BCD1C63B
3CCA3EAF
3D7CA00D
3D59F84E
BD389AFC
BDACD609
BD4BB922
3CF468C8
BD8A25C3
BD0C1B39
3DD5490B
BD8C1BB1
3D816D32
3DAC43F0
3D9F0EFC
3D8D4762
3DA72542
BD4C0786
3D88471D
3CA9B7B8
BDAC92F9
3D81A756
3DA0DCCA
3D25E2DB
3D894FAB
3D4CA31D
3B1C5502
BD39D515
BD808854
3D92EAC1
3DB8204F
3D92C1DF
BD40B268
BD29EC95
BD9B6A9B
BD29492E
BCEE7ADB
BD1789C3
3CCD9D0D
3D780A03
3D60B8B0
BD8DA566
3D75581C
3BE6D273
BCA145CC
BCD2A3C0
BCAF8922
3C1DC74F
BDC1B292
BDB68BFC
3C17DDC8
3D99456F
BD30F29B
3DAE023F
BC8E4ABD
3D6610AA
BC58BF35
3D879F81
3CF27627
3D94FB1C
BD9DB1B8
BD90B7B8
3CB939A2
3DB06252
BD000024
3DE5317D
3D5A9EB0
3DE58C8A
3D983203
3D9466CC
3D018142
BD8E073F
BDA7F925
3D41834C
BD86C30E
3BFE72A6
3DAE7D24
BD971D19
3D00A038
BDC25D63
3BEDF75C
3D5B4367
BD25E655
BDB97AD0
3C9C8A2B
BD931678
BDA9CD19
BDFF3E83
BD68A07B
BD5F5EBA
3D92E3BC
3D719AFF
BCBDD5EE
3D17B7E3
BB85EC37
3D8D51A1
3C06C12C
BD2993C2
BD61E6C1
3D192F59
3D2DF725
BD215D7B
BC512C23
3D87A90F
3D49BC96
3D841AAC
3CD22313
3CD29591
BD859B52
BD892444
3D4D8988
3D3A7443
BD8390E5
BD95977D
BA7BC17D
BC60EC51
3D97776D
3E0FA1E8
BC9DF2E9
3C26779B
3DA35A02
3D9EDF1A
3C2A5696
3D28AED4
3D67FED4
BD934C76
BD4FD9C8
BD88D07F
3CF854BB
3D2A234F
BC0FE7D7
BC896D15
BC45B321
BD10FAE2
BCA8E419
3D42BA0F
3D889033
BD3D2C2E
3D0A9F58
3D683720
BDA9E3D5
BD7A35AE
3DDD9340
BDBB3063
BBAAD0BA
3C1023D1
3C18BE65
3DE40BF2
3D98DA97
3D405373
3B66D2E8
BCEFCF1E
BDB45AED
BC14C235
BD23B9F6
BC6CDECF
3DB83943
BD658501
3D96102F
3D8E93B5
BD917C16
BD40D2A3
3DA3EAE3
BDCE7F59
BDB25E71
3DA46FBE
BD0DCBA7
3D096690
BDC5A28B
BC343AF7
3D64EBD1
3DF4F1EE
3D1298CE
3E25088F
BCF1A360
3DA234FB
3DC137E7
BD66188F
BD2344AE
3CBC631F
BD0E9629
BD9CD621
3D4635C3
3D746BC0
3D901639
3D7E1721
3D435533
3D19B239
BBF48295
BDC39971
BD653AAE
BD84EDDF
3DA722E4
3CFA0A72
3D951560
3D47583F
3DB88CAF
BD9B3D02
3CC0D6FA
BDB21F41
3D2C70DF
3DB3B9B4
3D3E940C
3CF8676A
BD7016EF
BCA1F2E2
BCCF50AE
BCC7C0C1
BD405FDB
BDCAE67F
3C0E586E
3B491CC3
BC08E6D2
3D55978A
3D2B4307
3D168926
BCB67AED
3D8999CD
3D81CFDD
BDB4BBB3
3CF715A4
3DBA5D47
BD51B3A9
BD275B2A
3DC426E8
3D922BD5
3DBA614D
3DC8C026
BCD4162D
BDA6FE6B
3CE688FC
BD7C087D
BDABE7BE
3D0FDE96
BB9ED134
3D4DC17F
3CFB28AB
BD501FDE
BD3AC7B2
3D020F9E
3DB847CF
BCB86222
3D41E12B
BC034482
3CCDEB0F
BD2B0B6E
BCD7CBA4
BCD3AD16
3B4FCAA9
BCC205BF
3DB1AE91
3D6046BC
3CE1DB4B
BD68CD51
BC9E7F16
3B07BE99
BD0ADBE9
3D187740
3D3BA96D
3DB5CA91
BCAFD34E
3D0B10E7
BD6D5B18
BD7CF236
3CD40B71
BC39D5EE
BD66B3C4
3D9E44C4
BD809E68
BD047878
BDC29A6E
BD5F8600
3CE3FDA0
3D5A42E8
BCF762A2
3D93BD4E
3D902471
BD137CD1
BCD56526
BD69BCF2
3B463C2B
BDD017A0
BC955C3B
3CA104E1
BD50F57D
BCC72C27
3D9605A8
3C60613E
BDB94075
3D721F32
BD2FC64F
BBA37BB1
BD053E9D
BD053A58
3D7D89E4
3DB72B7F
BD2F6507
3C324E65
3D940536
BC239555
BD214BF7
BDA89279
BD8117B3
3C96397A
3D2B55FA
BC81B9CF
BD4BD0EB
3A683C9B
3D5DD479
BDAF35D3
3D89A167
BCD9E456
3D25321F
BC2F4CF7
BCC77CE0
BDA2C7FB
BDA900C7
3DA24572
3D8F9EDF
BD2C3161
3D431981
BC80C3A2
3DA0BFE8
BCA0954A
BBEA1353
3D1DB58B
3CDB342A
BB905ADD
3DB04514
BD86AE9F
3D3EF8C0
3C0E6F1C
3D5F14AA
3D997DBB
BD615DD3
3D2AA57A
3DA9D3DA
3CC27A4C
BD07DD93
3CFAD709
BBB20F8D
3D986C5C
3CF6DA10
3D43834E
BCB29D72
3D45D672
BD656D84
3D3C5188
BBD7A4B7
BD707C56
3D2211BE
3D886FCA
3CBCAFD9
3D58A829
3D8A0D4F
BDB4D46B
3D502AE3
BD3930D1
3D6C2864
3CCCA392
3D0A6D57
3D77A1C9
3D0FDA02
BC25BC89
BBA574E6
3C9B3F58
BD9DEA1D
3CB16493
3D67E9D5
BD3FAEFE
3C5D1F44
BDAAA738
3C73F3F0
3D05E4B2
3D178BF3
BD33DE00
3D9E6AB4
3B94843A
3C5DD076
3C306392
BD030B54
3CF0F39C
BD71718F
BD759B7E
BDAE07ED
3C00D0FF
3D90A257
3D97F981
BD720514
3D1D1715
BCFFDAC9
BD56A641
3CCF212D
BD83C484
3D8BC1D1
BD9B66A6
BD8F1C7C
BDB57CD9
39A55B07
3BA21419
3C800A37
3D84922B
3DB2B32F
BD9560FC
3AB3DF98
BD90A329
3A8340B7
3CB1F4C5
B9B30C1A
BDB8CE0B
3CA59815
3D655BB2
3DA16C30
3D609DB8
3D0E5A9D
3D58B84F
BD03B14F
BD9E3ED2
3D51C6EA
BCF08332
BD324CD3
BDB9B11D
BDAA5C64
3D1438CA
3BE4AAAD
3B581279
3D32A621
BD96C6E5
3DB92A24
3DB199A5
3C8FA73E
BD4B90B1
3D8DDC71
3D3E8120
3D37B31F
BD7EB4CC
BD7B2D51
BDAA4CB0
BDA5B423
3D913410
3BE713B1
3BC86D71
3BC3C767
BD835242
BDA13649
3DA16903
3D871899
BDAAB6F1
BD737CA6
BC82B92B
BDA2C9BE
BDB4BDBC
BD1ADC79
BC9B6615
BD0140BB
3CF179CD
BD8539D5
3B0D99E6
3CD453A1
3DC8FEA3
BD8ACCE2
BCC3FAF7
BCBCF7C8
BD6A7307
BD6A83A5
BC334A62
3DAE2AAF
BB9E93BD
BCD1A898
BB6B5AC4
3D96EB44
BD26ADF1
BD7B190C
BD74B349
BD508C11
BDB6B63C
BD865614
3D7C9F56
3D7A5E3F
BC634BFD
BD0B9FFB
BA6D0A11
BD60E788
3D5C5A3D
BD1CF3AC
BDA808CC
BD29CDCB
BDA883AA
3DA2A799
388A1053
BB90F505
3DA3A814
3CCD678F
BCFEC281
BC5FFCB6
BD227F3D
BD02512C
BCC0F8D2
3D89CDFC
3CD8EC8B
3D87155F
BD486604
BDA8C63F
3D4E112D
BC7CEE09
3D72A048
BDB89C2A
3BBB07A4
BC50E910
BD962243
BCE731C8
B78582C4
BAD8566E
3D7E0EAC
BD817FC1
BD84D928
BB45B967
BD6009E6
BDAD3458
3BD0E623
3C674F89
3D6469AC
3DB3C040
3C949E91
3CDE3957
3DB3E37B
3D984C2A
BDB18828
BAB70C06
3C33137D
3DAEAE8F
3CAB385D
3DB2422A
3D8B02B7
3CE7D770
BC5E36CE
BD97938D
3D98CA4E
3DA93FE6
3D448934
BAA3EF15
BC79C224
3DC4B95F
3D906AE3
3D1DCD32
BC6AA77A
BD40575A
BCAEDB05
BD74A927
BCA930E3
3C07B287
BD685DB7
3D9B772D
BD6CEAEA
BC82E223
3D8046CE
BD876021
BCFA2A73
3D01FEE6
BC9809E8
3D4E1583
BBB32859
3D33B77D
3A84DEF1
BC0F06F3
3CAD3129
BC81C6EF
BC6648D0
3CF76996
3D87F19E
BDE6D0A8
BD03CA11
3DF2538A
BDAF8AD4
3D8242E6
3DB75BE4
3CB289E9
3C2F4075
BD53E5CF
3D057F23
3D8373F9
BCA22AEA
3D535333
3D7948C8
3D814B55
BC626C04
BD8972F5
3CA11A3A
3BDA5877
B9B1DDB1
BD38D142
BD003C21
3D0E6BDF
BD824CAB
3DE62853
3D6174B4
BC637B6F
BD04684D
BD59976C
BD05A542
3D916E04
3C94FB54
3CCBC67A
3CBCAB6A
3CD8B38B
BD9CAAD1
3CC1AA61
BD3A5E4E
BD7CDC72
3D9454CF
BDD49859
BAF13D9B
BD5E8ADA
3CAC7243
BD2CF0A7
3CA4A75D
BD6A7410
3D20FC52
3CC463CB
BD700EE8
3DE6C9B0
BCDE2E58
3CE3CB1A
3DC20C7A
BD4C9E94
3CC8E429
BC93BADD
BD1F2253
3D50D734
3C95DE4D
3CD9C82F
BDB34175
BD5781E0
BC64B7A0
3DB5D4C7
BD38CE08
BD6754C3
BD0FE80E
3BB7F962
3DADF25B
3DB6B840
BAD3DE6A
BD504DFC
3DD159F8
3D94831B
BD5A58E3
3CFDA0FB
3D8D0081
3DAFD1F2
3D507425
BD5638AA
BBF6ED1E
3C81718C
BD20054E
3D461690
BD87BE63
3D2FAAF7
BD3A12DC
3D567984
3DAFAB3D
3CE780B4
BDC42C8B
BD4EECB4
3D600EB5
3D0C52A3
3CA92AFD
BD6B2AFD
3D034499
BD8F4EB2
BD21AAAD
3DD07131
BD2B2D8B
BCA5E903
3D66FBAB
BDAF2021
BCE89696
3DBBCFF2
3B832A3E
3D02BDFA
3D41895F
3D4B4B66
BB5BADCA
3CC416E6
BD1B8A0A
3D0BC70E
BDB1B2CA
BD2FD809
BDBC7345
BD8397F9
3C35B834
3DDD2157
3D2348CE
BCC96F00
BD88ED75
3D2250F7
3D2C4ACE
3D1F73D3
BD0D5486
3C3FBE34
BDE284C0
BD8E88E2
3DC31DE2
BD9D50C2
3DC2E0B4
3DD9BA03
BB71A665
3D841039
3DCC4E66
BDC9CED3
BDAEC563
BD5C5D50
BD2818C5
BD369B9B
BCC992E1
BBF99460
3C800695
3D937B6F
3E1497A2
3D189548
3C8B5B54
3D944D73
3CE851E0
3D1DB971
3DA3E1DC
BC4A8AED
3DA7B443
3D657E16
3C8FDAA0
3DAB4A31
BBC6377D
3D8727B5
BD6F0D79
3CF36AAE
BC19F246
3CC4B963
3DEE0CC5
BD5F7037
BD703C15
3DB4818B
3DC540B5
BDA5F80F
BD5D22DB
3DCFDF20
3D935741
3DEE9E2D
BD2291E1
BD65BF08
3C14DA05
BDA73C06
3D64A063
BD2D5F7B
BD89A842
3CD40630
BD520D23
3D5889C7
3B2B1C58
3DDAFD6A
BDA9744F
3D1975F7
3B5A6ED1
BDA78122
3D2F63D0
BD448C51
3D9815C6
BDB20312
BCA0B555
3DAA194E
BC9C8E25
BDA53BB0
BD0EE836
3DB92BDC
3D4DF47F
3D716359
3DA3F5A5
3D1B9B0B
3DD71614
3D675180
3D27AFBC
3D0DAA09
3D18046C
3DAFB566
BD50C82F
BD2EE8F9
3D9AA810
BD8F9133
3CA841E5
BD608A6F
BCCDB716
3BE5F6FA
3BFDAAB7
BC5B236A
3C6FDF06
3D6ABC54
3D3B082F
3D1EB16A
3D5FFC50
3DA32BB9
BDAA8F09
3DB79AD0
BD947ED7
BDA5BE9C
BC0E325B
BB86FDAC
BD1638D8
3D874081
3CE9FB8F
3CD8FD8D
BC834C46
BD3F1786
BBBEFE71
BC9C6950
3DBC37ED
BDBF31FE
BC8B4B6E
3C140380
BC7CBB65
BBAC1ABF
BC8EA871
3D8E9BE4
BD46A2B7
BD4838CD
3D167696
3D351697
3D25B284
BCC51C0D
3D2FA7DF
3DB2254B
3DC4F282
BD053943
BD8B524D
BC95D996
BCE17E61
3B307979
3D802152
BD4F66DE
BD99971B
BD92DA9A
BDAB74B5
BCAA8DD7
3CE114E0
3D46BA45
3DAB6DCB
BCC49044
3C46EF43
BD0CEED6
BAF62D45
BC163605
3DA4DC83
3C98CA46
3D148A87
3D59CA63
BB4511A0
BD7F2E54
BC2152E6
3D40E7AC
3D49DE77
BD52FC13
3C947A76
BC8287D2
3D3BF5DD
BD99C04C
3DB976B4
BB06DF65
3CE8B90A
3D07CE9B
BCF95C3F
3D9340AD
3DBFA7A7
3D9AE6BB
BD719C90
3C733E4B
3D434A2C
BD49F93A
3D995C56
BD21B98F
BD00CA96
BD22E5B4
BD3031FE
3CFAF7D8
3DC09674
BB307283
BD251A50
3D920798
3D656983
3C7939BA
BC82DB2A
BC205A24
3D327B7B
3D6860DA
BBD0E2E0
BDB65A4A
3CCF167B
3C6EDDEF
3DA3BB4A
BD95B00A
BBB1A707
BD7907B0
BDA86FF9
BDAD74F0
BD0FA893
3D58DB32
BD29D371
BD570265
BCEAC209
BD82A37E
3C3DF976
BDA2B06E
BDA2038F
BDB7CF36
BCC81F69
BD5392C5
3CB86F14
BD3978E2
BB0D7D6F
BD07E6E7
BD992404
3D8B07C5
BD0F1386
BBD319B3
BDAEFC64
3CC5609A
3D86CFB8
3CD7176D
BD673DBC
BC6880D5
3D24C84B
BB2B4F43
3C300AF1
BD931C4C
3D483566
BD4390DC
3C3745DA
BDA33F6D
392AF927
BB9B5D9C
BDB09077
3D3EA3AB
BD76B07C
BDA2BB7A
3D95FC3E
BDBAAF74
BDBD557E
BD09875B
3CE432D5
BCE6C9D8
BD3B1275
3CD389DF
BD2CD051
3DACCF79
BDA5FB5B
BDB552A7
3B427A83
BDADF394
3BEE658C
3B890329
3D5F7700
BD75B8BD
3D1313EA
BD81A9DA
BCD3CFF7
3C5BA580
3BB47690
BDAEAF08
BCA70B52
3DB104E6
BC1C629F
3C928325
BD3AD75D
3D02F4A2
BD4F0E46
3D08C6B4
3CE0B7A7
3CBA58B6
BDA04379
3D8D9675
3C43898B
3D8C7F9E
BDA06B97
BDB75FFF
BD24AB3C
3D592542
3D46502D
3CAD9EE9
3DA7172C
3D3D9018
3D2626D0
BD544A7E
3DB7FA80
BC5DE94A
BD4593F4
BC819F11
BD5A184E
3D9361F7
BC7197C3
BD83FA61
BD1ABE98
BCCD4CC5
BCEAD7E8
BC0EB50C
BDA38703
BD6516BC
3D82BBFF
3D87F284
3D8A1CC6
3D9D8A56
3D372475
BCB1C3DF
BDB6AC9D
BCA92823
3DA29505
BDA295D8
BD8362DA
3BC955D5
3D927A58
3D9F8EBA
BD33D10E
3DB2D005
3DB21EE1
3D860A93
3D83868D
BCB5894A
BD1E4357
BD1B40DC
BD6D4E1D
3C8A97A7
BC84B79A
3C821AE7
3CE1FEEA
BC81A295
3CCBBF9C
3C980E2A
3C850775
BDB2567A
3C0A356A
BD2BC8E4
3D5DF760
3D335AC9
BC96D05C
3DB2CAF8
BD706D6B
BC5ED1FF
BDA5D74D
3DA9FDF4
BDA4C48C
3DB0F0F3
BDB6B939
3D9A9C89
3C595FA9
3C208725
3D0E9799
3D9E23F9
3D07C9CA
BD94B82D
BD57FFD9
3DB021A9
3D8BA6CD
3C4FDF5D
BD46175E
3C91C7FC
BD49FADA
BD78C5D5
3CBE0747
BC09C20F
3B0CE490
BD539846
3D9D43C5
3AA46E32
BD571B9A
BD755604
BD4E35FB
BD061398
BC6D488C
3D0C3AC6
3D986053
BD626BC0
3D58BB76
BD2ADE82
3C92FCCD
BCE97C02
3B3C53C6
3CA1D843
BCA0AB7C
3D8EAB85
3DA7F956
BD61B570
399F4D97
398C8C48
3D185A37
3B77030D
BD57940F
BC3BAC18
3D3908DE
3D9CA081
3CA263E8
BD8EB49B
BD8CE9C4
3DB4FCAA
3D93713F
BD865F0E
3D0938C5
BCED11BE
BD4B4480
BD944A9B
3CEAF404
BCA4405C
B9D35EB9
3D4445D9
BD6C3481
3DA3FC80
BD55AF1F
3D9E6E28
3BF1471D
3D890363
3CF2F469
BD0C608A
BDACED5A
BD1E5772
BD049229
3D19439B
3D9FC0DC
BD266797
BD56D55A
BD7E9C77
3D7DA427
3B781202
BD5AD36F
BD6BF0D1
BCF7A08B
BD7A8531
3BF59723
3CCA7AB9
3BCFB1A2
3D1428DA
BD030316
BD0A2C69
BDAFAD06
BDB04555
BC7C00DA
BCA70E47
3D63E7DA
3DB9F9BF
BD9026BA
3DA876E5
BCFFF464
BD263389
3D02AF36
BD91D0FB
BD41942A
BD1A62AF
BBAFCD36
3CF559A1
3DB93D36
3D8017DE
BD8CAA13
3DAF1F58
BDB933D9
3D8E8263
BDB8B120
BCC4E961
3D605FF5
BD6EC1C0
3C7BB2A0
BD388782
3CE3AEBD
BD315BDB
BDABAB47
BD8D4AAA
BC8616C0
BD1FEECE
BD9259D8
BD382650
3DA048F8
3CFBB3DA
3D6B33B4
3C081B77
BCCB44F2
BCCEED9A
BC93D1FE
3CCCBA9C
BD9A4418
3C82145F
BD180AFA
3D98D32F
BD7628EB
BBBEF1E0
3DC37E27
B9E5338A
3D9B3B2F
BD12FE64
3D9FE8EB
3D37A422
BD73742A
3D98BF5A
3DA7C4E1
3DB3F98D
BBAE3CD3
BD2A14BD
BDAAD3CB
BDA04F1B
3C1CA0A2
3D5FAA62
3D01E13E
BD9A25AA
BC880331
3BC4B361
3D924E20
3DBD2B87
3D8A616E
3B0BFF64
3D1A155A
3C032BBF
BC9633AF
BD12E761
3D84B324
BBE60E9D
BDACDBC2
3D4B884A
3D8C1AFE
3D3F7174
3C2CA010
3D2E7D6B
BB9C69B6
BCFE7B16
3D383EB8
BC9C26FA
3D77FF8B
BCAAD386
3CDDE7BE
BD569BEC
3D640CA7
BD91B8BB
BD1A3943
3BBC70E6
BD187E26
BBBEF1F0
BD1A1B01
BD07FED6
397E7943
3C26E0A0
3D10562A
3CE6B58B
3CE4D1F1
3D2CDB4B
3D44464F
BC51FCF7
BC28B34E
3DC7CBEF
BCD0483F
3DB195A0
BC541FE6
3D974A7C
3CE114A8
3DC22EC3
BDAC25FC
BD137F22
3D1AC9C5
BD9975A4
BD3B5FB4
3C5D4C6D
3B1FC837
BD435FA3
BD497BDF
BD8977ED
3D949952
BC323975
BC6C0BAF
BD18E094
3D45E1CF
3D8A49EF
BD9E3804
BC18DC05
BAA7D72B
3DA6D27A
BD93512F
BC589683
3D1783D7
3DACA0F8
3D20E147
BCD80C89
3D2AEF64
BDB86531
BD3D20FD
BD970988
3C2D47C2
3CE64DF1
3DB47F54
BD0965D9
BD8CC989
3C9CD23D
BCA17C3A
BD844B90
BDAD94EA
3D3B5046
3D8760ED
BDA4BC57
BDA5184D
3DB7F213
3CAF3BC2
3C9C9133
BD7AE4C6
BD8F6C4D
3D02E830
3D5859EA
BDCE3A4D
BBE6D639
3CC314DF
3D98B430
3CD121B1
BD8BE1B2
3DB96390
3D2171CF
3D738F02
BD125142
BD1455FB
3CD37883
3C6DC0B0
3D167910
BDABD837
BCA56F4C
3CA18DFA
BD68A23E
3DA12B7E
3D9B28BC
3D8CB8B8
BD32F3B4
BBBD8C88
3DBCDDED
BCB1D08C
BD8A012C
BCB7E522
BCF2285F
BD8AB233
3D0C9C10
3D586B26
3D80E5F7
BDB55DF1
3CD2BF1D
BD61E217
3D96482B
3D08718A
3C4F0DA4
BD39C6EE
BD969F10
3DBE6B9E
3D747E81
BCDD6532
BD3E5181
BDAB66B1
BD728266
3D82CE73
3BDD6908
BD6C2E72
3D76D0EF
3D23C502
BCF7926F
3D381729
3D60B70E
3DA83838
BD415F3B
3D4DC73D
3D8AEEC2
BC8869D9
3D2289F4
3BCF8370
BD4AD2C5
BDAEDA68
39A43E04
BB1AA149
BDAB9D13
3C479BC9
BDAD9E0D
BDA96832
3D8BB635
BCA88D41
BD933A9B
BDABA2FC
BDAF285C
BCE559B9
3C669EBE
BD0ACE02
BD34AA66
3D246515
3DCE49D4
3D4533E5
3D15DDAF
BD6B7016
3DA62B2C
3DAB15BE
BCBDB1CF
3D719B32
3D284B9B
BD835D8C
B9878AFF
3D014FE2
BD4D96D0
3ADD6BD9
3C29188D
BDA5068A
BD6F9DE4
3C4EA9D9
3CDCC8FE
3DAF6218
3D701F72
3DA2D25E
3DCF9DA5
3D9AFBE3
3D7EC7F8
3D1DE6FA
BD2CA77C
3DD1FC10
BDA6A80D
BD7B8C06
3DB69424
3C5195AF
3D845185
BBA5DE25
3D2600E2
3D7B453E
3D22EBCA
3D64E5CD
3D9FB671
3D8A3F9F
3D9F2A61
BD4E34D6
BD236A40
BDA7925A
3CCB4938
3D108BEF
BD78542D
BD90EDBE
BD016F36
BD40676A
3B3C37F3
BC48E7D3
3D8FC34E
BD1EFB31
3CA416E6
BE18430D
3DDF6D77
BDB4ECEA
3D66A89C
3D4512CF
3D5FA58C
3C97A81F
3C81089F
BD5A9405
B9EA0385
3D2BF4D1
3DB9ED0F
BDA2AAF7
3CAE31F0
BDA6D02C
3CFB2449
3D9EC529
BD728EBD
BD035448
3D877E0C
3DD82C04
3D8271AF
BCAF0413
3B904F3F
BAF7CAFA
BDA5ADEA
3D8DB32E
BC4D620C
BD89275F
3D420B24
BD98B668
BD8F7B20
BDBDA74C
3C5500C9
BDE58DAE
BD543E30
BD066360
3DA07BA6
3BDA6847
3B8CC679
3C5B802B
3D5D0AD1
3D212824
BD69CCBD
3DA7BB5D
3D8FCB55
BC968AE2
BDA14344
3DC8A429
3D843C67
BD5BC01D
BD18591B
3D8C3779
3BD521C1
3D404EF9
BC1E2415
BDF3B702
3CD2FC0B
BC71ED2B
3DC98B54
3C8331B8
BCB89D9E
BD06B4EB
BD00FEE5
BBCB29AE
3D860E95
3AF52629
BDBD1D19
3D9F39F1
BCD07BD3
3C9057D0
3D4B0833
3DB8B801
BD0CD512
BD52540E
3D3E7226
3D8692AA
3CB5D46E
BA4EA5D7
3CFA7408
3DA563D5
3D7235D1
BD400059
3CDC760F
3DE0BCA6
3DA91817
BDBD2EB1
3D01F296
3CB7ED0F
3D61C5F5
3DCDDA8A
3D1F760C
3DD5B089
3CFB6B68
3D305243
3CD29AB2
BD941461
3D1A19D9
BDC4898A
BD00136A
3D5FB256
BD0D52EA
BD796BBD
3C7BE39E
BD458EDD
3D9BA694
BCCA61D1
3D91CB61
BD6D041D
BD9C6ECF
3D86BE94
3DD77F1F
3CDB3BFB
BCDCBED4
3CCC20C2
BD424EC5
3D78977C
BAADBEC5
BD9F36F7
3C79F275
BD9D5BBB
3CAFBA49
BDAE649E
3D00085F
3DAE5E79
BC3D03DA
BD0D5871
3D225CCD
BC93C2CA
BD084A75
3D9EEF1F
3D761A7D
BD265553
BDC9E673
3D733857
BD8B7CF8
BD3B60D3
3DA6B68F
BD6FBB08
BD809C38
3DB613BA
BCF86D88
3D4F112B
BC83A560
3C897DAA
BDC36558
3D8A17E9
BB71EC7C
3BA6C045
3DAD36AD
3D126DB8
BD95130B
BD5E632C
3D8466B4
BD918E10
BD460FD1
BDA61CF6
3D054B4B
3B165CE4
BA958DF7
3DFBEFBF
3BF5DB09
BC840563
BCB0AD16
3791B037
3C83EFEC
3DCB02C2
3DD00C9C
3D7FF023
BCA05362
BD02828A
BD80C7A8
3CD0F1ED
BD636F4B
3CE692D5
3D964120
BDE69382
BDA5AF38
3D20DF07
BDBCA836
3CB6F716
3CE01504
BD19A982
BB986F7C
3C73E097
3C74A139
BD017868
BC2F3B8E
BD5F0FFC
BD9951E6
3C20ABB0
BD8B51CC
BD109494
3D3703A3
3C8EBF87
BDB26555
BDA6398D
BD22BEB5
BD1E269D
3D8E37EC
3B91E65B
BD0F596C
3A00AA5A
3C2ADBAB
BD90197E
3B17A419
BD8B6A97
3DA4F29D
BD797171
3D7CD080
3D726760
BD7B28CD
BD2FC636
BD9DEB1D
3B337BB4
3D81FE20
BD84D352
3CEA7086
3D2CD17A
3D62D5B3
3DAC1630
3CEDE919
3D8FBFE8
3D1C6B2C
3D08713F
BD32A984
3DA744D3
BD8A4D39
3B5454AC
3DA2FBCE
BD8FF4C2
BD87C221
BCF25A35
3D8A5DF0
BD449589
3D1BBEF3
3D90D8B9
3C9EBEE9
BD79126A
BDBF929C
3A7C2D7C
BDA13CBC
BD0D7F7E
BDA4F240
BC4B76ED
3D31618C
BDAFD98C
BD11B10F
BD06DD7C
3DAD7388
BD2F21CA
3C19A917
BD9BDBC1
BDBA084D
BAC45DB0
3D10302C
3C357229
BDB87C50
3A8A6982
BAA8B0E8
BC399786
BDA48C7E
3B736A82
3D250901
BD807964
3D703C8F
398B46EB
BCBF3DB0
3C911BCA
3CEFD815
3C940851
BD5BC3F0
BCFA03CA
387CDF50
3AD7EA53
3CF11001
3C8875E9
BD96CFA4
BC60ADBE
BD082CA1
3D73F4B1
BD9EF2BC
BDA0DCDA
3BB21443
3D8BD50C
3C9E6839
3D9A3AEA
3D82E05A
BD240022
BD84C0C1
BC80A8C0
3D1CB161
3CCC2CE4
3D171855
3D1FE812
BDA9A79C
BD415A21
3DA7707C
BC1EBC73
BDA7F0FA
BD7950EB
3D9F9B6E
BD8BDFD9
3D6485B4
3D78D15B
BDA4BDBA
3D89BA4E
BDAB8BD2
3D1D164B
3D8EBF54
BC67337B
3CB1A0BC
BD552ADE
BD916CDA
3B7E6A04
BDAD536D
BD3C9E5F
BC9F91DB
BD77DC27
3D803050
3DAB3283
3D1AEA9E
BD2CC1FB
3C9F8D88
BDA363C7
BD5362BA
BB4EE55C
BC471EF4
3DCC7DBF
BBAC1ECE
BD842438
BD2B094D
BD6B8566
BC691F7A
3D94AB63
3DC3DEE3
BDA46B46
3CD6E94D
BC3259AC
3D89A4E2
3DC0C7C7
BD449896
3D19D908
BD0013C3
3D81C36F
3D859659
BD1877B6
BC27A71E
3D3DFA41
BD1844E5
3D853564
3DA756C1
BD8FC208
3D78B2BF
396B982F
3CF94081
3CB5943A
BDA05601
BC07D1DB
393AF1C0
3D037C2E
3D1D5561
BCB520DD
BD1A72F0
BCF8B762
BD0A2763
BD5E399B
3D1394BC
BD330F34
BCC1CF14
BD0273A7
BCC05722
BD898EF5
3BE14AC0
BD5BDBFC
BD543A8A
3D890513
3C9FA152
3D1F2FF0
3C9C2622
BDA84824
3D5AD6D5
BD8489EC
3DBCC465
BCC4BCB8
3B34B8FD
BD92F8D4
3B11701A
3D06041E
BD094FE8
BCF052CF
3C2D6035
BCF9F6CA
BC9B4ABB
BD1EFA01
BD4BF270
3B302323
3C1AB577
BCE3F72F
BDA03B22
3D93A567
BD0C9F03
BD915D94
BD97B7CA
3D1FDEB6
BC8F1FD9
3CF48DB1
BDAF0ECC
BC8A3ECF
BD0C3EF0
BDE3BCB3
3C86B548
BCCF0F79
3D98FF69
3B20F897
BC74A624
3DAFEF72
BBD564F1
3D7E40E6
3DB49F14
3D04EE6B
BD07BD0F
3DA34082
3DA2E8EF
BC0AA63A
3DD68BD0
3D6C0DBC
3CAA3293
3D6E9D3F
BBD685A8
BC9F6E8A
3DAE4804
BCB3FB8C
BD331378
3D8A18B4
3D95C674
3CC601AC
3CC6CF72
3D0E2667
3D16CDC1
3D0F4573
3C670812
3DBE87EE
3D875F27
3DB7C47C
3D2655F3
BCF74A09
BBF6A4B0
3D31CE27
3993CEBC
BBABB7CC
3DC03A11
3D117478
BDC60C24
BD96E88C
3C231814
3CB8DF43
BD16493C
BD936D7E
3D834C01
3DD62801
BB979EB8
3DA94109
3CD4AC14
BD43566E
BA8E8B05
BD42A6DE
BDA78D7D
BDDF3CE5
BD9827C1
BD2B9D40
BC36A1A9
3DA21347
3C824C3C
BD76F54E
BD909291
BD43996F
3DA600D0
BD2ED9F6
3DE539F2
BDBC97A4
BC7A4D97
3C9119EC
3D1A1CB5
BCB57C9F
BD1418B0
3CEE8015
3D9C150D
3D1082E9
3DA04133
BC7B5377
BB626AA1
3DCA12D3
BC91A5C4
3C629CA0
3DAD5399
BD60F5E3
3C8B05B2
3D484593
BD4C8CE4
3DA434A5
3D04AD77
BD8B4877
BD5DEC60
3BB96BB5
BDA484DB
3CD926F7
BBAAEE42
3CFD694A
3CF7A6CE
BD04BCDB
3CBE6FA4
BCD77FD1
BCDE18B9
3D05F742
BDB9BBE1
BDC87B7B
3DB389F3
BC27A4EB
BDA9DABE
3D827395
BD87C810
BDA3C17D
3DD5D080
3CF3F38C
3D1C26BD
3D5977F3
3C2E35DC
3C7DDC4F
3CA5B993
3CE433A9
3D01BE3F
3DC4D684
3C31611F
3CD511F1
3D293CAB
BD0E62D4
BC0481DE
3D09AADB
BD902D60
3DB552CC
3D420D32
BD538111
3DBEA944
BCD68680
BDA5F952
BD9A6715
3C16BEE8
BD8F22A1
BD94AABB
BCEA0960
3D05E890
BD0E8474
BD09A759
BD753EDD
3BCB1F1F
3BFAE3F1
3CE66A45
BCDB4357
3CCE15BC
3D8F0CBE
BDB30656
3CA11E8A
BB738AB2
BC8E4C43
BCFD9562
3BADC148
3D8FEA4D
3DB0A0DB
BBAF3852
3C9E132E
BCA8AA89
3D36A880
3B062CF0
BCA18B33
3D03E2C1
BC5D35AF
3D0EE7BC
BD1D34E3
3D66904E
BD03990D
BD7D9DE5
BBBCBD28
BC9FAF8C
BD44FECB
3D9BC261
BD83CBE4
BD578124
BC959B07
3C8842D2
3C838251
3C05110A
BCD7078F
3C10BF7A
3DB95E96
BD4A4914
3D2A630A
BD5F40EC
3DBED13C
BB43659C
BD7222A8
BCFF8B37
3DA38801
3CCD52FC
BCB56D12
3DA7A2E2
3D37FC57
BD775EB3
3DB85B17
BD6EDBD4
3C16C34F
3D9C2F35
3D0B9FB8
3D5F3E8D
BBDA56B2
3D931232
3CA06578
BC308C1A
BC73CCEE
3D0017FD
BD38E2BA
BD4B6268
BD665565
BCE3FAB3
3C361336
BA676B13
BD430947
BD829ED2
BD5ACA1B
BD5A1AF7
3D5ED2C4
BD652192
3998DAFC
BD23C3B2
BD461900
BCABF4FA
3DBC74E3
BDA0E692
3C03B8A6
BD75666D
BD826881
BD6258BE
BDACD9F2
3D32CD5D
BDA14B0C
3D29ACF3
BD71791E
BD8466DE
BC1A920A
BC9BEEFE
3D51ABD0
3AAAC1D2
3D559E0D
BD49AC49
3DAC26CD
3C492B5D
BC526DB6
3C72BE41
3D66B2D9
3D857F48
BDB2FB18
3D0FC64D
BD00561C
3C0D42C5
3D7BDADF
3D9AA7D4
BCE6F09E
3DA94DAA
3D01FF26
BD1A9045
3D0C24A8
BD186FD1
BC4853A0
BD5C8FC4
3B95A10B
3D45F6BE
3D2A85BA
BDA63D8F
3D310EBC
BC86E027
3D58D3E6
3C981E55
BD86F334
3D8F77D5
BD109B7F
BD174DA6
BD962159
BDA87B21
BD331834
3D86A175
BC47B7E5
BD888316
BB1C7C51
BD949614
3D687DFC
BB611CB3
3D7D0A17
BDAB9C22
BD6D3E1B
3CD9670F
BC960AC0
3C1962E7
BD441E0A
3BEF0A80
BC2D4E6A
BD80191A
BDA4DA22
3D972EC1
BD6F9EDF
3D2547F4
BDB250F0
3DA1EA1B
BD2285F7
3CA5FA2F
3CB6270F
3DB97F33
3DB6557A
BCDCAD6E
3D465BE5
BD4D487E
3D136C96
3CBDA746
3DAEEC0D
BAC2F8E4
3CD58BAF
3D1FE2D4
3D882889
BAF998BF
BD9B4FCC
BCABC22F
BCCFAB10
3DA4847A
BD6DC35C
BDA15E6F
BD9A1954
BD0681EE
BD8E9A6B
3C0DA97B
3D9867C3
3D24033B
BCE8A690
BCB639FE
3DB0D43A
3C6D58C0
3D5298F6
BD31F19C
3D9E0A89
BD86F0AF
3C933021
3B941E59
3D88C49A
BD99CD05
3C7FB285
BD926025
BDA4A67F
3D8904E5
BD6ACB9F
3D280776
BD7B0156
3D243ABD
BD8844F9
3B149AC6
3C217D4B
BCE38903
3D4EE0E4
3DA997BE
3D35A25A
3C03EE8F
BCD3815E
BD92CA6F
BD20A221
3D241967
3D8E5873
BCEB5EB2
3CF4EB76
3B3FA1A5
BD9C3374
3CD5EE95
BDB7D753
BD09A405
BD679E14
BBDB056A
3B974890
3C7A2026
3D6325E4
3C5CF7FD
3D80F2CF
3C859499
BC9B29FC
BD0636C9
BD20FD89
3DB73B75
BCB5E607
3D55346E
BD333DD9
3C860CFD
BD20B091
3D495EB9
BDB5AF07
3DA2074F
BD891CA4
3D435D59
BD346E17
BDAD7BDE
3B0253C8
3CE47EEE
BCF33E36
BC750826
BD67A782
3D0A476E
3B7B2A33
3D09636A
BD611C28
BD66DAAF
3D5CA634
BD2B5385
BC33063C
BD902636
3C9C2371
3DB03C9A
BD9554DA
BDB796CD
BD8DC266
3B07FE7D
3C675973
3D85B2AC
BD181EDC
3D94DD59
3D8364C2
BD318640
3AE78D58
3D7437EF
3DA7CAF3
3D0B35C2
3CB8E3B8
BD9F8B1E
BD7F831F
3D578ACD
3D1EDE32
3C82A5EC
3D22A252
BD9446EF
BD82F28C
BCB8AE7B
BD2F9F2F
BC117B11
BD17A3F1
BD1B43CC
BD22C80E
BDABA73B
BD11BBB7
3D9FB9F6
BDB7CB95
BD258277
3DA4ACF6
3C98AA39
BD42C1B3
3D07EF4C
BDA149FD
3C1C0CE7
3D12699A
3D97DB3C
3DB4A19E
BD15DA15
3CF21745
3D78D9E0
3CAC45A0
BD88F30C
BDA266AE
3CEE6D91
3D6D6412
BC83D77B
BD9BCEB4
3D586899
3B44C411
3D2BBE28
BCB1CF05
3DA60B38
3C38982B
BD018B6B
BDA4353B
BD001836
BCEFEE1B
BD1AA41D
BD77FB9B
BDB66FCD
BDA15D51
BD937061
BD9CB629
3C7C6D29
3D584626
3BFDB227
BD9CED76
BCAC5D13
BDB3898D
3D599417
3CEB61CC
BD08CA58
BD8DF0A0
3D96B032
BDA9E512
BD28FB65
3C8E89E3
3D730C8B
BC17EC1B
BD801BC1
BDAAE9C3
3D9DDFF2
3DBA156A
BD4A929D
3D8D02DA
BD4B4137
3B3D1930
3DA87EBE
3B07683C
BD0AFEDD
3DABA298
BDBDEE26
BD8715AC
BD8DE6DF
3D4A7BF3
3D418687
BC3A032F
3D89D925
3C5017FB
BCDA3779
BD512DEF
BD86396D
BD85FD4D
BD94EBE0
3D36903C
3CD0F3B0
BD0071C4
BB867F27
BD950FBB
BD2046D0
3C8989A1
BCEBE6D7
BDAC12F7
BCF35EB6
3BFD6058
3DA53E07
3CD2395D
3C6EEA0E
BD675793
BC6132C8
3CB1F0D4
BC852AFF
3C95CA3A
BD0BAAA7
3D97CB3B
3B82730A
BDA2C753
3C39BE63
3C2DD050
BCB0E665
BC245C9B
3BD0F78E
BD21078F
BC60FF98
3C303C8E
3D6557E2
3CEDAC9E
BD44C3EC
38F82040
3D410A80
3A93A660
BC4483DA
BDB0036E
3D2D4970
BD82CD17
BCF4AC84
3D42C854
BBE4A5AE
3D70FCC2
3DA6958B
3D599802
BDC6A52A
BD178959
BCC6011A
BDBBB844
3D5B60EB
3D7754A5
BD85E1E1
3D978702
3D89F9C3
BBE2AA85
3D08F457
BD4EF3B6
BCAC2A5F
3D1D2845
3DB90667
3D83D6FE
3CC74DA9
BD2FAC8E
3DAC0E5C
3CEE22D6
BD979C02
3C9B0FF5
3D4F73C9
BD918741
BCD71F18
3D465B96
3D64AA94
3CEE1625
3DAC9B51
3D3CCB0D
BD3ABD24
3D58D3A0
3D26122A
3D53BA2A
3D556676
BCA394C2
3C66785F
BDA189E4
3C754C8E
3CE38B71
3D1CFB75
BD32FA3B
BC227485
3C65C4D3
BD3E8CC0
BC2B0AA0
BD474C8A
BB881ADD
3D8F8019
BDBBBC78
3A502181
BDBC13CD
3D632CCB
BDBD524E
BC4954FD
BBC4AF47
BD3754C8
3D859E1B
3AF87847
BD58B67D
3DBD7A30
BDC837E4
BD5FB368
3CBB3F97
392FA4AD
3D9D0C2A
BD48EB70
3C9299B9
BD90A42C
3D1CB7A8
3DA6AF30
BCEEDFC2
3D4996A4
3D0A8F3B
BC55AC62
BC35AFD0
3CC43C90
BBF25FA2
3D0AA80E
3D58FBBC
BD462BBB
3C909DE8
3D7E7767
3D9BD743
3D113A5A
BA88F4B2
BC128C88
3D9292B1
3D86D112
BDCF382C
3D18D6ED
BA059D86
3C893358
3D88F66A
3D8B7657
3CE2C0B4
3D82031D
BCA7242B
BD9A8479
BC37E795
BD05B2F9
3BF2D3B9
3C87A611
BCDB919B
BBFCA4BA
BDAF455A
3DAAC9DD
3DC6F2E1
BB0F0F5D
3DADA344
3D82C6E9
39FDCCED
3DA4AA38
3CA223B6
3C66E398
BC090326
3B142360
3C2F484D
BDE108B2
BDBD3E4E
BB76454A
BD836BD5
3DBF627C
3DBBA2CE
BD5BBE25
BBCC0316
3DC52C33
BC845CD9
BD291289
3DB81E65
3C325EAF
BCD7AA5B
3DB01E0E
BC928D46
BDB9CAEA
BDA17611
3DA5A12B
BD727F5F
BDA45438
3D5142BD
BD45BFA1
BD49A9C9
3D8DDDF6
BD3CB5EE
3D93E4B7
BD1B0B6E
3C8AFFF2
3DC25D71
3DA160C7
3D266EB5
3D8DE7C8
BC9553ED
3D56B75C
3DAB63F2
3D83BD38
3D13CD5F
3D633134
BCDDDB2C
BAA8A5D2
BD66B609
3D2AA660
3D6E8F1C
3D78B293
BD1A85E5
BD17DA54
3BBF7B12
BD834C06
BD9F1901
BC23B5C2
BD9DECA9
3CB3644E
3D430BF6
BCC03B8C
BD630BE0
BCB89A9E
3DC3C044
3DA78717
3D306579
BD5F76B3
3D0AB6D6
3A35819D
3DD5C54E
3D9695C3
3D48FBA9
BB0429F7
BD23212D
BB80C44B
3D31CA24
3DBA5465
B8B6EFF8
3D67DED7
BDAC5000
3D2F91F9
BD4F34ED
BDB5C799
3D4AB1E3
3DC71676
3C2F23C4
BD932A91
BD38CAC5
BCC900E5
BD66B8D5
BD2F3E74
3DB7A80C
BD67C105
3D3C7BE9
3DC09396
BD64352C
3D7C498F
BDB6AB0D
BBD6CDBE
3DA123EC
3D5345B6
BD810A8B
3D6F58ED
BC8E3CB6
3CD55077
3D650E71
BD1A5A32
BD8FEC24
BD852757
BD8462EF
BD5A206D
BBEB385E
BD8FA93C
BCFF963A
BD67A406
BD0E8290
3D1CB333
3CBE29B8
3DA3E23A
3D02CF96
3D4B9A76
BD78F823
3D755C60
BDA6B682
BBE2D013
BD597979
BC9FA4E6
3B5AB887
BC035785
BC489CA4
3CE25344
3CE6D1EC
3CCF07E6
3D748D96
BCDF0076
BD0B429A
3C98AE6E
3D6A942A
3D835960
BBFC5445
BDA53E9C
3D0D84AB
3B6A3F59
3DA81464
3D56E0F3
3D3B8218
BDB7914F
3D93ED6E
3B73B3B2
3C1F012D
3D8605E5
BDB42F58
3D8B6814
BD95F59A
BC237BC8
BDA03D33
BDA635C5
BC354E0B
3D1BC609
3C08EDD7
3DADA869
BCA00522
BD5C8392
3CC3007D
3D4B7896
3CB143CF
BD1269C7
3BD4CCD7
3DB9FA2C
3D05B39B
3D0446F2
BBAE70BC
BD4ACEB2
BD0E5EA8
BC4592CC
3D823AB4
3C5C3571
BDAE77AF
BBF32FF0
BCCFB98F
3D66F8E2
3C57D88B
3D16E961
3D81B332
BDC150AE
BCE52E26
BD2D476D
3D99D5C3
BC09EAD8
3D7E71CC
BD98B214
BDA49655
BDAD2926
3D0F739E
BD94F91B
BD8A8362
3D53021B
3B023FCD
BC7DC8C3
3DC69BF9
BD71185B
3D4B3CE7
BD32918C
BD2118E2
3D527991
BD602A48
BC8902F3
3D85C2BC
BD14D5DB
BDDDB157
3D026740
3CE0EC5E
BC513E3A
BD5744E5
BC5CCC73
BD04902F
BD1FCCC6
BC592C9A
3D80DEEC
3C595699
BDC90DF6
3CA9FC04
BD9B03B0
3C13F97E
3C3D52DD
3C02F7D1
3D3FB154
BB85D8CE
3D59EB9C
3CA84DB5
3D6EBBD0
BDED8B0C
3D252015
BD92FDF5
3C8AA185
3D563F04
BD6E8EB1
3D4E193F
3D331F40
BC3DA68B
BBCB8D73
3CCAAB05
3D0D9250
3D6B6635
3CBA860E
3D20F5C0
BDB24653
3DB67489
3DC97E09
BDA55DAA
BD43579C
BDA24A9E
BD7F7EA3
3D79A52F
BD83C786
BC6C59BE
BDE061D1
3D96FDF7
3D8A8456
3A862605
3CA5643D
BB4CB821
BDC4C3B3
3CE7563B
BD149231
3D3349C7
BD54A6E0
BDA48A81
3D64B32B
BC9B2C53
BAD604AF
3DB3D1FE
3AFAC044
3D9B168F
3D3CBC02
BD755B72
3D6275BB
BB954D7E
3D6C29C7
BC902BB5
3DB8AFD3
3C8DA637
3C575265
3C43464B
BCE81FE0
BD697CF3
3D9C4753
3D03AA7C
BC144314
3C20FC1B
BDA8A4B4
BD515D35
BDA055BF
3D33A6C7
BCB544AE
BD9C60F9
BD2990AD
BD2C8DB3
BD1C25D7
3D3F2C3F
BDA436B7
3DA9A4FD
BD376359
BCB5B3DE
3D911BBF
BD732CBD
3D4952BA
BD81130F
BCF61944
BCE1F74D
3D2769A0
BCC03388
3CB20116
BD142BE8
BCDF4952
3D029FEF
3D85A213
BDB1FFC8
3D6FD1E7
3CF9385A
BD9353B2
BD495FD6
3B8934F1
3D6F4993
BCC3C2C4
BD9EF0F0
BD9C7C72
3D912833
BC239BEC
3DB0D0CC
3DB1F6E4
BD303B41
3D555FD3
BD10AAD0
BD87807C
3DDC350E
BD1C7603
BBAB0824
3DD49402
3D092DE1
3D9F72A6
3DF125B8
3D2AD583
BCDE64BB
BDC169CF
3D4DAF54
BD27C08B
3D819324
B9F6794A
BBE05DA0
3D0D51C8
3DFB0634
BD717687
3D12B111
BC8AC172
BD440F5B
BD0E6DB1
BCC984BF
3D46CB28
BD1D6A3E
BD2950DC
BC706DE9
BD06D817
BD9965E3
3D9032EF
BD8E54F4
BC2F7366
BD52C44D
BC23C043
3DC82C6C
BD80E39D
3D70CD38
3DB89221
3CF79BBC
3D8FAE42
3D9F41CD
3DC6008B
BD0C480E
BCF5B7A4
3D89BEAF
BC9B29B3
BD4F32DF
3DB55549
BD8DB974
BDCB09C2
BCA3AB71
BD0EBF36
3D83DAC4
BD408C40
3D055A29
BBA6BD0D
BC4A2900
BD87FB59
3DAD26AA
BD7E8736
3D875027
BD33AE31
3C08B1A0
BD5760C4
BD6B1D6E
3D6864ED
3BAE7A22
B9248514
BC1F5E4D
BDA79F09
3D9C4E48
BCB8AB10
3D22EFA4
3BE9877F
3D9D3644
BCC1EBE6
BD8E74C0
3D3D8D9C
BC296434
BC91EC44
BD367579
3CF00A4F
BAFEB238
BC2D6913
3D1E738D
BDBC2616
3D3786DE
3D8B7AA3
BD96DA62
BD6CB8E3
BC3953E6
BD839E7F
BC7571EB
BCD8B2D3
3D846F83
BD988C1E
3D5AA392
BD9FAB9B
3C7E7FCB
BD37A7E3
3D572679
3DC98379
3C791232
3D634AA6
BC04429D
BD43562A
BDB9C5FF
BC75F0C0
3CF8AB50
BC32DA43
BD834C65
BD6719A1
3D8DD471
BDB04C32
BD731377
3D925ECB
BD130F02
BDB388D6
3D113D25
3DA59ACE
3D830C9F
3CAB4839
3D11C4D4
BCF7D2B5
3D862CD4
3DD90515
3DA12B31
BDD701DB
BDC18636
3CFEA4D1
3DD35F3C
3D5AFB6C
BD996EF9
BD6DA3FD
3DB56288
BD3065E8
3E3395C4
BDB2C6A1
3DBE8083
3DC4A2CE
3DD5E4FF
3D5EED1E
3DA7CE89
BCD15DE1
BD05409C
3CEE302D
BDA56786
3D89BB59
3D8B7507
3BA87CAD
3CE64F19
3CBB76B0
3D47AAD4
BD86CA2F
3D2D98E9
3DACD280
3CD01DEA
BDA13BD0
3DB94225
BD4A5E0C
3D532609
3DCC10F0
BD387E76
3C1309DF
BCA63F80
BD1DA9FB
BD1F5886
BD249E2D
3D7CA736
3AADE9D3
BAC44B90
3D2B08EA
3CACF7CF
BC4E6621
BC550BAA
BDA72402
3D354A1C
BC811013
3DA36177
3D0AEDB9
3BE2842F
BDA3316F
BD078ECA
BDA244BB
BD955652
3D726885
3D8387BB
3ACB2C59
3D066B70
BD961F18
3CEB6A2C
BD489BEB
3D2F2349
3B743D29
3DEED3AF
3DB4D728
3D4A8E49
3C38B589
BCCBF64C
3D70FF17
3DA34F2D
BC3DA1DB
3C179EAA
BC15A995
BD97BF53
3D823496
3C69E5B4
3D6CDECD
BD8D2AD2
BDABDE67
BD2A031E
3D00B847
3D7AD987
BD87655F
BBEB660A
BD1680FA
BD15FE75
BC41B257
3D54D24F
BD8F6915
BD7AEBBD
BD41B1E0
BDB517EF
3CB04EE7
3D58D765
3D76E5D1
3C86B09B
BD7909ED
3CA21C57
BBB78959
3D8C0CFB
3D575A45
3D8211A6
3D0AC311
3C439B4F
3D573D7B
BBA07CA3
BC19FF4E
BDBE6F47
BCD3370D
3D863C57
3C143660
BC6EC0AC
BD9D4AB9
BD0375E6
BD0B2F3D
3CA14EF1
3CF45F25
BDAF3ACB
3DA2969E
3B303E4D
BD980BFE
3D32C65B
3CF93208
3D280027
BD15C9B6
3C564DCD
3D9064C5
3D162E02
BDB55528
3C2595D3
3D971FAF
3D3406AB
3D12CB29
BC84207E
BC7E1D59
BD04AE5C
BD5B6DB6
BD81114D
BB3A2043
BD3E5577
3D14B4AB
3CD23F73
3CF75C5C
BD2C1257
BC8DB5F4
3BF4B8EE
3CF9F0F9
3AE7EFCE
3D3A8914
3D8C992E
BD2D6C1C
BD7D18D5
3D2B7AEE
BD1C6B98
3D01FFDC
BD2D3B66
BD1AC2F7
BD418F34
3D31CDF7
BDA8C884
3DB2AB7F
BD6398CD
BD4EB0C2
3DA651A0
BB75CE5C
BBE30241
BD21F69A
BCA24F2C
BD5E3942
BD7387B6
BC7833F2
BD972A3B
3C41E0DA
3B06D6B1
3D22FBFF
BD73C9ED
3CC2D1C4
3D2C9E7F
BCF83354
BC5C5B61
BD900472
BD4448F6
BD95BEFC
3D83E323
BDB8B215
3DAA743C
3D846096
3D16F844
BBB26349
3D20A73D
BAD14D15
BD2E9C53
3D87F160
BD67E3FA
3D775BA0
3DA58EBE
3B0553C9
BC458CCA
BD79955D
3DA8C4D9
BD8C2E9F
BCB3AF48
BD1C7808
3C69A43B
BDA4019B
BDB22757
BD6CFAAA
3D174CEE
BD09385C
BD0EA6D5
3CBDE68B
3D80C0DC
3D83F11A
BCFCE9F0
BD5F6B1A
3DCEA307
3D3CB765
3D1159C3
BDA14300
BCE53043
3D15D591
BC0FC998
BD5A2038
BD7E0388
3D11CF89
3DA1F06F
3D813C04
3B54A89B
3DBDFB38
3C7D7CF2
BD55D8FD
BDAE06F5
BC8570EC
BD8D29F0
BDB4EF93
BD7EFCF9
BD7D2A15
3C9A7C1B
3A2E1D5F
3CC19697
BD07145E
BD11463A
3CE5DFA2
BDB03262
3D0E6975
3D07E45C
BD0CC805
3D2BCC4C
3C55B23C
BDC6AD92
BDAF5972
3DA9B1A2
3CF3DCE6
3CAA5F79
BC921A09
BD5E8C72
3D3B278E
BDC8C100
3D83DBC4
BD59A83C
3D1FE0A7
3BAA72BC
3CE920F9
BDAA6688
3DB0B599
3D3490B4
3C6A7C52
3C91E081
BDA92187
BD965B50
3DA24C3C
BD29F5F8
BC04823E
BD414545
BD609108
3CCF4421
3DA5F175
3D9DC590
3D8B5B39
3D934ADF
3D74CAE2
BCCEDE5B
BD073571
3C23C414
BD0605AD
3DA85028
3BE720F2
BC0A8DFD
3C789885
BD793CBE
3D969602
3CC10DB7
3D838DA1
3D7188CC
3D0D508A
3D098898
3D9D98B6
BD75153C
BCAE8C86
3A0136C0
3D89E8AF
BD948564
BD7E66A5
BD6D3C5D
BD3D5EC3
3D90BF78
3CC86089
3D643728
BDAC24F7
BC3A0C0A
3D8C7D41
BCD16A01
3C2F5648
39063BCD
BC93348E
3CF97A1E
3D6F62C9
BCF81864
BD6703AC
BD026FAC
3D3A7F1D
BDAD3FD9
BDADDD3F
BD4AB109
3D948F8C
3D1C6FDD
BDC59740
BD673BFB
BD8F0486
BD5FB57B
BD889FC2
BD283C02
3D61C9B5
3D64F3E2
BD804609
3D06F564
3D5782BA
3D8FEF18
3CFBB8BA
3D73DEE7
3CA9FD61
3DE8E2AF
3D8DFF32
BDB9912C
BDC94F5C
BCED5523
BA18DE14
3CCD4F41
3D9CA15A
3D63C449
BD7C1936
BD4BEBB2
BD9C7271
3DD702F2
3D13BB53
BC794F2A
3DB0529F
BDADBF43
3D365320
3DB9D610
BD7D65DF
3D09B6EF
BD82392E
3D12112C
BCDF7397
3D399295
BC82A825
3D709D56
3DB8E385
3DB6ABFB
BC73CE74
3CE37719
BD3C86A5
BD71D6BF
3D733361
3C8D8C42
BD5788DA
BACDFD58
BD9D14D9
3D0ED9C5
BD5FA954
BD68B085
BD44AFFC
3D5EDAA0
BD505015
3C04270F
BD3AF84F
BC8698EC
BDBB2785
BBEC960A
3C846585
BDA77B23
BD60409B
BD77D7B6
BBB47845
BB0A573B
3B241152
3D786C5B
BDBAE224
3D4F7B8D
BCF6F02A
3DE9ED49
3C8AE8A7
3DAA27E3
3DD2E3C7
3C3AB124
3A3A6BC9
3D860185
BD834381
BD938FE3
3DAF30F2
BBEC8A29
BCDE5EEC
BD77BDCE
3CAD6849
3D803317
3D6B60EF
3D9CE3A4
3C85E4F7
39DB7D63
3DB5069D
3DCAD134
3DA8E2E1
BD0B81A9
3D12E889
3B91B982
BB572496
3DC8CE40
BD2A8B98
3D513812
3BCA3E1F
3D6236E4
BD22A76E
BD8BC3AC
3D849021
3D8BD47A
BBF7122A
3D29CC66
3D8B10F8
BDBF4801
BD8530E5
3D942AE0
3D5DBBAB
BBF8A8C0
BDD0EFDE
BD9626DC
BD85E87D
BD66E70B
3D7416C5
BC51CDE3
BD22FDBF
3D0D2A56
BBEBEC9B
3DAB125A
BDA4C791
3D821D93
BD99A793
3CD7A986
BC4BDB00
BD83841B
3DE51BD9
3D21B1F0
BDB1697B
BDC08540
3CDE2CF6
3D61540E
BC8E845A
BC14E640
3DB7927B
BD9A2794
3DC787A1
BD9B6EC4
3D95EFE7
3CB31884
BD7A4B8F
3D8C0CB3
BC303C4C
3DD2C441
BDCBC7E6
3CC2BFC7
BD774310
3D0B1257
BCA2DA22
3D1B360B
3B89EF9D
BD9F4C90
3CA1AAFB
BC26F97E
BD71A0B4
BDB8628B
BD9F29B4
3D6DCDD2
3D96C206
3DAD3709
3DCE5BCE
3DD5D024
BD0045DF
3D0C60DE
3CB78B56
BCB5AF99
3D1DE4BC
3DB96D2D
BD8735D0
3D18FE2F
3C01C5BE
3C944856
BD8F1111
3DADE06F
BD5B7A0C
BDB2BC16
3D798F08
3D6D12C7
3D60B802
3D1B835E
3D4541F7
BCBA5B57
3C3EAEFE
3D8B55D3
BD50410C
BDA3C39C
3D381B52
3DA23F36
3D8895EC
BD4744EF
BDCFD22E
3D6A8AE5
3D336B35
BDA4CF04
3C11F845
BD747EB0
3D9E7D53
BD5544EC
3DB530D3
3D27DFF0
3D6ADC1E
BD7A22EE
3CEFDDF7
3DBD0689
3D241ED8
BD8B707E
BC00EF14
BD3777D7
BDB07CAD
BD184508
3CE33467
BCF29269
3C9C9D56
3D6A7FAC
3D39AE64
3BFF0E13
BD0E4797
BDB44066
3D02663A
BCD6F9A4
BC0A5C01
BD85E0C8
BCA6B677
3D935282
BB9F9C2B
3D1387D7
BC5FD3A9
BC8A6273
3DBB3098
BD6C340C
3D03E586
3D964EBF
3D8F8321
3DC1D0EC
BD9430BC
BCB513E6
3C6DDDA0
3D60A805
3CB62D1E
3D9AC926
B8F50D1C
3D78DCC4
3CF6F85D
BCC5B866
BD9BDBB1
BC32742F
3D478CCA
BD99F5F2
BC72102A
BD0822D6
BD5A4258
3D02F906
3D40D1DB
3CD47E8E
BDB19CE2
BD587842
BD88E50A
BD3288D3
BC954974
3C2F1037
BDB135C5
3B2C186F
3CAABB31
3D16113B
3DB4C1C6
BC40D9EB
3DA27157
BD759E52
BD0CA5FF
B897C2C1
3D61372B
BD7837D6
3D72DFB0
3D81F452
3B0B7671
3DB90225
3CF2EDF0
3D9334B1
BCC23D4E
3CEDEDCF
3DB21BE5
3DB4372A
3C6CDA4E
3D8AFF57
BCEECAF0
3CF5B660
BD864D10
3DBA7F50
BD3894DB
3D38E361
BD83A28C
BC84CACD
BDA658FF
BD8C46D4
3DD03F64
3D8AB0CB
3D0C3DE6
B9E48822
BC00C622
BD476452
BC6536AB
3DA57461
3A088371
BD84B135
BDA0F6CA
3C196EF5
BD64A6F2
BC54E7F8
3D80F314
3D4F5AD1
BC932D9E
BD5A1D9E
BC8493C6
BCD02A49
3D918DCD
BD44509B
BC294B77
3D1CA972
3D9414F5
3C3E03DB
BC94B621
BD42D0CF
BD1D9DA5
3CA06E57
3DB30513
BDA3A68F
3C0AABA2
BCDF7631
BD4B8A10
BD119771
3DBD7D78
3D47C568
BDB4CF21
3DA179A0
3D87F5B7
BD9277B1
3D92C06C
3DBE1E0C
BDCC6BB7
BCA08178
3DAACFCE
3BE5D298
BDB3E29A
BD1E8BED
3D70A12C
BC88DA80
3C324005
3C03A4ED
3DA774C6
3CFB5CAE
BC83EFF6
BD0EF2F5
BD912004
3D7F6D3A
BBCC7BD2
BD800003
BD377491
BB3EC196
3DB4EE78
3D2E6E3A
3D859133
3DF608B8
BCEA2DCC
3C967897
BD4CBB22
BD719D08
3D800525
3D00097C
BC955ACE
BDCB518A
BD0A2CA8
3DE814FD
BDBFE0C5
3C0BE395
3C848311
3D85A7E8
3DAC2330
3D51B154
3B7FF225
BB54D191
BC9CC53A
BC9285B1
BB172043
3D0B77C8
BDA1A941
BD8C66CB
BD5EAA4A
3DC09ED6
3DADB791
3D56CE90
BC79BA6C
BE0D0EC5
3D24F3D7
BDC2CB95
BD109FBB
3DA903CC
3C8A6428
3D2BFEF8
3D834A1A
BCBEDEC2
BD087F01
BB38B1B6
3CA5AA4D
3D819C2D
3C2817A4
BCBD66DE
BCAE8E74
BD62DED8
3D2EEA03
BDBB6457
3CA53527
3D8DD7E9
3C333225
BCC31BCE
3D70A90D
BD5259ED
BD9A9DDB
3D7B7E0C
BB3B7FA7
3DDE8C34
3D3496A4
3C0BC9DB
BCF0492E
BD9AACD6
BD7D1983
BD9CB390
3BB0626B
BD993919
BD0D4D88
BD89364A
3D1CA83B
3C6B62CF
BD7DBB3D
BD6474A5
3D9B0DA8
3DAC4DEC
3CE053E5
3DA8F44C
BD05186C
BD48714C
3D9BD0AA
BC77AD78
3D955C72
3D50148A
3B7A887F
3D204179
3DD6C790
BDE1AA62
3D2034BE
3CEA9B11
BDE36F19
3D73DA57
3CA3A91A
BC9B5968
BC96CDFC
BD86BCA8
BC8608A1
3D9B2C20
BCA14F72
BD74E8E7
3D6DAE0A
3DA0ADB0
BC9A199F
3D4C18B9
3C58932B
BD7DF66F
BC98C2D8
BC85B8A4
3D27B12F
BD21934B
3CD8D292
BD85B7CF
3CCD1D54
3B0B546B
3B52EC85
3D0A02FC
BD5BD909
3D0CBBD1
BD02C822
BA87B033
3CEFE8D4
3D720393
BCA5796C
3D7E42F4
BD86F5F9
3C38A19F
3CA6E234
BDC61F54
3D1B4BB2
BDB8210F
3BCAD7D7
BD43AB7F
BC82BE1F
BD4B4499
3CBA864A
BCD26061
3D25907E
BCB58900
BD3A31BA
BC350AB2
3D2586E7
3D137A2E
3DC82FAF
BD2021AC
BBB0ABC5
BD92DF6A
BD98A9B1
3DA4A035
3D0143CD
BCD1DB00
3B1ADDD5
BE0A41A9
3D413261
3C3BD505
BA76DDA5
3C504C1E
3CC8EA1B
BCB29C58
BB860913
3D2AA67F
BCCAE20D
3DBDD56F
BD003485
BD8BAA39
3D34294D
BD2A385A
BDBA13A2
BCD98003
BD06F068
BDBD2A05
BD80697A
3CE8966E
BCF5CE04
3D048763
3D9BEBD5
BBAFBCBF
BD3A326E
BC89A924
3D8F5541
3CD7195F
3D14A9F4
BDCF7660
BB39C7E5
3D40DA65
BCC288FA
BD433C87
3D4BF208
BC7758AE
3D781ABC
3DA0AD6B
3B68C3C1
3DB062F0
3D85C899
BDB612F5
3CBDFA72
BC5F7B78
3D9A79F0
BD5FB5AC
3C5552EC
BCD99631
BC9730EA
3D570D4C
3D6A1AB7
3D3DC70D
BCBF71DF
3D544173
3BE2FD03
3C8E634A
3D916079
3C44A334
BBEFD0C9
3D762071
BD11B9BB
3C4D1117
BD84F19A
3D87753F
3D9FA287
3D8ED373
BD4F216C
3D23E0A4
3D644FF8
BD615E7F
3C102856
BD30CB20
BDAA4B9C
BD52FB47
BD062208
3C88EB36
3D00C95C
3D202877
BC352C26
3CA5CB0D
3DA8FF59
BCB3E83A
3D6226F0
BD92B3B9
3CBE25A6
BD0D5462
BD89034A
BD873F08
BD306601
BCC66215
3CAC8563
BD747538
3CA47460
BD12B58F
BD9C5D8F
3D6A7B20
3CB72FCE
BD4AAE0A
BCD96C34
BCF4518C
BC5F7689
BDAB16DC
3D9EE537
BD8C273B
3D99BE3D
3C04D473
BD65C6BF
3D5D042B
3CB85B7B
BDB19A73
3C544C43
3D0DA080
BD194C42
BD99A959
BD942947
3CA431BC
BD8189E8
3D216AA8
3CFD5BF4
BD80E4FC
3D25B896
BD7EBD50
BCA450F9
BDAA88B1
BD86A644
BD9CB7FB
BD9061B3
BD09137F
BD0AC2DC
3D90DD96
3D4E2D07
3D849DD9
3D5A338C
BDA1366C
BD9DBEDA
BD1347D5
BB34198A
BD92BAB2
3D19D41E
3D2316D9
BD240E92
3D62A075
3D80366D
3D9AA4BE
3BA53984
BD48F3C2
3D4E6890
3D814D1D
3D88B95A
3D6E2E8C
3BDCC603
3D807D97
BD830FB7
3C798517
3C0AF135
3DAD1021
3C2CF551
BC8AA02C
BDBDF46A
BD51A9F5
BD19CF85
BD9B98C8
3CF270CD
3DB401E1
BD48FCFF
3DA9AABE
BD0BC807
BC287E79
3D740F0C
BD581431
3C3ED2C7
B9C0FD98
3DAE7E7F
3C0EEA1D
BBA1D1E4
3D8E9E21
3D33612D
3D41EFFA
BB6208D2
3D2D1E6B
3A85C8B3
BD83D207
BD35425B
3CF19382
BCCB8C3F
BCAC787F
3CE795F8
3D98D050
3D27E6CB
BD8C53F3
3BBCCCE7
3D8FB498
BD84DC44
3DA3EDE6
BD1CF4D3
3DB76316
BDA3D05B
3DB8276A
BCDC8860
BC7DAB52
BD9E5AD9
3B801D4C
BD92AA91
BD1D4709
BD6B6C90
BD68BA13
BD3E0966
3CE9E7E3
3D062604
3D351559
BCEBC11F
3D963421
3C76112F
BD907AD2
BBA02413
3CD98E2D
BCE42619
3D9D3B94
BD611411
BD1B320A
3D7DA3FD
BDAA2A8C
3D918DB8
BC642764
BD143EDA
3D91C437
3DAFDF36
3D2CC43D
BD1578FB
BDA54AB4
3D02346D
3D99A3F1
3DB20DE3
3D169241
BD011E73
BCB8E33B
BD975A62
3D837035
3DBEB5FC
BC399194
3DC33649
BCD2385D
BCAFC558
3DA61A65
BD1A1191
BC995FE2
BB90DF55
BD4D8119
3D1B849D
3B947776
BD2684DF
BDB85606
3DA4212F
3CA38422
3D8FA8BF
3D625A65
3DBC26A1
BDB4C39E
3D4F9B00
3CD0A371
3D350A28
BDBA76DA
BD42E7EF
BCC28A55
3D6824ED
BD519154
BDA123A5
BDB73463
3D8CF2B9
3D035504
3D1FA0E5
3C512751
BD18A379
BDBDA1D8
3C975C56
BDA69630
BD7FA669
3D052CCD
BDB4951A
3D32CB23
BD72D683
3C131D6F
BD8F021D
3D4C83C4
3DB66D3D
3D1BBAD3
3D9AA98E
BD997E3C
BD677E71
3CC2CBBF
BD904549
BC885FFC
3CAC8C71
BD80C8D1
BDB48106
BDB464FE
3D8CF2E7
BD91CA4D
3D9CA359
3D966553
3BBF9061
BD8C21A6
3CD9D41E
BDB0F495
BCCE2007
3D8C30B2
BD23B9C1
3DA29BD7
3D3E81E6
BD01397E
3D26907F
BDB889CD
BD49EE41
BDA26C81
3D9AF786
3DA0B77D
3DACAD85
3D654D14
BB9611B3
3C0E91B9
BDB3BB9F
3D54E060
3B2E51C8
3D9CDE51
BD9543F6
3D2831B0
BD1C1D7B
3D3E2BAF
BDACD7C5
BAC9E5CD
BD54D349
BD6BA855
3D8EE2D1
3C330C0D
3CF5E8D6
3D2B0E1C
3BE57599
3CFDBBD8
BC85E510
BD4D2A45
BD4ED2E2
BAB47610
3D25ACEA
3DA4C5BE
BD9CF2DE
3C8E0A87
BDA6E6D9
BD2A2967
3C89F452
3D969113
BC84ECB6
BC9FB592
3DA62E17
3D9864BF
BBAE62F3
3D8A2836
3D616D12
BD2B99C1
3C999945
BDB43A18
3D80B851
BC801F2A
3DA82D7B
3D78B548
3C33B714
BDA0C5FF
3D18956D
3D99E5C6
BD067392
BDBFF705
BDA3019E
BDB261C7
BD940998
BCE68358
39DA760A
3D040988
BDB894B0
3D9F8F20
3D41FCDA
BD28A767
3CE301DF
3DBB07CF
3C1F27AB
BD1FF4E5
3DA82114
BD50ADC4
BD76F1BE
BDA8D350
3DB50B0C
3D4E1542
BBB1D4D6
3D81E433
BD9C1652
BD5D8138
BD635155
3D1E75AB
BCDAAC1D
BD85277D
BD9C44C8
BD473F4E
3D66B557
BD9D0DA2
BD8D2CC2
3CBF4995
BCE30C32
BCB936B3
BCB43A03
3D835EEB
BD810082
3D8BBED6
BD29C460
3C1DCB3C
3D9CBB3A
BD2F01FC
3D1CA984
3DEC6B4D
BD3054C0
3DBA4FFB
3C5BD18D
BC7768A5
BD935B65
3D93DF02
3BA6E329
BD3FD289
3D857BD2
BC00FEE1
3C2D7887
3D54C4F3
3DA8BA3B
3D7500ED
BD8FD40E
BDA31E41
3D8AD8E0
3D227241
3DA5FAB1
3D57F9C9
3D2EA2FF
BC61C378
3C94F9D1
3D2D4EB5
3D596298
3D9C4926
3CD94428
BD351848
3D9F65AA
3D17F9D3
BD8B15F8
3D857CBD
BB929F74
3DC8371B
BD7ADD6C
3D83309D
3D299BE5
3D956657
3DD52C3E
BD4990AD
BDA1E0AA
BCAB4D0D
BCA8366F
3C42A0BA
3D9A3A71
3CDB5176
3DABE063
BDADF535
BC5AC69C
BCC3DE0C
3D6FA40B
BDBFD99D
3D876D51
BB96286F
3D251456
3CE843C1
BC45D26C
BDADBC79
BC8E4A4F
BC2F0242
BC820292
3DA8ADE2
BCD3BA3E
BC83DD47
3D9B5299
BD7203D8
3D28474A
3DA349E6
BD968912
BD8AF1A4
BDABD287
3D307114
BD99C06D
BC917147
BD8ADD9F
3D9798CD
BD3B11DA
BDBB453A
BD04BE44
3CFDCFE9
3D6D5623
BD0DF90C
BD0E2804
3D079844
BCC3A365
BCE3B02F
3DCA8745
BD302769
BD6952D8
3BB7D2CF
BDA2151B
3D917FC8
3D002367
3B7E6337
BD128541
3D69A381
3CD16B00
BDDF2F9F
3DB67DCA
3D88C28B
BBCAC321
3D836CD8
BDBF45FC
BD84A99D
3DA9AC9B
BD42D7F7
BC21D410
3D67F461
3CE1E094
3DA1E89E
BD3B8694
BBAC8D0D
3DB2BAD5
3AE65451
3DA61E79
BC93B76F
3D9C5E2C
BD3C8B45
BB5A6991
BD0B7B69
3D2B5811
BD0E92B2
3C227806
3DB025D2
3D25EFF0
3DAD8A18
3D16CA3B
3D585BC6
BD833D71
3D6647E1
3D1F7F25
3C964F44
3CA6C861
3D314C8B
BD9366C3
BB4E9B0B
BD6AD1AA
BC8BF75C
BD6C1437
3D7E6786
3CA82023
BCD001BE
3CA9D456
BDB08E18
3D4703F2
3C570FDD
BD994C9B
BDB6A1CF
3D6BC4B6
BCDADDC2
3D8A3721
BD840809
BCA72870
BD8EBB65
BD56576B
BD5F0B85
BD87E422
3D221ED8
BD8C93B1
BD6316BC
BDA1025F
BCB09960
BDB3157F
3CED6B0E
3DAA614E
BC6CD8BB
3D319B4C
BDACC8B3
3D635EB3
3DC66AD2
3C8E6409
BB25CD68
3D45B759
BD5B3DF7
BC545F45
3D07828D
3CF2F049
BDAEDA7C
3CA4302D
BCF349FE
3D185742
3CB7056D
3CA8EDC6
3D653FD4
BDAB7CD9
BBE234AA
3D23FCF6
3D90C2C2
3D51C865
3B674679
3B145C79
3D9717E3
3DB2D0E7
3D8300B1
BC3D8F37
BDAE208A
BCFF6C57
3DAD6C96
3D73305E
BCF22397
3CEE0E52
3CA9FE3D
BDAEC6F1
BD5D4AE2
3CFF4956
3D973D24
3D80DFA2
3D8DEECE
3BE03457
BD538141
3DA7E739
BC9D0754
BC9CA85C
3D10CEDD
BDB12B6F
BD0E2461
3D9EA1E3
BC88B06B
3C8C8D82
BD7BF240
3DB6EA72
3D9A977F
3D7B7356
3CDD8589
BDA0CACD
3C02352B
3C393C7E
3DABFA39
BD6243E0
BDB6889A
BCC83DB2
BD5EA856
BD8087FD
3D70F9D7
BCF85467
BDA21F31
3C805B60
3D3F7AB0
3CC5D330
3DD53754
BD6C316D
3DC41731
3BAB6D8A
BDAAF00F
BCD2EDC6
BD774C73
3DABB2A3
3BC7EAB3
BD933FF9
BDB56CFA
BCECB7CC
3D9CCF58
3DA5A605
3D89C262
BD822F8B
3CE8FA91
BDE0E06E
BD35EB38
3CB3D559
3C0FF4FD
3C4377F9
BD683D7E
3D7391CF
BD926DDC
3DA34CC5
3DA37207
3D2D939B
3D0C3B30
BD87630F
BC9FF7A6
3D12F0FE
BBDA9C07
3D320557
BD7B1B39
3CB1A9BE
3D22BA94
BD897738
BC91E6D1
BD39DB86
3C9DA1A7
3D8642A1
BD2F0011
3D0D67BA
BD21408E
BDC9C323
BD295452
BD0481B8
BC9C6A77
3D7238B6
BD737C03
BD2FCD91
3CD677F4
BD49AC7F
3DFEA23A
BD82DDE9
3D13893F
BD265F87
BD2D3C5B
3B73BDFD
BBCDCD15
BD48938A
3DB0A603
BD530A87
3E0827C9
BDB501D4
3D2131C0
3C684E1E
BD6F8717
BD9A854A
BD79153D
BD9AA960
BC8A7597
BAA2E918
BD4E4204
3D90F948
3BF0E57F
3D8C8BB3
3DBB72AF
3D5038C7
3D52D3E4
3B9B54C1
BCA9C09D
BDAC288B
BDAD1992
BDBB19A7
BD2C6B01
BA108B80
BCB1C85F
BCF71FFC
3D893493
BD81633E
BD721620
BD874BFC
BD0C4B44
3CCAFD47
3D0DEB79
BDC3FECB
3D6CFA5B
BC9ED827
3DC0AC96
BD675975
BC9C2DCC
BDAD3A2F
BDA7CCB4
3B840C4A
BC867DC9
3D81661D
BCDD9A16
3D903F9F
BD8C6A9D
BD19BE65
BDA8BBBA
3CE19BDA
3D4CA214
3CB0E63D
BDBA8C1C
BD8DC79D
3DAD35B9
3B5719B7
BD0750B5
BC716541
3DC3A93F
3D88287D
3CBAD927
BDB289E4
3CD582F1
3BCE163D
BD02C65C
BC6B3E4A
BC9FBC1D
BD9943E4
3CFB4B5D
3D50AEE4
BD2BA9E9
3D1D60BB
3C39AD93
3DAB8E7C
3BE16969
3D899C2D
BD34D11F
3D17C516
BBC5C9C1
3D90036D
3D302EA5
BD861DAD
BD98C7F6
BDA2E948
BD87D956
BDA56D21
BD84E7B5
BCAEDF29
3CDCE8F2
BC90A778
3CDBBBB0
BC5B1F93
BD81EF26
3C8E4B65
BDA6C3F9
BC720435
3D521898
3CB34980
3C5151F7
BD6448AF
3D82C3DF
BD9BD834
BD39AC31
3D4A58AC
3CA07710
BD71B1BC
3DA369B5
BDB11544
3C9EFF3D
3D8998BA
BC6E2E73
3DB76D06
3C6DB721
BD50F46C
3B2D57A8
BCEE8015
3D319B08
BDA554B0
3D09844E
BCF60035
BD792521
BD99D8F6
BD0BBF13
3BD18A7D
3D8B7B95
3D21FE54
3D554EBE
BD9E311B
BD9F53F3
3D944111
3D8D1A9D
3DB4E7EC
BCE8C783
BDA6ED4C
3DA23684
BD16F3BC
3D7F72C5
BCF10558
BDAF71ED
BD193422
3D0E951A
3CCEFD7E
BD99A8C2
BCA96246
3D5A36DD
3D7D0D05
BC30FC56
3D7108D0
3C956E10
3B13C169
BD9AA16F
3C8B757E
BDBDEEB8
3D83B815
BD899F1A
BAAEBE3F
BC78C3B4
3DAAE9FF
3D55F716
BDA2D847
BD0C6D6E
3D75E926
BD1EA6C9
BD1F52FA
3C2ED711
3D93F14D
3D5C9B4F
3C2D2F08
3D42C7B5
3CD51EBF
3D686A89
3D1FC856
3D027490
BC3462F1
BD9E82A1
3D84EFEB
3CD72B04
BCF0C0C3
BD0A4EAF
BD8AC698
3D1C3017
BD1C6703
BCC525A8
3C19DD15
BD0EEE33
3D5D551D
3B623DFB
BD28051B
3D4DDFFD
BDAE2FEA
3DC0FF5B
3D7DD43E
3D5F3EAF
BDD089AB
3D919DAC
3DA011AE
3DB14683
3CC5706B
3CB6EF42
BD9AF2F9
3D4F3C9B
BDA3EB74
BD624A9F
3C7B9100
BD2EE887
3D3025D3
BD8C2BDF
BD87F093
BD8A1198
3DA43607
3D064D05
3C7A2245
3D85019A
3D72CF22
BD35FBB1
BD6D39A7
3C71F76A
BD18311A
3C858462
BD3ECE6B
3C23FAD5
BDA14793
3CB8E8D6
BCF5509A
BBB13D33
3D82A60A
BC973446
BDA00EBF
3DC8D961
3D701F31
BD900808
BD4E0C6A
BC13593C
BDCA582C
BD527A09
BD20D96B
BD8A7F26
BDAF85BB
3DA41769
BDB94487
BC9474F4
BCD3D3FA
3D7AED8B
BD0A0824
3D6896CF
3D194F02
3CE1B965
BDC7A254
BC8599CB
3D437E5E
BD22DC40
3DA758CE
BD8CDB4B
3DA2AE95
BC740EA0
3C28A9C8
BDBD0BDC
BD7838A4
3D27AD66
BD8C8B42
BCF610F3
BDD4118B
BC2654E2
BD4C8E9A
BC9E3839
3CB9AD2F
BD48353A
3D5B0DA5
3DA138E3
3D3ECA7D
BCFA6CDB
3CC04DFD
3CE12FDE
BD65FE52
3DE7A839
3DBB5412
3D8532AC
BD3B2021
BDC622F5
BD91A872
BB5C88C5
BD015889
3B57B382
BD3A65F9
BD90AA18
3CC0355D
BD063C93
BD650F78
BD0FB007
3D2BE625
3D8319D6
BCDA4EBC
BCE69E2A
3D0AE638
3DDE8032
BD792591
3D9D8E41
3D8D3411
3D03A36A
BC2722BD
3D77A0D6
BD0243D6
BD831AEC
BDB06CCB
BD5CE564
3D8589E6
BD7EA377
BD290192
BD8673D8
BD9F9B9D
3D0F96DD
3D0447F9
BDAD0A7E
3D70A4FD
3DB470B4
BD73E44F
BCBE0DEA
BCC79ADA
3D26FB8F
BBE90066
BD659191
BD14D1D1
BDC29C1D
BCF3481E
3B452BDE
BCDC9ADE
3D162C85
BBE8CE5C
3CEA9AE1
3DAF29CE
BD0CF976
BDACE9FF
BDAD1E55
BD9DFB2F
3D855F53
BD14635E
BD65BE67
3D551961
3C96F3BF
BD2DC731
BDA1E708
3D33AED6
BCF23E11
BCC43410
BC2A44EA
BB551137
3DA56DBA
3CE6D1E2
BD769BC5
BD8EE4D2
3CF9172D
BD3A9D01
3D526DD0
3D01A7E7
BD86FAA6
3C682974
3DA87284
BD005610
3DA19E95
3C964943
3DD7D4F2
3D0DC959
3B890B1B
3DB4504A
3C9E85D2
3D6A26A7
3D3D5000
BC815D9E
BD713AAC
3D3E1179
3D83CE93
3D434072
BD7C0610
3D63B4EF
BC32B708
BC957B81
3B8C1E74
BDB8FFAC
BBD3FD8C
BD9E28E8
3D24918A
3D759F57
BD19F676
BD2E4EF1
BD7A17C7
3DAC140D
BC5DA5EC
3DCAF770
BBD2FFE8
3D88219F
BD2F5B7F
3D4B0CD3
BCEC723F
BD4C5BC6
BD8962E7
3DA7CB12
B9A880A6
3D82B286
BDAA32E2
3D523D43
3D6224B2
BD759BFF
BD00BFE9
3CC75BD3
3DB02334
BC6A94F4
BD337569
BD9D48C8
3C35ADF0
BD061199
3D04F81D
3D4D3440
BC99CF5C
BD0EECFF
BD103C00
3CE45FF1
3C07FDAA
BC8499FE
3DB31737
3D5C1EAF
3C8F9BCC
3D6ADDD9
3CA41722
3D787B0C
3D72DFF4
BDBA76E4
BDB9EDD5
BCF996CF
3D825691
BCEDB850
BD7F534A
3D95514B
3CCC9C68
BC80DAE8
BD1E2704
BD246B6D
BD90B359
3D657C2F
3D3B838F
BD4C95D2
3D8FEB4B
BCCA0314
BD8C2932
BDB1BC81
3D4341B1
3D82FE2F
3D021F12
3D898581
BD4382A4
3D85DB3B
3CA18724
3D490025
BD8A9908
3DB6A4E7
3D177062
BC90699D
3D1477F7
BDB6EFED
BDAE0DCF
BD06BD98
BD866A75
3CEFF17B
BCDA796E
BD8B3C7C
3DAEC4BB
3C519598
3D983B42
BD8F4D43
3D4FF319
3C93232B
BD0AF05F
BCD0F6E6
3A4290FE
BD3975FA
BD946262
BB55936D
BCE46446
3D3FDAD2
3D9B198D
3C202DA6
BCD71186
BC0B5232
3D19AE81
BD21B1A1
BD4F4517
BCB63A89
3CC53E32
3D92D2B3
3D9FA2BC
BD88C58F
BD910473
3D6EF76D
BD237A1B
BD520ED8
BD98C729
BCA7B62A
3C439429
3C92B4B6
BDB6EC5F
BBB421A4
3CC7995E
3D3DCACA
3DB62A16
BD49C00D
3DA9C35F
BD59F4BB
3D0812C1
3D652EE2
3D54CD7D
3D978FB4
3CEF065A
BDACDB30
3DA5ACC9
3B86A3B6
BD63C7DC
3CDE5860
3D4F5264
3D164861
3D0EA87A
BCF493AC
BDA6B926
BD91276B
3CD4C818
3D94596E
3D6E912B
BBDBE4D7
BD8DDDEC
3B52E9E2
3D709C1C
3CFA89EE
BD31F24E
BAEED98E
3DAFD536
BD5E44BA
BD47B032
3D4BD0CA
BD560CF5
BD4D5D6B
BAD170D0
3CB0596D
BD58D2B7
BD85EB97
3CE87181
3D60E379
BD73B6CA
3DB4904A
3D7FABF5
BCAABEC5
BCAC2870
3D9E4327
BDB68C7F
BD8798A8
3D933BE2
3AF147B6
BD681898
BD502C5A
3B33CFD3
3D562899
3D4E38A0
3CBB0251
BD32F528
BD6D9AD6
BB2D707E
BD71145A
3D81B213
3D89A79B
BD5F4373
3C91135C
BB0B9552
3D83F3DF
3B9AAEEC
3D0BBF10
BCF97A87
BD88E9C8
BDA4F28D
3BED1F11
BD913065
3DAA4854
BC91DD87
3DA23A86
3D5C0F20
BD76FD67
3D6C35DD
3DAD993E
3D4AF089
BD2E4EB4
3D9C30B1
BD379613
3D84AC46
3D37D563
BD88CAD7
3D733892
3DB60BEF
BD25602D
BD102466
BCD03476
BCB13993
BDA0AB21
BD9A5B06
BD79E9B0
BC335749
BBA75DF7
BDAC7DB5
3D234460
3D8568D8
BD889C88
BDA5F4E5
3D80A218
BC384E3E
BD9F9CF2
3C4A9D90
BDA70AA3
3D95D5A5
BD14AF0F
3D93AB36
3DAB2F87
BD03AEC1
BCA634E1
3C722A5E
BCD0E908
3B7199ED
BDB4ED21
3B9B0523
3C35CE9D
3D8A9109
3CAD1D09
BCA6E3F8
BDA5B371
BD9CA3D6
BD0B1AAB
3CF9FAFD
BDA2172B
BC41E176
3C5449A8
BD99C6AE
BC70D0F1
BCF5F212
3D516226
BC7FD220
3DA9EEDD
3CCA2F4C
BD842C72
BDA18D92
BDABBECD
BD3875B9
3D01FCAF
BDA8389B
3D0FFB33
3C90F3A3
BD88D0CF
3C85B4A6
3CCFD00D
3DA6A990
BD137285
BDA6A0C2
3B9F91AE
3DBA5289
3C3A764D
3CF88B00
3B0EE942
3D09179C
BD861B3E
3D42DFDC
3D068E08
BCB5C5FD
3DD6444C
BC43D2B3
3CC00CD8
3DABCA1D
BC7A7350
BCFB0B73
BD27473E
3D3B61BE
3D1A8DC9
3D213F05
3C2EB5F6
3B542338
BD63A378
BDA28206
3D1AF511
BD2B248E
BD6C7CFC
3D4CB194
3D7E850D
3B373022
BC12FF9E
BCCE9CEA
BD8DC780
3D2A9FF5
BD8033E9
3CD7A5CA
BCC2BD98
3DD59E9D
3B6866F6
3AC7D67A
3DDD5095
BD8D292F
3D0095EB
3C7339CA
3D85461A
3D8C2E31
3DAE8C99
BD446AFA
3D9C1DCF
BD0ACE60
BD6ACD9E
3D92E698
3CC3EB88
3BEF1FCC
3C40083D
BD1DFECE
BD0AA3C1
BD8060EF
3D053D6C
BD88762A
BBBB90BD
BD2CF528
BBB3FF2D
3C2287ED
3DBC3EE2
BD7D5A60
BBD8B057
BD9A5C92
BCC9A47C
3DCDD0EF
BDA1D9C1
3B3E1645
3D9DB29F
3B3C89F2
3DD57774
3C80A47D
3D0C667B
3D151981
BDB2658A
BDBF3387
BD98989C
3DBC4FF4
BCEDC323
BD06ACB8
3DAA0ACC
3D895C95
3DADA103
3D441290
3B9012C0
BC7145C1
3BFE0D91
BD304819
BD04EE9F
3D2FB0D8
3CE38DCC
BDC3E3FC
3D46B184
BBB07CBC
3D35D201
BD66371A
3D94614F
BC2A9C6A
BD676C1C
3D53AFD3
3CC6F73B
3CDE68DB
3C221443
BD9EA490
BBD6CC5E
3DBF7897
3C8EA3AC
3D90E0AB
BA441888
3D6CEF88
BA9C5C44
BDA052D9
3D8116C2
BD27DDA5
3DA29DE5
BD622D14
3C01CBA8
BDDD1401
3D3E135E
BD3A454A
3D26D1B4
3D9CB4B2
3D5FD6D2
BD0265A2
3C52CB6E
BD80B2C2
3DD08C0A
BD9B98FB
BAFB520B
3B7D032C
BD5DF722
3CDDEFE2
BD7AD371
3DD16812
BD9FAD5A
3D893F37
BD9F2436
BB85F93A
3D72271E
BD4036E6
BD9CBA47
3D2E2F2F
BD389ADD
3DB27D49
3DBC023E
3D013C9F
BDA0F0BA
3DB1BC1C
3DBF3FE9
3D5D8857
BD52F33E
BD44E34E
3D736899
3CF09730
BD90AFC7
BD998439
3D1CD91C
3BEC07D8
BBCD453E
3D63A89E
BD2A4ED9
3DAF948B
BDAC4B7B
BD1C53D5
3C6F9BC6
BD8BDD39
3D7DB35C
BD5BF138
BD572339
3DA4F712
BC077D52
BD865161
3CC637C6
3CD5D724
3D55D20F
BD070573
BC513449
BCFB9726
BB97252C
3D32EECA
3DAC59D3
3C850487
3DB93E0D
BD824B3D
BC08AF2B
BC6BBC41
BDB548E8
BC7687BB
3D03E138
3D26E731
BD071124
BCEBE1EE
3D9AE9F8
3917DBD3
BDA8BCD2
3DB7C5BF
3C2D26B0
3C81471F
3DB4BBF3
BDA04CAF
BD9FA986
3CD9F736
3BE9D31F
BD31BC7D
3DA1635D
BC8CD5F5
3BDE68B7
BCB3DCAB
BD922D43
3CECD9A7
BB5424B7
3D900150
3D43FBD8
BD9F41DA
3DB99C11
BDB3B6D6
BC94C323
3D4E1C6C
BD8F7553
BCED8BBC
3D636483
BD24AB37
3DB25547
3C2AC72C
3D49C985
3BC8967F
BD0C7B17
BB08C9E8
BD0B8CC6
BD705B44
3DD15C28
3D8CF9DE
BD7B9CDB
3D9CA475
3D95D1EC
BDC325C0
3CEFF6D7
BC42EEFE
BD25CFD0
3DA26CE1
3D2D774C
3D97549A
BDC3BA54
BD5D7D0E
3DCE1FFC
BB128595
3A90B85A
BDB3589D
3D55CBCB
BA9A612F
3D58DD2F
BDB3BEB8
BCC94096
3D8F0B1C
BCB38F14
BCF1D5A0
BCD7C929
3D7F6A8C
3CA9F77C
BD41680F
BDBB5551
3D7CBC1E
3CA20DD2
BD3BC697
3AFB2880
3DC05992
BC29CEE5
3D104A78
BD2936AE
3D13F1B7
3DB0D05B
3C89B15D
3DBB5648
BD6F27B3
BD28C2C7
BD21917D
BD448A08
BDBE9D6A
BD5DBCD2
3D18B5E6
3DBFC746
3D9325ED
BDA6F83C
3D4361F2
3D654689
3D713318
BC42BDD1
BD8AB7FD
BD487EAE
BD5CD098
3D3FF0B3
3D743E80
3DC737F2
3D8DF412
3DCDE724
BDCBC100
BC122D4F
3D24FA11
3DBD070B
3D0BA458
3D62242A
BDD2794E
3D8CF194
BD763FBA
3C4D7030
3D382474
BD91D9F8
3CA041B7
3CE4C32F
3C89ABD5
3D9A7A50
3D465DE6
BD3449EE
BB70090B
BD26ADE7
BD9174D9
BCD40E82
3D367EB0
BD5BBD9D
BCEA39BF
3C9710CF
3D80FEA6
3D6ABC95
3C7A67A2
3DCA2C59
3D80477E
BD7AA78A
BD391941
BDDF607D
BBA0EDE2
3D8C9985
BCF28A6C
BD977287
3D04EEA7
BD99ED35
BD768B32
BCF7F0C0
BDA73201
3D57D94C
3BF3A0EF
3C94E9D0
3D94F90F
3DB9A7C4
3D0327C6
3DB99251
BCED84E4
3D0C3B98
3DDF3A5B
BC7DAEB1
3D0C6156
3DBFC63B
BD8C621F
3D9D256C
3D95E8AC
BD9AC726
3A3416E2
BC371ED1
3C8AD141
3DC6B922
BD752A3A
3C761096
3C8A80CF
3D0DBFE2
BD2DB572
3D0579E7
3CC5FB78
3D4B869C
BD714DFD
BD9883FC
BD9952AD
BDA96E0A
BD238B5F
BD388FD7
BBB71044
BD9FD636
3D84C755
3DA60F0B
BD1E0A37
3D7CC2EF
3D119FFA
BC90BE93
3BC6DE71
BD19BD4B
3CBB88EF
BDA7958D
BC7D5C53
3D4A80B1
BCCB7D32
3C89C131
BD8707FC
BCE5E77B
3CCFCA98
3CF17001
BD61C2D6
BC9363EE
3BC6C466
BD0699B4
3CA49EB6
BCB5C0FC
3D64F608
3C695DEB
BBA82F9D
3D253159
BDA1F45B
3D128BAF
BD83AD23
BD15E791
3BBC5012
3D4295DE
BD438FE1
BDA71144
BD14C632
3D8AE239
3C8A4BB4
3D179CB9
BB9E8499
BD20FA0C
3DB3914B
3D4358C5
BC5C1409
3B026232
BD57CC82
BC380869
3D540776
3D87D953
BD98D610
BD300539
BCF30B31
3C12C2EC
BD8EE54B
BD0A5621
BCA0B9CB
BCE337F1
BD22B4D5
BD9FBB4C
BD5B82EF
3D5D82EE
3D75EC9A
3D88C765
3DADF410
BCADAFBC
BC11786D
BD887730
BD80A5D5
BDB2E456
3D6B2870
BDB8A996
3CB5E207
BDB59718
3C10316B
3DB22D10
BC6B034A
BD04E6F4
3CB1457D
3CE5B366
BB1E8A0A
3CA49D11
BCDD2874
BD3FDE1A
BD72C210
BD938363
BD964F59
BDA59A86
3D1C130D
3D6C0C60
3D6D5F17
BC718A75
3C46198C
BDB4A205
BDB9BFF6
BC08FD2D
BD822724
3DB05097
3C25757C
3DB6418A
3D3F11B6
3D20321F
BAC8841B
3DABEEDD
3CB7D657
3D6DC8EC
3D22FA94
BCB42C32
BD8ADAD4
3D750425
3DB6E4E3
3CFAEB0F
3CBC0B49
3C8E62AF
BC0F5DB4
BD118C1B
BD7EED1D
3CC57E64
3CE402CF
BD400332
BCD00D39
3DAED7F5
3D93FCB8
BC5C174D
BDA0E573
BD57131C
BD8B0553
3CB74031
3DAC6583
3DABBDAD
BD24391C
BD168D77
BC8C87D0
3C73930E
BD2E0002
BD1549F1
BD919A10
BD877D51
3D88F6BD
3D783B28
BA83931A
BD366E94
BCF1C810
3C2D7D59
3D964721
BC5F87AD
BD35553D
3D99377D
BD7B8293
BC7E6A92
3CD00943
BCC8B8F4
BCC47041
3BF45B17
BD23D08F
BD8CD38F
3C9CB1AE
3D054A69
3D0B41C7
3DBE8269
BC1AFD85
3DB3F6D1
BCFA3D6F
BCCC5D18
3DAF3463
BC925835
3D140A91
3C3D8AC8
3C97DDDA
BD58AB24
BD3900D0
3D920A37
3D89396A
3D921891
BC5DE85C
3D0BFC66
BDAA449E
BD8E96CC
BCC6F751
BC9E82EF
3D6A9EA7
3DAC9952
BCC37407
3C8F2A57
3DAC7A0C
3C99FE56
BCDDECAD
3C89A71D
3D50A76D
3DCA2830
3D216F0A
3CDB970A
BD9AD75F
3CEAF018
BD8C078C
BDAB7E3E
BCE9BA8F
3DBED6D0
3D6987A6
BC327056
BD35B0CD
3BF5A32C
BD24F674
BCCFD100
3D32E884
3C7AA0A7
3D845FB8
BCB717FE
BBDED387
3D5B3EAF
BCB2D588
3D1F4FFF
BCE3971F
3DCC02E4
BC7D94D6
3CF392D8
BDA5C984
BCC2A1E2
3CAB4762
3CD6A228
BDB49B23
3CF91CC3
BD67E0C4
3CC14D75
BD52C687
BDA860D4
3CEAFEE4
BD7249D0
BD946778
BDA9406D
BCA2873E
3D9E44A6
3C8D5FE4
BD5AC0FA
3D305112
BCAA987D
BABE18A2
BDAE2A0F
3D995AE1
BD01B74B
BCE6D9CC
BDA113ED
3DA94001
3DAF1668
3C87E0D9
3C35E79C
BD41A57C
BD870C47
3D02644D
BD640D31
3CD88719
3CAEADA0
3D283CF3
3D6DF1E9
3D497063
BD2EBCC5
3D3F910C
3D97AD86
BD374EF3
BD83A088
BD828A01
3D406A1E
3CF6F3E5
3D47F6B5
BDA21617
BD8610A6
3D08FF54
BD50322A
BA816B46
3CB8A7B6
3C4F01BF
3C3B938C
3C092325
3DB1B474
BDD9E212
3C10FA73
BD542981
3D990791
BD00B8D5
BCDE414A
BDADC310
BCF76068
BCCB48D6
3DAD30C7
BD10B0F6
BD38FFBE
BCFC4DA7
BC85E59C
BDD3C4E5
3D293EE2
BAC894E3
BDB60131
3D6DAC18
3D9B82F8
3DC43029
3D83AF77
3D3EA4BC
3D56DC03
3DBA29D9
BDBFC37D
3D94825A
3CFB8998
3DBBAAB2
3D8C17B5
3C14E280
3D1B3CA5
BBFD52B6
3BCF91FF
BDB112F9
3DACD343
3C669A9F
3D1590BC
3C15445C
BAD47809
BCE152AB
3D64100F
BD90CCA7
BD9011C6
3DB0638D
3D97BEC6
3D52C191
BD548F87
3D26969F
3D024C68
BB9F5A47
3D679F09
3D280A37
3DBA3F5A
3CAE0494
BA115B1C
3D4E4F91
BD150AD7
3C0F4106
3D51758A
BD31EFC8
BCE163BD
3D0BA8C9
3DBFCBBE
3C959BA6
BD66FD0E
3B074F68
3CDF8D55
BDAF77DB
BD30D8F9
3D56BF1D
3D869A92
BD77BB68
3D9038A6
3C99BE8F
3D2DE290
3CAF190C
BCDC3AD5
3D901B20
3CF70AAE
3D00E2F2
3D5F8D6B
3CC5F932
BCB20AAA
3DB226C3
3D079D0C
BD456F11
BDA98948
BDA73E20
BC0B588F
BD2BD8D1
3CE8A22C
3DB6E7B5
397C5CAD
BD25E9B8
3D6DA907
BBFC53D3
BD71C352
3DA15EFD
3D81C1E5
3D82518B
BCDB698B
BD2446B7
3C99F038
3D80F9F9
3D15C6F5
BD971D56
BD90AB91
3D90C2C0
BCA5FF80
3D834E39
3C2C40DF
BD86802D
BC927561
3D4497A8
3C7C127E
BCBD4B0C
3DB32016
3D0CA2F6
BCCACD1E
3DA9CDFC
BD92B6BA
3DAE12B0
BB422F40
3D1E8E1B
3C73BE9D
BC936B42
3D89B2AC
3C8F9F1D
BD4D6EB0
BD54BCDD
BDB08995
BC56D713
BD39FA1D
BDAB8AE5
BD36A2B7
BD327AD2
3C4A555A
3D0C25B7
3D758A5B
3D754880
3DABF25C
BC9F99DC
BCD016AF
3C1275FD
3C930C64
3D5864C8
3D4C1EAF
BD4B411D
BDB4E147
3C9560E7
BD858BDB
BD16CD7E
BD05F966
BCD24828
3D93AD76
BCF5E6CE
3BB438EA
3D6F39EA
BB86BB35
BCC426C0
BD2F8DCB
3C9281F5
3D9DC4AB
3CECF86A
3D88528C
3D05AA61
3DACCD9E
3D8FB6F7
BC52872D
BD826339
3C73D055
BD92E943
BCCF8C48
BCB9EBBD
3D1205A5
3D2D248B
3CDBF8D5
BDAEF9EC
BD591510
BAEFBDEF
BD39A992
3D5AEFAA
BDA421D4
BC9E0C6B
3D1D6446
3C02177D
BCBCC299
BD085014
3BDA512A
BD1D59C3
BD0CBAA7
3D5B7313
BD87AC26
BCA8F9E9
BD0FD932
BCE27C7C
BD910E63
BD343DED
3DBFA79B
3D992ECD
3D18167B
3DB6682C
3C7E3853
BCB888AA
BC95B950
3CF0C4A7
B9BE37F6
3CB06C81
BD9D102C
BD9AD965
3DA46178
BDAB55C7
3C5C7983
3C2255D5
3DA5CA38
3D6362CE
BDDB802F
BDC4143C
BD81F88D
BD2B2B0B
BCF3E73F
BD23C763
3DB08A8F
3D9CBE0D
3D4D4740
3DE2F5C2
3D343D49
BCFD225A
3D9BB142
BD94FBAD
3CA5EE83
3D6ED727
3D6E701D
3C79D634
3CCCB701
BA2465A2
3D08132D
BC12DE6B
BD2B9401
3CF2CDDD
3BB40BE5
BD545C3C
3D9E3BE7
3C627BF1
BDCD319C
3DC13405
BD9EE39E
3D96BE8A
BDDFB3AB
BD97B750
BD1EC8E7
3D76BBE1
BCF282FA
3D32CA55
BD8FD423
BD482F54
BD98E25A
3C430073
BD8B330C
3D48FF07
BD197BB1
BCC2C6BD
BD046328
3C9BCFF9
3C47F3FE
3C632B31
BCF3450C
3DB966D6
3DA392D7
BD2A1E45
3D8052EC
BDB8FDB2
BD3762C1
BD915560
BD6689A7
BDB23BAC
BD58BAD4
BD63038F
BD42681C
BD4F2B1C
3D9FAB87
3D812860
BC248B5B
3DA92B82
BD7CC3E2
BB86F9AE
BDA07914
3D2245EA
BD5F4A40
3DCD2657
BD4E76E5
BDB4665E
BDB4AFCA
3D4B6BDD
BC8E1EE0
3DA2F28B
3DB02B3C
3CE0C320
BC5E85DF
3DAEE3EC
3CB09081
3DA14529
3D27C3FE
3D0C9CEB
3C384072
3D7F60D2
BCAE65AB
3D1991DB
3D94A9C0
3CDA1B15
3D90E30F
3D192B05
3D6738CE
3CF49624
BD250E92
3DCCF58B
BDA2E613
3D1B39B9
3C90439B
BD85B381
3DBD6D25
BC99F6C3
3D115E43
3D10B230
BD27CC47
3C1F8944
BD9F85E4
3CD1439C
BD7BBB03
3D87391E
BD2B4F08
3D43DDFA
3CCDED70
3C4B19C4
3D537756
BCD75CF9
3D40A0AC
3CE75556
BD8D99E8
3DAF3078
3D652F43
BCF8B06C
B9C35034
BD38F398
BD0FCA58
3B8F031D
3C702822
BD3925D4
3CE5127D
BCD2D5E4
BD8EF67D
BC501A40
BD3CFC7C
BCC23136
3C885325
BD58744A
3D6E6D73
3D57ABD7
BD9D8770
BD856295
3A5D6F68
BDB269B8
BD99D8FE
3D9094DB
BDA3F1D9
BDB7CF50
3D252DA0
3D9315C5
3CF138A1
3D8EF6EA
3BEFE966
3D248149
BB15DA46
BD64DF5A
BD70B9AA
BD203CC9
BD9F7994
BD754C3F
BD49303E
BD051253
BD9D6E90
3CBED409
BD68003D
3CBD3981
BD4CF0E7
3CE8D7D4
BD09FE25
BD959F38
BA9D0FD2
BDA4D0BC
3B01DEA9
BD3C6C95
3DAFEC8C
BC29A2CC
BD82201C
3CF0509A
3D274DE4
BCBAB6A7
BD1C6B93
BD4F1B8D
3D981F51
BCB89B19
3D9EDE53
BD9BA66E
3CF59B34
BD9812B8
BD4CEE79
BB261D9A
BDB0A4AF
BD6848D0
BB9F794E
3D974A98
BB8F00B3
BDA6F461
BDAA7DCE
BD498CD1
3D221B44
3D9F6504
BAA7A097
3D2696F0
3CBF601E
3D4F7C0D
3C1C0127
3D277882
BD618E99
BD737157
BD695824
3DA2CF7E
3DBAA640
BCB99881
3D33BCCC
3CF2CA93
BDB53F33
3D026326
3D2D1863
3D9B6945
BB0BB6D9
BD8C97F3
BCBFAB0D
3D4383B3
3D035312
3D06F90B
3D1B629F
3DBB6C9C
BD9BF9FF
BCEBB198
BD21126A
3D5A8FF8
3D720CA6
3D1BA004
3D272858
3D987813
BD275E6D
BC93429B
BD85795B
BD5E6EE4
3D9CAB5C
BDD51873
BD886F79
3DD3CB74
BCC63E05
3E0A0F83
BD521104
3DD80594
BCBBBE71
3D9A316A
3DB29B05
BD4E4D29
3D428D28
BD9AD519
BC3E97CD
3CD6B515
3BC6FD8A
B924BEC0
BB0C8D3C
BD650462
3D95AD95
BB73B2F6
BD955BB3
BDCEAD7E
BCB519DB
BCA31A38
3D91F309
3DB1D43D
3DE46FD5
3D896B89
3D9FE9F3
BD95B3CB
3DAD9013
BDB355AE
3D5E88A5
BD77083C
3D40711C
BDE0F401
BC719582
3D8746C9
BDA2C497
3CF94B9D
3C855477
3D6551C4
BD987C90
BCEEAC9A
3D04CEB2
3D844899
BCB843E4
3D2489FB
3DB8346C
BD5E2C21
3DB91EF6
BCF9BFE2
BD8849A7
BA096BEE
BC3C9403
3D86DD9C
BC8B24F2
BDA4410E
BBA5103B
BD36C686
BD0C4CD3
3D97D94C
BD7792A3
3C43DCFC
3BFC7B00
BCE1DD6B
3CC7034E
3D192001
BD263F38
3C716C55
BD911D4C
3D0AAC17
BD5B4924
3DA5B7B7
BBF277BB
BD083239
BD34B189
3D4F74FB
BB054532
3DD64AD7
BD83EAD8
3CF2A89C
BB404A00
BD0A0E39
BCF6B893
BD45665D
BD33756B
BD65F282
3B9AA874
BDE4B26A
BDA1F731
BDB2C4D0
BD74E947
BCE00477
3D9F4BFA
BD0A1AF3
BD609027
3CE8353E
BD9D71E7
3D3E5DD7
BD2963B8
3D1287BD
BD3E662B
BD867124
3DAC5DE2
BB4F7BF2
3D2E4944
BA747A5A
BDACCA69
BD982169
BC282652
3D256331
3DB0DA96
3D945EF0
3D97D55A
BD97C923
BC04FFC8
3D838FD6
3D8A18D5
3D25A392
BD684130
BDC0FDB1
3B12D89D
3CAB2B2A
BD035EA1
BD298D40
3C62F7AA
3DBD01CB
BD81D727
BBB3FA9C
3D87DB56
3DC7B41F
BD645E06
3D4F56D0
BD9E141E
BD647FA4
BC3C67EA
3DA81A95
BBF0E334
BC277D3F
3D8109C3
3C504225
3D218516
3DCDDE25
3B9D51C7
3D997C7F
BD1F1209
BD30CEBF
3D94BF50
BD9EEA0F
BDA49581
3D662309
3C8DB43A
3DEDD330
BCA57126
3D9D20BE
3CCCEA31
BD810FEF
3D41A027
3C275D62
3D8EF678
BD4941FC
BD623D47
3DA074ED
3D0B5807
3CC5110C
BCF1BDD8
3D8FB5D5
3D8EEA41
BCD5FA4E
3CA7FE2A
3CA1E881
BC95DE14
BD3FB583
BD97159F
3D4D7DA9
BCE44E15
BD221A22
3DA0D629
3C77C1FB
3D547D27
3D947BC0
BD22D7BD
3DCE68EF
BC05E7A4
BD371209
BC27ED6A
3BEDF693
BD034931
BC9F3B25
3D9459B3
BAED9D21
3D7A70EE
3D8EB868
BDC00E05
3DAD19A6
BD1C4D26
BD260523
BD6E4EA9
3D12542A
BDC4196F
3D87E32F
3CF7EAB0
BD418F79
3D7734C5
3D063377
BD5F221F
BD3C8C95
BD4F95FE
BCAA2AED
3D276593
BC9C9458
3DB4F20B
BDCC7CCA
3DB46C02
3C48B47B
BD56535D
3D2CA4BA
BC884A1A
BC91D17D
BD56DC49
BC0FDD9E
BC280E1A
BD5C8A6A
BC05EFD6
BD2CAE06
BD5FCC48
BCABB9B7
BDAB3DE0
3CCBAC51
3DC1B988
3D462D18
BD09A64E
3C397828
BC9752A5
BD067107
BCCD5F25
3D5E98CD
BDAEB2CF
3DA1A569
3D0E2E88
BD3C0D80
BDA76078
BBFAF1C5
3C7F78F1
3D9F10DB
3B152C56
3D7A272F
3D802953
3CE6CB72
BDAD0E22
BDC8222C
3D8E46F4
BD89F29B
3D03E545
3D4BF2ED
BD93A664
3D368C2D
3D9C8979
3DA6DEBD
3CC62078
BD036273
3C85C806
BD17B201
3D98554F
3DC8F0AB
3B2DE918
3C89F40A
3D2453D8
3D6093BE
BD167B0B
3CD77799
3CA0CE38
BD20B5DF
BD5FB54E
BB37F13F
3C01CCD9
3D70F46F
BD31FFED
3D8C8740
3D32B664
3CF19A32
BDB16B05
3CFA5294
BD3CFF57
BDCA0044
3C408B6A
BDB59C8C
3D33CD0D
BD8FE7CE
3C81A485
BD21D236
BCF80275
3D2BE0E9
BD908EED
BDA6A017
BD560C89
3D8170DC
3C6B3D63
3D283509
BBA4B85E
3D3E478D
3D7F815B
BCDDE992
BDB5CE60
3D1BED3A
BDB64597
BDBCBF39
BD9257E0
BD7152C7
3DBAEA89
BD42E7C0
BD342DD3
3D90A527
BC45CB63
BD25AAF0
3D63AC4F
3DBA4AE5
3CC3D6BC
3C1BDBEC
BD89A82E
3DCF7D96
3D252AA4
BDA9CBF3
BDB02C3F
BD90CE86
3D23EDDA
3D2564A6
BD80042B
BD60FE9D
3C11708D
3C859C31
BD85387A
BDA5A711
3CE05BBB
3D4FBCA4
3D7F059F
3A461611
3D3C0953
BDAAFA88
BDB99856
3BC62A9C
3D5464B0
BBE9C36A
3DAC04C4
3CC3C712
BB01477E
3C0CBDF4
3D0954E9
BDA2E64A
3D01843F
3BA4F46A
3D2E5751
3CFD6D06
BDA0A204
BDA449D2
3DB0809C
3CEE4741
BD976A51
BB6DA893
3DA01A4E
BD2CD667
BDAFD178
BD559444
3D9E98A5
BD8B6478
BCC74384
BDAAE2A4
BD930FC5
BD325CC2
3D3ED095
3954EBB3
BC704875
3C6DB3B4
BCDAA86C
BD0DF2D1
3D9CEAD4
3C5992BF
3DB76F52
3DBADF70
3C974117
BD741D08
3D39DC33
3DBCA6DC
3CAF20D1
BD74743C
3D9ED022
BBA94582
BDA2ABF9
3DADF05F
3C7A6AA4
3D04DFC0
BD92624C
3DA2A0B0
BB3F6F23
BBC81A42
3D8087BF
BD11CC46
BD731A02
BD04EAE5
BCAB3695
BD3AB8F5
3D5266F0
BBDDB393
B9758D5B
BCF9252E
BD694C46
3BF4AD97
BD4ABD46
3D9EB5CD
BD1FD209
BC688830
3DA4C796
BCA90946
3D906A37
BDABF2C7
3D952BE3
BDA5F6EC
3D10E60F
3D18FF70
3CFA27B9
BDB53C03
BBD2481A
BCF08C24
BD801020
BD5EA923
BD59F631
BD4A7E15
BD833D66
3D59CF61
BD4B453A
BDB70AC2
3C7993DE
BD584530
BD92E5F5
3D864094
BDA6EF42
3D1489EB
3D2D8E40
BD135F1B
BD075D07
3CE11823
3D0128EC
BD3B3C27
3A6891BD
3D3D3B83
BDA21858
BC845506
BCB8EA36
3C9AECBC
BD2CF59E
3DA12DAF
BB2A7350
BD1AD910
3C1F1086
BD8EF412
3D170C77
BD8370C0
BD0EA27C
3C4EBF72
3D9B636B
BD4BEA07
BD164AB4
3DA6298F
3CC437BC
3D9CA196
BC483016
BD710759
BAC23675
BC8FA1DC
3DB157BB
BD0AB5BE
BDB07534
BDA08881
BDB484C7
3C9F2253
BCA82822
3D0281F9
3C913212
3D9BBD87
BD2FF48C
3D303EB9
BD503C31
3BC89D0D
3C423828
3DAA3EE5
BB4D0EC4
3DB0BB48
BD4B9C65
3D969A64
BCEE88EA
BD3BA417
3DAD1502
3D43ED45
BC071D48
BD2649E6
BB1195D2
BCCFFAF0
BDA57A96
BD5E65EE
BD54BF6A
BDBDBD2B
3D729176
BB55AAA8
BDA23E9A
BCF9FF35
BDC0DB10
BDA18B28
BC8C0240
BD49AE1A
3D489E6A
3A617EE3
3BB8840C
3D0157AD
3CDC6C35
3D73F263
BD50FBFA
BD990669
3D1EC8A9
BDB749AA
BD9719A2
BB96472A
3DA15103
3D43AC12
3D4F5A06
3D519CDC
BC85954D
BD5F056F
BD9770ED
BD86B62B
BD991350
3D8FB939
BD0FD16B
BC404BCE
BD4FC0B4
BD2B29B9
3DA70DC3
3D3FFB80
3D399244
BDB3FFAB
3CD72789
BDA0C90D
BD7155FC
BD59110E
3D6965D1
3D42747C
BD83F275
BD84F348
BD5EE8F7
BD3F1EF3
BC65D58F
3D351C50
BD8A00B1
3D32DE92
3CE0CCA0
BD0384A4
BC5A7BF5
3D9A37EA
BCA8F6CE
BD18A21D
BD78B31E
3D8E92BB
3CB9AE35
3D2098B2
BD0FA4A1
3D2585EE
BD9071A4
3C9F0350
BDA7A868
BD7970B2
BCFF550F
BDA4ED05
BD17262F
3DA95F4C
3DA29B4C
3B190A57
3C419858
3D6EEEF4
BC01A7CB
3C889BF9
BCA62BB1
BD6ED180
BDA4E7B5
BD51DF9E
BD19CEFA
3D0CAA69
3D18E46B
BD444C12
BCA36BBB
3D19965E
BD89085B
3953AE11
BCBBE983
BD35DC67
BD4A29A4
3C1C7D74
BD167FCE
3D990A8F
3D26CBF6
3D9B49F6
3DB14CBA
3DCE2C00
BD0DE357
BBDAA332
BCF7BC7F
3CDBCFCE
BDF55B3E
BD105178
3D5EE941
3D8736F5
3DB4251D
3D046C19
BD893FDE
3DB62D33
BDC1DB8F
3DC69C68
3D5F492F
3B01F0A4
3DCCDEBE
BD0F71DB
BCE87A96
BDCA4253
BD60E3BC
BDEAD85E
BD7BA405
BD9670D0
3D9A6EB4
BB49604D
BD579687
BC726C22
3D88A45C
3D9C9082
3D78E528
BD23E1FB
3CFA0FC5
BD0F902D
3B8395B9
3DCC109D
BB7C9937
3D9A0662
3D498BD2
BD287917
3D830260
3DB7E8E2
BD822734
3D7FF4A7
3D0C7ABC
3D7A5C09
BDA322F2
BD9F83EB
3CC71731
BD50BCFE
3D9AA024
3D38C7C6
BD977867
3BEA0E70
3D548607
BD2CCFFD
BDF5DC52
3DACC7B7
BC963432
3CBEEE68
3DA44BCF
BD67D824
3C356582
3D0E7312
BD059E9E
BB89B5BD
BC0EE9BF
BDA4E0F8
BC8FEE3E
BDA884CA
BD0F843C
3D85E6B6
BCF7BB24
BD6DCF28
3CE79C87
3CDAFF61
BDA73738
3D59D190
3DD2FD80
BCD05285
3D1E66B0
3D12CA65
3D377979
39F9E310
3D74811E
3D776293
BD919E8F
BD92EB54
BCA988A2
BDA00C03
BDE6B55D
3D7309E5
BD8E0F93
3CBB0949
BDAEE860
3CA71ED2
3C3322B5
3C874246
3D6D3F0C
3C0AB5A9
BC306B8A
BD138E00
3D74FFD6
3D2AAB0D
3D1627B9
3DBBD317
3D8EA37E
3D59385C
3DC0A18E
3D978689
BD58B409
BD850667
BD82431E
3D417212
BD85D9F5
3D03DC1A
3D160EA4
3DC33408
3C921CE6
3D8C7289
BDAE4313
BDA8C6F9
BD8378FE
3C8F1426
3DB20DAB
BC82B4D5
BD0AF47D
3D437B39
3B31E606
BB07B7C8
3AE2B383
BDAB16FD
BCC7B155
BBA3A5BD
BD98B353
3C6E1BBC
BDB4B2F7
BCEEE5A8
3D729521
BD9EC453
3D30F836
BDB2966C
BC55C326
BDACACE5
BBB4F6B0
BD47C6FC
BD898231
3CA80751
3C1A4ADE
BB9CC87C
3D984BAD
3D22FFC5
3CAD5ACD
BCF02E02
3B7804C2
BD8AFE1A
3D04E47E
BD96514F
3D3EB79D
BD85A9D3
BD9C5194
BDA4B54D
BD4F62BE
BC04EF74
BD661098
B99A66F6
BDE3AD0B
BD891F27
3D9099CC
BD5E8E0A
3D940C69
3D91A28B
BDC27272
BCC4D248
BB033B27
3DA310D1
3D1F640A
3D63C2E2
BD2E3C2F
3D500330
BD8BB213
3CF3825A
BC890CDB
3D096796
BD02F07B
3DAA8DE7
3C992FEC
3B3E46AC
3D45BE44
3C9FB844
3DD04434
BBAD2AB6
3CF9A987
3CD0B016
BD870D30
3D66A386
BCCB804A
3D9C36E3
3C4AE41A
3D8FE5AE
BC156923
BD9BF2A8
BD5640B7
BCD132FC
3D8DABDF
3DB1E4DC
BDA5DED5
3CFFE0B9
3D59DDC4
BD0960E9
3D019965
BD4C4F73
BD00EEFD
3D9F0B30
3C06C6BD
3D976506
3CD09373
BCC3C450
BD1CD0DE
BC8D786E
3D95BA43
BD702BCB
BBC93562
3D8100F4
BD78ADAE
3D205507
3D9C4740
BD8CA2EC
3CC910EA
3CDF73F6
BD7E5B52
BD56C383
3D6DE3C8
BCC3AA74
BC235AC8
3D826B03
BCA1A41C
3D02F6A2
BD54ECD1
3CE5EF00
3DA800B9
BD14D672
3D558614
BCD01C70
BDBB9442
BD8BBA31
BD076CD0
3D656CDB
BD825B7E
3C3CCB75
BC12C0E5
3D39E7EE
BD39BB5C
BD001CCD
BCDA6BDF
3D81AEE7
3BA476CD
BC928C27
BD1066C6
3DC57C0C
BD267C0F
3D923AD7
BDB35104
3D409336
BD4756E8
3B03E79E
3BCEA703
3CB72FE3
3D9C84F6
3D0680C8
BC87FDC1
3DACFD1A
3B53899A
BD4E77B0
3D8106E7
BD58053D
BC9AB019
3BF868C6
BD83F031
BB5855D7
3D30D47B
3D1D0698
3D8576E1
3D16951E
3DB92FA3
BD68B549
3CFEF28C
BC82D37E
3C83282B
BCE24D2D
3D271854
BDA94E2D
BD98A4CA
BCAB7BB5
BDAB95F9
3D8EEDAD
BD98562A
3D529C81
3BFBCACF
BDA367F4
BD0041CE
BD597AC3
BCB10816
3DBC4582
BD4AC90E
3DC3AFBE
3C76B6B6
BD94228C
BD06DBFE
3D8ED542
3D549530
3D28A36E
BD8651BA
3D54C71B
BD4F5D74
BDC00045
3D59C793
3D30461C
3BBBFC59
BDA50F5C
BD19BE8F
3D15D6CA
BDA2D41F
BDBB34CB
3D5A5D24
3BD80A0B
3CF08837
BCF560F0
3CD3642F
3CE79224
BD96D37D
BD3D6835
BD782CD4
BD9AB79F
BC43575C
BD9F34D2
3BC622A6
BD861CD9
3D6485D0
BD44E683
3AB0C1A0
3C3C40F1
3DB58E5F
3C211B0F
BCF847E4
BC7D0F68
3C8F5319
3CCC064C
BD803D0B
BD0F72CA
3D96328B
3CDDBC0A
3DB66F61
3AA43423
3D530FD1
3AB16E55
BD71D363
BD954D33
3CD77381
BDAE70C4
3D812467
BC74F8C2
3D216FD8
BDA61235
3D834A4D
3D362120
3D3DC73F
B9A534AE
BD72B192
BD8C65E3
BD6F51AB
BD8169B3
3D43CED2
3D8EF1D4
3D1AFE5A
BD0FE909
BC9BDBB5
BBE5385E
BCE93288
3C903348
BC65C601
3C548E72
3D47F5B9
BD2E37D5
3D1C395C
BD97A3CD
BD564AEF
3DA2F101
BA35E56B
BCC13F8E
3CFF0F42
3D88AD6C
3DBAD63E
BC3C0BB0
BD099D78
BD9FBBD7
3D4848AC
BC4BF23C
BD8F5E87
3D27C0E5
BD5D2A53
BC78715A
3DA97E64
BDB7D828
3DA72EA4
3CB70DF3
BD8835BF
3D012D5C
BCC163ED
3D020776
BD7E13ED
BDA8063C
BC049E9C
BD541D76
3D712879
BB3E168B
3D342D0C
3DAADD35
3D4F9876
3D35E384
BD7F4451
BD2702B0
BD856DAD
BC8A5842
BDA480E7
3CAF779F
BD9A2106
3CF01750
3B6D47CF
BD87F69F
BD2D322F
3D06F078
BBFF9294
BDA8A3D4
3DB7C10C
3DA180E3
BCB67B4E
3D8D1600
BD2587A2
3C85874F
BDB5958D
BD337927
BD02128B
BC90C742
3DABF115
BCD49454
BCE66D8E
3B7809AA
BBB24E08
BD1A2169
3D4BD7D6
3C844644
BD55ABA3
3CD5984D
3DA5F497
BC58614B
3D6DFF7B
3D226EE7
3DD7F642
3C978692
3D68CB73
3DC398B9
3D209047
BD188FDB
3D80FB52
3D61E10A
3DAC6DDB
3D401419
BD6CEF9A
3DE33E3C
3D80394D
3D922A0D
BD1E3D16
3D91E2EA
3DB1F648
3CB8649B
BC87CACF
BD835ACA
BD7709DE
BD5FBBA4
BA886794
BD7395E7
3DA72FD6
BCD06FE1
3C81FA7C
3DD3E954
BCB99EC1
BCD8932F
3D6CD7EF
3D5BD3A3
3D86658C
3D80D049
BDE2FFF3
BD7C9853
3D86D099
3C39D2A4
3C91FD3E
BD794E0E
BCE9441D
BD5DBDB0
BD51E96F
3D9EDE8A
BDB2B1D1
BD965F7B
BB32D56E
3DD5556D
3D5AF88E
BD6A6383
BDA9AD29
3D835260
BD938F4E
3DA97B9A
BD539CFE
3D075196
3DE391ED
BBB4B846
BD161410
3C97CDD2
BC2AD683
3D0FB433
BDBC8BBE
BC9B8561
BC115713
3D9205F1
BCF747FB
3DCDC3FD
3C3CF31A
BC34B0C9
3D8DFA8E
BC9FB4CB
3D24BC5D
3C6DD9BA
BD1D3512
BD91AA69
BDCD171B
3BB42FE5
3D75A5C5
3D9731F8
BD480F7C
3CA212EC
BD9EE75F
BBBA65E6
3D9D45B8
3DB19F76
3C116B01
3DB5296F
3CA5544C
BC86DA20
BD8666E1
3D8ABB07
3DCE429E
BDC0654D
BD909795
BDB0C754
3CE7D604
BD15F580
BC7FDF07
BCA10B54
3C9BE0CD
3D0A52C9
3D8A0B79
BD919EEC
BD6FA3C1
3B9D8DFA
BD8EE3A2
3D320A56
3D866FF7
3D8B7DAA
BD770DD5
3DC722E8
BD2297F3
BAFD25A5
3C8070CF
3CB79F12
BD4D6C2E
BD99B7EE
BC0C9C73
BD8A06D2
3C20D426
3D873D85
3D3825F3
BD8C1876
BA5031B0
BD9B5516
BD95BD5B
3DA8F647
3D279D81
3CA1D539
BDA8D556
BD871996
3D0F2984
3D0DD7A0
BD229499
BD80BD1D
BB93F38F
3D3FE657
3D1847D5
BD88C361
3D8C3F4C
3CE06270
3CB978BC
3DB1A7D5
3DB41F9B
BD29EFDF
BD3EEE6F
BD884412
BD577833
3D96DC63
BD81A45B
3C565AC3
3DADE4A8
BD9E3C00
3D1E5714
BCF95775
BCF0E7DD
3D397FAD
BCD6E064
3C212D1F
BCE33EFF
3D1B1632
BDB58B74
BDBC4A98
3D15ED5C
3D27AABE
3D947965
3D9A79FD
BC9E6E84
3BEF1090
3D90612D
3BFF9464
3CA42DFD
3B6A2418
BDAA6142
3D2331BC
3D71D28C
3DB35289
BD241905
3BB8AC08
BD8D88F3
3D0F5074
3B99AAB3
3D52D797
BD76529B
BD66CF13
BCA17178
3B5C5E98
3D836ECC
3DA31BDD
3C844B09
3D45A155
BCAC1D29
3C6B9692
3CDFBC1A
BD09F964
3D446A9C
3D647DA3
BC0534FC
BCC77852
3CC0AF99
3D3D9F10
BD8F7CC9
3D6CE3F8
BDA1BA8F
3D25D6D1
3D333687
3D280221
BD8D5DE6
3CB82FAD
3D2F7823
BD0854D2
BDAF2106
BD8DB1E4
3D99ACA4
BD3F25FD
BCCC3998
BD404829
BC999212
BD958F28
3CAB41F9
3D20CEB5
BD3AD8BD
BD110C69
BD76E79C
BBDC4F2B
3D85CC4B
3D62C5A0
BD9CBE1C
3CAE0848
BD8646C5
BC1D5D89
3D4D1EF1
3D2A2FF9
BD4DF8A5
BB852033
BD8B624E
3DACCC12
3D7759FF
3D5F95B9
3DAF2878
3D5F5A32
3D0ED2B7
3B92834E
BD9D9599
3D4654D5
BA807C5A
BD9F30FA
BD9C35D4
BD9D7496
3D775916
3D619A08
3DB68D77
BC5C7E55
3D920415
3C99C0A3
3D5F45E1
3D8F85A3
3D542D55
BD92634E
3C9204BB
BD7F089C
3D8E7B0B
3D3B80FA
BD7B2B5A
BDB47C52
3D256826
BD0DDFF7
BD878C26
BD89D98C
BCEA2562
3D8D9D85
3DAA7998
BCB9EC3A
3CA00261
3A9B5854
BD14CC22
3CC4CC10
3D0ABDC7
3D772936
BA82E5BE
BD2C7751
BD8E4639
BC5400DE
3D685C8B
BD5CE5C9
BADC34E3
BD23EFF3
BD39F943
3BFF9DDF
BD12C512
3D7BB64B
BC9E40F1
BD90494B
3CE40ADE
BD2D45BC
3DACD7C4
3D3D7207
BDAED513
389D932D
BD7066BA
3C3E661D
3DA0FC59
3D2071E7
3D6E9D95
3D7E69D9
BD40B2C7
BD9764AC
3D4D1B8C
BCFB689B
BD9C441A
3D6D8987
3CA415FA
3D8507C9
BD901A36
BD975182
BD81FD51
BDA6E00B
BCBCB9A4
3DB139AE
BC4C4892
3DB7A247
BC59E93D
BD1BEEA0
BC8AF9F4
3D606C24
BDA56234
BC6BEB36
3D0B733B
BD7317BC
3D0B44BA
3D95A2C3
BD5903EC
3B24BB68
3D8C7484
BD2789E1
3D8E10D7
3DAB4BF2
3CEACD69
BDA4337C
BC665FEA
BD15BCB8
BDB4FE33
3D8DC5FB
3D0B3A4E
3B8EED4D
BD7AAA23
BD42F944
BDBB02FD
3D133003
3CB49844
3DA4C4D8
BCCF9E8D
BCA2D08B
BD49363A
BDB6DA38
3D1FC84A
BD333BCA
BCA90880
3C131968
BC9B0E01
3D3866FF
3C91AF57
3D8D9D91
3C195F1B
3D8DEC92
3D81625F
3CDE6700
BD642EAA
3C9B6E30
BD9DECD0
3DAC9CA6
3D027BBB
BDA4FFFF
BCCA3481
3DB571EA
BDA9CCA4
BC805653
3DB425BE
BD2A7FF8
BD8C9AC6
BDBC3BE1
3CDF7B60
3D9DFC32
BC6202A4
3DAF492C
BD23F0E0
3D5D4F0A
BD2CA19F
BD59E0D6
BC96DEA5
3C59F721
3CF41418
3D2DC589
3D519D97
BD32EE3C
3CA34522
3D3F2DDB
BD34DED9
BD3CFC04
BC7CD3CD
BD34D9A2
BDA8DDA4
3D4DCFAD
3D7CDBDA
BD169F17
3D6CF418
BC3C00DE
3D50090F
BD0D8282
BD967420
3DA700AC
BDBB225D
BBD65756
3D5FEB53
BD7B66F4
3D7693CE
BDACAC24
BD9B8377
3B155093
3DB34329
BD3B8F0B
3D749FBF
BDB8CEBE
BD9BFB5A
3CDE8A4A
3D94ED4E
BD9F973C
BDA4989C
3CD6C8B9
3CEEC13D
3D371EC3
BD83F713
BD6EE080
BCE79248
3DB2B22D
3D8423CD
BCF95CBC
3D80F5B1
3CDAA73A
BD3730A2
BD1D5FF7
3D73EEE5
3CF3DCF1
BD19E8E0
3D85B196
3CF68E17
3CAF9E33
BCE37699
BCDB60B3
3CE7684B
BD0FE111
3C2BC234
BD0BBFC0
BC8E82DB
BC7C1FF8
3D1E6102
3B8C30B6
BCA16A3A
3DA3C0C2
3C845A40
BD4FB760
BD04A318
3BD31DC9
BD5CE344
BCF5D086
BD65369F
3D92BFD4
3D0ACD75
BD1AC8F1
3CFF3EE1
3D921E05
3D4321F6
BD471B92
BD88768D
BDB6C3FC
3D91A8DF
BD11F64F
3D3A0AC6
3D6BED0E
3DBE0208
3D366CC9
3C3C48FB
BD8BE6E0
B95FC500
BD112DDC
3D5C652A
3D135FD3
3CBB9399
BD4EFCDA
3D51011C
BD8C028C
3CB7B289
3C9EBCA7
BD54CA3B
3B88F814
BD9CD85E
3CD8942A
BD656A33
3D132122
3D6913F8
BD733C91
3D356AAE
3D6B7F6C
BD13A6BE
BD1578AA
3BB4DEBE
BD5C1759
BD6F3681
BD055B9A
BD28C69E
3CCE77A2
BA7A5B63
3D43A14A
39A94B60
BC6F0848
3D074C09
BC35909D
3D4E78EE
3BD44B81
BD38A489
BDAF8F7B
BD79478D
BABA29ED
BC4DCE93
3D97CA21
BD9EEEEA
3CCDA844
3CE83F7C
3D6A0206
BD97FD78
3DA48426
3D4E0928
3DA29AA0
3C62D2AE
BB9829B4
3CE6AA6E
BD44CB68
BD9F0E66
3C7A9682
BD482723
3CFD3507
3C995EB4
3D8BE608
BC9D37DE
3D1F51AD
3D44C6A6
3DC0D9A3
3CC696D3
3D32EC3C
BAA84BD6
BD96F0AD
BD5C563D
3D90DB06
3D8AE22F
3D356BF1
BDAB0885
BD93DC90
BDA88609
BD905C6C
BC16EA1E
BDAD8BD1
3DAE5AAD
3DAA0A62
BD9476DA
BCA0B33E
3C175773
3DB332EB
3D8062F0
3D9CCA07
BDBD4B51
3A45133A
BD118247
3D62796F
BCB65D3B
BD3577E2
3D7EC703
BCEE2E74
BD919F25
3C651358
3D839255
BCE1D915
BDAFB6D1
BDA4CCB7
BDA1FD52
3DB0B866
BB1D70F2
3D0AB31A
3DB2581C
BCB029C9
BD0F7FEA
3D2AFD66
3D640897
BD74AE85
3D95A5B6
BD9E4C5A
3C5FA887
BCFB32D8
BBA8F24E
3D84249C
3D0F2A5B
3DC51089
BD90235A
BD41DA73
3D5B02F7
3D60667E
BDD5F467
3C869BEE
3D5DB182
3D7FD498
3D35ECB9
BD215B3D
BCB4F5F7
3DB7EBEB
3D485A1F
BC1F479E
3D1843AF
3DA6EBD6
BD92D195
3D56F0FC
BD41A156
3CF314B8
3D7513DB
3C7223AF
BCCF47B1
3B23073B
3C8F3B48
BD640CAD
BD9360B1
3D9A59D7
BCD3C63D
BCCDAF54
BDBCB885
3D4A8B16
BDB1FAAB
BB619915
3D58A445
3DA262EE
BD9AFEC1
BDB1839F
BC912471
3BA931DE
3CDDDB21
3CB795CC
3C4C1FB8
3D7BDD94
3919A75E
3DB6E61E
3D76BC74
3D3D2614
BD179F81
BC9B05C8
BD1A5585
3BE4CE38
BDB37C5D
3CC49544
BD664E8D
BDFAEA85
BD457A58
BD9D7826
BD418346
3D33651D
3D15DD44
BDA7C130
BD34493C
3D372AF2
3D8C9442
BDA7A3C0
BD21F6AF
3C7538B3
3B0A558A
BCE21EDC
3DB9569F
BD7CC1CF
BDAC3642
3DC95FD9
3D1F17B1
BD96E913
3B652F80
3D94435D
BD4BFA6D
BD6B2413
3CFA919D
BDB16430
3DCAFEB3
BD74122C
BD8A11D6
3D63D56D
BC981521
BCC3D07B
B9545E1E
3CD4433F
BD483CB0
BDB43738
BC87CFB2
3D59E62C
3BF3ACF3
BB19856F
3D2FF5BC
3CD6A3A2
BD7399E6
BD0C9E55
BDA41C0B
3DC1E53F
3C4F4375
BD1C3CE8
BC920174
BD33ACE2
3D1E2E1E
3D24EA47
3D2D57C5
3DB4A81F
3BADAC12
BCEF6323
BCEBBC4F
BA082014
BDBB05E4
BD1D2904
BC32F432
BACFFE00
3DA3E99E
3CE79C08
BD9E866D
BD9FFE8C
3D66A669
BDA036FF
BCE268D9
BD6D0112
BCDBC009
BD2F4EEA
BCCBCC18
3DE10778
3DB1B63E
3D33549B
BCA08448
3B422308
BB0652DD
3CF98F97
3DA8BE49
BDA36F22
BD96BA88
BD48820F
3C9768CC
BC2E6FE7
BCA372B4
3CF8D374
3CF1FFAF
3DBD4449
BD2B7D85
3D6A7911
3D8CBF2A
BCCDA96C
3C4620C3
BD902D2C
BCDBF12B
BD1D8069
3D1B6B3D
3DACE6AA
BCD0EE90
BCDAD6F6
3DAEEEAE
3DBB2846
BD04C12A
BD64CFD8
BD0E1BFC
3D05138B
BDE141F7
3DABCB6A
3DA3F1FE
BCA80BF6
3C87956F
BC9C9E91
BBE06631
3DE10BE0
BDCACCB8
BBD2D58D
3BFD3AB0
3D660AA6
BC08F65F
B9BD11E2
3D8FDBCC
BD8C6FCB
BD89EFC3
BC0EB11C
BC9D3648
3D3BC4E9
3B2DB42B
BD99D17D
3CD2F10C
3D0A13D7
BCE8F0AC
3D00A6CE
BDAE0BBC
BD50D78E
BD1FDFBC
3D2C59AA
3C79B2DA
BDB58B7D
3DD4D165
BD82FB4C
3DCF1CAF
3D2C8FBE
BC8C7D47
3DE4F8E8
3DE2BE25
3DAEDA31
BD54DA09
BD0B0C79
BD8DF593
3D21F8E2
BC445723
3D86D19F
3D272A35
BDC05566
BC602932
BB9DE9DC
3D9AE341
3D5D7714
BDB1EBB1
BDB5CAB4
BCEBDFB3
BCC28485
3D450CEB
3D1793AB
BCCCDAC1
3D9A590F
3CC07D5A
3DD2952C
BBC12954
3D271049
BC72DD29
BD823A8A
3C941ED4
BDC68734
3DCDD2E8
3D47CDB7
BDE82620
BD585F4A
BDCDB009
BC85B917
B9CB4B46
3DDB4271
BD87E3D4
3C34FD19
BCCF0C01
BDAABC5B
BD0B39A9
BD0F53FE
3CA86DD8
BDA4188B
BD6A690C
3B5F7548
BD258A83
3C983B21
BD8F21DB
BD416CE3
BD7FC4E4
396BF07E
3DC7BF0C
3CABC70C
BDBF8A34
3B1F70E4
BDBDCA39
3C42AED7
BD653C5F
BD1BBE09
3DE1FF30
3DA9C202
BC25E9D2
3DE397B9
3DA79298
3D529E76
3D2C626F
3D05A0CF
BDD955C0
3D3C18F3
3B37F667
3D9A500D
BDB17CCE
3CA36572
3CCC77E8
BD04D326
3D35DD36
BD0D7AD5
3D8AC0AB
BC9A6060
BC1D3853
3C2CFC66
3D80066C
BD7DDDDB
BD851EB5
3D7F5AC4
BDB2D958
BD1E0B2E
BC990BC8
3D8A44E2
3D4C344E
3D9DBCD3
3CBA0AEC
BD6C7AE1
BDAE8FAD
3D9CF318
BC22BD34
BD4E48A3
3DC1E68E
BCF99E31
BDAC854B
3D142C43
3D971EFE
3CDD2BAC
BDA764E6
BC30D544
3D80AB33
BCF9AEC0
BCD2E59B
3D9E208E
3C3DA764
BD04DB82
3DD27B78
BDCB4172
3D2F8560
BB662A7B
3D4F6CF0
3DF084C3
BD826C94
3DA4C120
3D13A3A2
3DA10D8A
3C52977C
3DFBE0A2
BDBFF3B2
3DCCEA93
BD48DD0B
3D571699
BDC08A19
BCFDB425
3AA551AA
BD91AE6B
BD590386
3CE874C6
BD249E2C
BD9E1E4D
3CF17C5F
3CCAA074
BD3F82B7
BD07EB6C
BD180AD8
3DC323AD
BD11D489
3DBE15EB
3D9CBE91
BC442465
3D733FCD
3D867FF8
3D99445A
BD13208B
BC8A9BF1
3DBCF965
BD4DA3BB
3D31F924
3D8F5450
BCDD431A
3C14D64E
3C479396
3D9E7DAB
3CA6D330
BC0309FD
3C3F8D32
3DA98AAE
BDB680AD
BD225AA3
BD62D96D
3D8520E7
BD1FABF0
BCE20E85
3DB2A1F9
BC5F92EB
BD671020
BCD7077A
3CCF0FC3
3D8637E5
BD70896A
3D82ACBF
BC538EB3
BD8DB64B
3D90838B
3C9E2E4E
3BB2F1AA
BD4049EF
3D8193EA
3D8C6FBC
3D9B830B
3D7476BF
BCB7C2CA
3A368493
3D59AAFB
BCA81909
3DBA1D3F
3D832FDF
BCE5B0C5
BC756F87
BD58801B
3CA7DD77
BCCFA2AF
BDA5E93E
3DA1753F
BD83D838
3CD311A6
BD45FA2F
BD88D15A
3D6BB231
BB801ED2
3D27D47B
3DA2AA26
3D6C7F4D
BDAB07B1
BD7C60C1
3D9D3CF1
3D800275
BD01C4B7
BCE64125
3D38ABDA
BD982D39
BD0AA6C8
BDB1CE6E
BDB2B352
BC9B3CC3
BD42C6F1
3D7EF21A
BDB85E87
BC99D880
3A86EFF0
3BCC9726
BC9CC09F
3C688412
BC5FABBB
BD83CD3E
3D882423
3DA89EB3
3CE4FBE7
BC78652D
3B36F78B
3DB69E5C
BD30F6BB
3B050089
3D9C9CEE
3D0DA483
BC684432
BCE27261
3DAB616E
BDAF8107
BD596879
BC98B18C
BCAEE02E
BC8721ED
BC36AF47
3D47D2A3
BCB3C815
BDA230D4
3CA5F833
BD1DA845
3D9371D8
BD974C87
BCE37793
BD641D64
3C2B49F5
BCB5C9BD
BDA31D36
BD34A534
BC803473
BD3A13C8
3D9ADD68
BDB2145F
3BFA7579
BDB69F0A
BD5723FF
3D770733
3D067004
3A411AE0
3C19AF1C
3DA535DC
3C903920
BD2419D2
3D6A7202
BD44BB2C
3D1B405F
BC69ECEE
3D583BEF
BD1866CC
3D817D59
BD6AAB3A
3CC076CE
BDAFEBBE
3C579764
3D467034
BD229BBE
3D1CA651
3D500408
BD9C5CEA
BD94A335
3D3471FA
3DC9673E
BBA2443F
B9CC9A70
3B276D9F
3D8DE950
BC24480E
BC7D137D
3CCF7809
3D2988AA
3CDB131C
3D57B1EF
BC97DC13
3CB83447
3D85BA4A
BD9C8CEF
3CED5302
BCA7F1EE
BD36D953
BDA36F40
BC111C93
3CCCF477
3C1F05B3
BBECD54B
3D9FA3DF
3D9C1208
BCEE7715
BC20120E
BD945D07
3BDFADEA
3D1AA1C3
BD6EFB9A
BD63C556
BD4002B3
BD8F8481
3BB110CA
3C90EEE4
3D068AB5
3DAF20B8
3CC3052C
3D7BC648
BCB51A5F
3D91FEF7
3D827FF5
3D5EE03E
3CA58BE9
3D3E460F
BD869D82
BDBA6D72
BCDAC1A8
3ABF9105
3D796E6E
3D4C87AB
3C45529F
BD91A1CC
BD120DFC
3D94FDC4
3D1ED91C
BD7B1800
BD3DB359
BCC02A92
BCD3AF51
BD28AB5E
BCA9623C
BDB2EDF2
BC8FCDE8
BA83071E
BD81E8FD
BD1768B3
BC059E71
BD0F0E8F
3D65C8B1
3BE49EF3
BD72A1B1
3DC5106F
3D4A0C20
BD1623F2
3D150B7A
3D542C86
BD144E1D
BCFD373F
3D5B5E57
3B410AF8
3B8F3175
3CFE71E9
BD205A32
3BAF49EB
BB472FB2
3D98A0AD
BCDE2FDC
3D720483
BD8B4CB1
BD689235
BDA6EFBB
3D236D99
3D736EA1
BDAD8FEC
3C9F95F7
BD03DB74
3D97D8D4
3BCF8C25
BD4C4E24
BD76D9F1
BD493D53
3CB0B9FD
3DAF8FD4
BC38D24C
BBF090A4
3C36AE43
BD8B1BB1
3D7C7B87
BD9391BC
BD727935
3D842599
3DA55048
3D99CC97
BD99CB8C
BD89E4FE
3A8C756F
3D579753
3D891E69
BD00A0CB
3DB4CFFF
BD60F620
BD5D45BF
3D9F1F2B
BC9126E8
BD46A69D
BD1C7127
3D13DB9D
BD2CE6FD
BD19B5EE
3D3D2CA5
BD0C71AC
BC8F9C45
3CD72A05
BC8FDB35
3D94D8E8
3BFE1D71
BD16057F
3D50B50D
BD8E11E3
BDAC35B3
3CB7FC93
BCD36BD1
3D6864F6
3D784FD7
BD5CD6E0
BBE8DD6E
3D8C7360
BCE87C76
3D784509
3D0F6033
3C223FE1
3DD22338
BD3D0D2C
3D32A68E
3DBE501B
3CF71FA9
3B4527D0
BDAEB59F
BD91A850
3D9383DD
BC8663D2
3C1AAD9F
3DA0671E
3D3CE6A4
BD0FDA21
BAAF55FB
3DB544AB
BC87B8A3
BDCCC214
3BF62731
3C1E9913
3DBAA871
3D147A60
BC3D5758
3AC5C8B6
3CC6D4D2
3DAFE531
BD887C19
3BF43663
3D551DE3
BDBB5790
BDA9EF72
3D9B7486
3D97658B
3CC58DD7
BCFFE88D
3CBCF525
BD1BF35B
BC25A385
BC48F3E9
3D95961D
3D04FE27
BDBD86FE
3C2BD63E
BC72679E
3D97AA4D
3CAF5B50
3D3B42D8
3D928B4E
3D8751BF
BCBB4285
3D26F57A
3DA95A27
3C09C701
BD50D03B
BD80B6F5
3CA55F6B
3D723A7A
BD07935E
BD15CB53
3D86E365
3C8B668C
3CC3E1B4
BCE01E8B
3DA7606F
BD8C5E8C
3CA622F8
BC4C94D3
3C94D05E
BD035204
BCF3F893
BD2A651C
BD9B4825
BB98DE15
BD00BD92
BD7F80D3
3DB2A371
3D6F3E05
BD3C5CDF
BD9EB9E7
3D25800B
BCE3D13B
BCAAEAAB
BCAB3115
BCC37903
3D6D2112
BD66D11A
3D4327DA
BD01408D
BCC15006
3B8A8DB7
3CE788BD
3DA21699
3D93EB73
BC8E3428
3D2E19B8
3D967FD6
3C602E69
BD148071
3D26D95C
3D9AFC09
3D1B1A1A
BD139C8D
3DB47CB3
BD868886
BD91748C
3B8814CA
3D864312
3C816E46
BD61C7CD
3CBFEAC9
BC76F320
BD278D61
3D672071
3C237B4D
BBE0BF52
BD91A38F
BDAAF132
BDAAD240
3CEDB62C
BCFDD965
3C81EB32
3C4C91C4
BC86FABB
BC603393
3D6EA41D
3CE03767
BD14CAC5
BC5C0D85
BD0106F0
BD73EF03
BC9C6BC2
BD028F95
B8CF43F0
BBFD575A
BDB20A1B
BD97989B
BCF8A391
3D69D178
3D38FB6A
3D2735C8
BD9721B8
3D47BF3A
BC2B7BA3
3DABD726
3D28395B
BDB3FEC4
3B61E38C
3CE3B2A9
3CD84A24
BDB3C47B
BDB1860D
3D090F67
BCB1DD81
3CE94EF7
BD57C57A
BDB56644
3DB6948D
3CF2AC9B
3C9F8A9F
3DBE8F9F
BD6CF037
BD92DA80
3D3B4CFD
3D16B557
3D82B803
3BA15AA7
3DA4764C
BCEE4FFF
3D39F00E
3CB434A1
3B20EA2A
3DB70FC8
3CAD0884
BC88BF29
BD5F9DBD
BD6A27C8
BD832D88
BD96E64E
3BFB02B5
3D87B24D
3DA406F4
BC430698
BDAC0991
BC65A93F
3D4FAADB
B69F5D50
BA727A6A
BD4786F8
BD938C45
BD82A8B1
3D5E9C47
3CD2F67A
3D821018
3D1E30C3
3D65BE06
BD08CEDF
BB1007C8
BD0BC7D1
3C66D993
3C627F39
3C8C96C6
3D2145CC
3BAE45A9
3D76A7D2
3D8E116D
BD38A4C1
BD11CB66
3C52F282
BD465E55
3A423E34
BD6BB2CD
BB90100E
3CBAF88E
3DADBBFD
3CF04CF6
BD38CDC9
BD0D6117
3D864B64
3D1B975E
BDA8C8C6
3D4BB0DB
BDB1D63C
3D13411E
BCDA6C2F
3DB6B7E6
3DA32610
BCF7EBF7
BD95F520
3B28F229
BD4A3524
BC5202EF
BD32C42E
3D811245
3D4E331B
BC869843
BD89E582
BD16ED0D
3D38721F
3CF5F8AF
3BE3F013
BD83071B
BB5A6697
BD4E2CC4
3D6C1C4F
3DB22A93
BC8F5F87
BD2B30D1
3D29FDF7
3DA30CF4
BCB21C5E
BD9A3B4A
3C184934
BCCC9472
3D5C98BE
BCBCE0A3
3D322D2E
3CB56F85
3D9D7C4A
BD93232D
3D3B6CDB
BD5085AC
3BC7153A
3DAEF574
3DA6B63C
BCA7CE61
BD9DBF7D
BD74BFE3
3DA81486
3CA04FBA
3D1E2955
BCD66362
3B894D9C
BD93E194
3C0D4D62
3CF3F5A1
3D880622
BDB99866
BD85DDED
BCF04129
3D0C130C
BDBA0408
BD1AE405
BD8DC88D
3BAEF52E
BC101844
BC4D8569
BD9E48DD
BD81CD7A
BD5AC42E
3AC64ECD
BC157B84
3CDA20B5
3D2431EC
BBD48F65
BC576F01
3DADD4CC
BD774886
3DB930BC
BDA61782
BD26C623
BD98C9C3
3D3174A3
3D018C3A
3B3DAD4B
3BA39942
BD6E3E40
BD8B6FE5
3D0EC1ED
BD9F7DBA
3CB4C7EA
BC45DE1C
3D2DB412
BD087AD8
3DACE5A7
BDB8475A
BDA5C171
BDB19766
BD4A17EB
3D09A12C
3D006F89
3D086991
3CFDAD0B
BD38FCAF
BDAAD3CC
BA7341C1
3CBB2CE8
3D04E011
3CDA45D6
BDB4EA8E
3D9AD788
3CFEB820
3D593E36
BCE64D8C
BD7D61CC
BD39C278
3CAAD997
BD9FF8A9
3D4D6A27
BD0A3948
BD32C7C5
BDAE927D
3C87691E
3C02D003
BCFEBD01
BD9EC14C
BCCCD6FC
BDBAB127
3DABB786
BD69ACDA
BD67F6DA
BDB9BE8F
3D568A86
BCEFB016
BD7E7E8C
BD2A6B0F
3C926E20
BD9B2182
BC89708D
BC6C5294
3D3F06DA
BDB79562
BDA6C0D5
3D2E3170
BD069DD6
BB2AB305
BC166B00
BD26D58F
3D9AA45A
3D82634C
3D968946
BD9C6586
3D13DBE1
3D3E3220
3C82D35F
BD43BC16
3C8A3DDE
3BF90F74
3D81A271
3D12892D
BD9EF706
3CE34201
3DB4FED2
BD8231CC
BD6AF5DF
3D91940A
BD2D7511
3D5B94CB
3D2F7222
3CEEF64F
3D8A648E
3DB1E44A
3CE85342
BD935B22
BD96CF68
BCDED6CE
3CD573E6
3DA9899C
3CA32561
BC7868C2
BD57FB15
BD8C5664
3D367C65
BC0ED409
3C61A8E8
3CDDF079
3C655D0F
BDB00E90
3C591D5B
3D8B2D34
BD54C144
3D88770C
BDB84F97
3CF98D4F
3C9B7C8A
BDA1509A
BD477F39
3B748EEA
3D9E5465
3C3A4A23
3D933717
BC6DE952
BD925BE8
BC96D49F
3D92A811
BD0D777E
3D88A3B2
3C8AB1F6
3D0C0FD5
3DAA0282
3CA6B954
BD314272
3D0AB33C
3D28E363
BDC3EB1B
3D3EA9E9
BD95DEC6
3D8F6530
3DACE56D
3C700AC3
BCA3C2AD
3CDB46CC
BCF64508
BD2323D0
BD1591AA
BD93D131
BDA52A83
BDBBAF74
3CB9BA2D
3CF0FE12
BDAA7178
3BA6BD77
BDB7C0BB
3DA72846
3DBA1DFA
BD014015
3DBA4E19
3CA5FBC5
3B6496EF
3D7FAF39
BB578208
3C89555D
BDD0252D
BDB6362B
3D1C8B36
3D69191F
3C9671E7
3DDEE37F
3DDF17F9
BD019362
3DB02564
3D0BB8A4
3D6F87DF
BCF698F4
BAD58D92
BB2EDC9C
BD95A7E1
3D7D7A92
BCAAF938
3D387909
3D22B86D
BD7E4D5F
3DAD7124
BD92BD6B
3DD68DBB
3DADCB8D
3D8CFD03
BD8E0DB8
BC221768
BCE60485
BDA6742E
BD45B8DF
3D607221
3D1936AC
BCF53AEB
BCB675DE
3DA7D7BF
BD3F8F70
3D17C568
BDA016F5
3D390D42
3DB915A1
BC9AFE61
BDE66840
BDBB69B7
3DE2B674
BDC8F401
3E099949
BD549A19
3D7B36F7
3DC7D791
3DDB8DF9
3D69B5F9
3DAFEAB8
3E004A0F
BDB4520D
3D96526F
BDA0A334
3C287726
3DAD3AC7
BD7266B2
3D00F6C8
BD303E72
BC967049
3D8F5BDF
3CA86C41
3CE134B4
BC2F66A9
BD9F733C
3D9E48AB
BD56D112
BD96901B
3CA7407D
3C9F6F04
3D395A37
3C17FF4D
3D4A45CB
BDA235D6
3DC1D5AC
3D8B3882
BD95FB24
3D9E8E09
BC965C62
BCFF2F8B
BD8BE3F5
BDA7AC0D
BD908B73
BD4BB8E2
BDA03CBC
3BF6F9F0
3D54866A
3D389603
BCFFED37
3BD204A7
BD3326E2
BDB2F3EB
BC297804
BD32CD09
BDA440EC
B9A2F5D5
3D4EFA07
BCF4F0FB
3CD7B412
3D79CEF2
3D7309E6
3DAAD75C
3D80C278
BBEC2201
3C5DDC88
3D4081ED
BD86EE26
BD5BFE11
3D7FB417
BD498B66
3CEF74B4
3DDBAD4D
3DAD194D
3CA6C37C
BD1C725B
3CD8AA37
BB6BF079
BD870DB5
BD30C0BC
BCFF0445
BCBB8317
BD450C2A
3D28FFBC
3DA16913
BC68C191
3BBF6F9A
BB84ECE2
BC9EBA70
3D597739
BC959E60
3D025BD0
BD875594
3C5478F2
3DC4245E
3D34210C
3DA288BE
BB0D7318
3D04AD5B
3CDF5FB6
BB9FC926
3D75AB4B
BDA3C9F9
3DB07B54
BD0ED560
3B74C266
3D26075C
3CA4728D
3D7A6FFA
3D47A0D9
BC1D47B7
3BE41172
BD3B3A23
BD3F22E4
3C888E29
3D95549D
3DBB95FC
BCC939E1
3D1D9470
BC460158
3D0A72FB
BB6322C6
3C9D329D
BD4B9DA3
3D8CCBA5
3D964046
BD904804
3D6B439D
BD93358F
3D86385A
3D6EF276
BD343E4D
BCFA4088
BDBAC02E
BDA2E9BE
3D98FF5A
3C976077
3BA97531
BD01F7B8
BD613A11
3C5F00A2
3CF6B33B
3D9A1A04
BD863D31
3D913B12
3D931E0A
3DA63070
BD40AD07
BD8547E9
BD149081
3D941EE1
BCD7BD0D
BDA10505
3D11EB04
BD900DEA
BDA7DFC8
BC600AC1
BD35971C
BD7AB0F8
3D98826D
3D399048
BCC05F78
BBD903CF
3B729C0A
3D778AB1
3D520E02
BD29BED4
BD359746
3DA4D2EB
BD577608
3D487A16
3C7B7C1A
BD932A2C
BC187416
BC4E1960
BD9691E7
BC962979
BCCD17D2
BDAE800C
3CB711E6
BD41F09E
BC6E111E
BD579D67
3C301FE4
BDA17510
BD919BF1
BD2F7C85
BC1BE043
3D300F2A
BCD3249A
BD8F4838
BD1B1A94
3D19ED4C
3C7E2554
BD8FA893
3D978769
3DAB40BA
BDB0F291
BCB9A0E3
3D7D81D5
BC9D4AA5
3D32FF3F
BD27744E
BD0AFCF6
3D91AE56
BD8B11DA
BD936805
BD2AF8F1
3D6E30FF
3C84119C
BD535579
3D9D6211
3DB5A0EF
BDB2E576
BDB4D836
3CE5AFFA
BD16FFE8
BC512A28
BD8C3903
3B34CB58
BD6347CF
BD3BB6A1
3D87D03B
3D08122F
3D37BB70
BD5B245A
BD0E8C84
3D7B4137
3D2F178E
3CD3C2D1
3D5D5E4A
BCF3B09C
3B2A609F
3D38333B
3DB00EDC
3B62EEA5
BDB44A9C
3CCE3022
3D825883
BB6B33BF
BD8824B8
BCB11860
BDA1F669
3BD66357
3DB22D07
3D140D37
BC8412E2
3D18A412
3D50BACF
BC27C00E
BD4C02A1
BD2AE869
BD17CE22
3D2D4638
BD9AEA20
BD2F06B6
3CA0EB0A
BD5F94BF
BC0B34D1
BD925B71
3CAE0085
3BD54572
3C9768C9
3D9F7758
BA0D8EB0
3DA525F1
3DACC95F
3C5856D6
BD9A2730
3D873B5F
BDA072F7
BD9CAF41
3D8D7219
3B6CCC68
BDAACE6A
3D5CFA44
BDB5C91F
BD5EF052
BD42D8BE
BCD0B8A9
3D8C5D5D
BCAB4D77
3D8A770A
3CDD1AA6
BD89AB50
3B1A928F
BD3A10EF
BC931CCA
3D8AC60D
3DCE8081
3DB3C699
BD73C459
3D9F1088
3D6922B8
B92938D7
3D2CF3AA
BD151D5B
3CB58B1E
3CBD1497
3C8290F1
BD35A2E2
BCF652CD
BD84DCA8
3D0A0315
3C620DAA
3D90F1F4
3D4F8516
3DDF6B22
3C87BD8E
3DACBDDF
3CA23CA0
BD1B78B4
3E0C4542
BD119DFE
3DE241C8
3C75E725
BB020992
BB536FFC
3DB5A0F4
3CFC86F6
BD893D5C
BBA1EC40
3D87573F
BC8A7017
BD9505DD
BC8F9C63
3C91B56E
3D0A1725
BBF3A558
3DC7CCE5
BD17F592
BDB5A8BE
BDC303C3
BCADE374
3D273F03
BDBC1CA0
BADF2D6B
BC51C3A2
BACADBA4
BDCCBB95
3DABC12F
3DEAC76F
BDA6B7E8
BD876855
3D154ED3
3CC78264
BD4A1AD0
3DD1C5D5
BD18374B
BD8E591C
BD5A7401
3D510A1C
BD47F560
BD4C85C4
BC969657
BDA020E4
BD9A051C
3C98A34A
3D4D07F3
3D73FFE8
3A3A0240
BD2EC3F2
BC114CB2
3D988403
BDE9F48E
3CB943C5
BCAA2C41
BA918D62
BD0DA31D
BCCA2734
BC8B74F8
3C2340C5
3B95477D
BD26D0E9
3DBD2C92
3D033AF6
BCF8E6A1
BBE63D1F
BA387BC7
BD493AE7
BD216B94
3DB1690F
3D44D023
3DBCE963
BC95C920
3CF2A659
BD568900
BCEBE277
BD54AE9A
3B52A0BE
3D1FEA9A
3C636C95
3DA6D027
BE055161
3D616282
3D847356
3BE6CEBB
3B611CF0
BD654DDF
3DC1DD80
3C2FC73F
BDBB1A03
3D4FE3CC
BD67796F
BCE720EC
3D45F315
BD018C8A
BD32FF5C
3D9ADB81
BDA2B4C3
3DAD0F50
3BC7ACBF
BB2C89FC
BD0E1065
BCA34BB5
3D043850
BCCD6E85
3D8BD7E1
BD949C97
3CC985C1
3CCBEFBE
BD1ADE53
3D92259D
3CADACD8
3DA46169
BC8A1DC4
BB0EE090
BCF90633
BDA1BD5B
3D082280
BD2B4EDC
BDA126EC
BD1C16D4
BC5D6E18
3D4758E7
3D2A3DAD
BD9E8D04
BB5B98A3
3D907C76
BD9E78B0
3D3CB520
BD9E42F9
3D9BD822
3DBF64F3
3D8BF474
3D0E5D60
BD52611F
3D5AF556
BCBE4577
BD8C69D5
BD01D117
3C857CE7
BD214BD5
BDA46E6E
BD546F97
390B4579
3DC47A6E
3DAACDF0
3D85C702
3B494D09
BDACDD1B
3D3D3BE6
3CE7C104
3DA7967B
3D96E7F8
BD895F23
BDA9A670
BDB5BC80
3D3BEDD6
3DB37AC5
BD16E01E
3CCDDDB8
3D9DF4FE
BD589C97
BD380FEA
BD5176BC
3D0C03F1
BBAB39F3
3CFA5522
3D94A0A6
BDB8C32E
BD574EF1
3CAFAF1F
BDA6DEF8
3D6F05BF
BC8344EE
BB5F81EE
BB83B9B2
BD4F77FA
3C564806
3C5A86D4
3D2805CC
3DA4D524
3CDD6033
3D9BE513
3D6041CC
3D8DD23D
BDD1BF23
3D0E62C2
BD3527BF
BD87C605
3D9A36DA
3DA83F1A
BC7D51DB
BD123D14
3D916267
3D485BA9
BBD65291
BD2F9251
BBC6BBF8
BD0E5883
BD440D0D
BBE76C25
3D410111
BDAEBCF1
BCA43512
3D51C940
3D91B540
BC401BEA
3D9F8D95
BD9A9902
3D70CB3D
3D18C933
BD9358EA
BCD3ABDB
BDAE0EF3
3DAADEA0
BD915F8E
BCCC18A0
3DB40EF3
3D8EF237
3D2DAFE3
3BC41155
3D697E99
BC6DA87D
3D9040D4
3D23D81B
BDB7467A
BDC33D6F
3D93CF3E
3CC9679B
BCE872AB
BD9B6A48
BB39EBE1
3D2E74F7
BCD9F79D
3ADB4DD1
BCFF8ABA
3D98F46B
BD5673EA
3D94524E
3DAF971E
BDC2A0B9
BD291ECE
3CCF314D
3D83088F
BCC4451B
3D568F6F
3D0D308F
BCA998E3
3DA6C949
3D70249D
3C2CF6B1
3CA265D1
3D517935
BD8FF07B
BD8BC745
3BD26D99
3CE03708
BCEBA278
BD83FE69
BDB47CD8
3C59F3D6
3CB1934B
BD004CAD
3D94F423
BD493E08
3C2CD558
BD524287
BDB6BBBE
BD1AA8B1
BB90DEF2
3D882CF1
BD1B183D
3DB42FAB
BDAE307D
3D3F02FA
3D8E9055
3CD63E47
3C6F0634
3D9BD098
BDAAEC41
BD36CCA9
BD59BC15
BD9D1074
3CA352B9
BC6BE51A
3D998DB9
BC9FBEA8
BC9393F7
BCEA5687
3B5EF7E4
BD4394E6
3D89A374
BD3AB041
BD2C5AA8
BD210D0A
3D347E09
3D2ACB3A
3DB104E7
BD85889C
BC070C48
3D9F0A07
BD9F6934
BD869F6D
BD7E9262
3D4B036E
BCC87CF3
BCBF1719
3D145EF7
388D850C
BCACED91
BDA14E5E
3D9F9F60
BC48D782
3D480605
3D90CC48
BDBAD5B3
3D8F96F2
3D07E355
BD2E1DB3
3DA53508
3D7C94E0
BD28A003
BCC42D96
BB90FFB5
3D18A8EA
3D3B34E8
3CD749D4
3CBF51A2
BD249881
3DC1C779
3CF7D279
3CA70658
3C80EC6B
BD310D48
3D9EFDFE
3C311618
BD926C1F
BD9BE341
BCE3B4C2
BD6EF00D
3D99BADD
3DB04DC7
BDB539E6
BD124251
BD27FE82
BB67A0E8
BCA30595
3DB276A9
BCF5547D
BD169D81
BB8D9DAC
3D4C0E21
BDA27CA5
BD661703
BDA1BD9D
BD8667E8
BD4B37AA
BBFBD070
3D906FFE
3C6EA6F6
3DA9A738
3D7032E5
BCE56B17
3DAD5096
BD1359D7
3C645248
BD909C98
3CBF6FDB
3DB52B56
BB970141
3C97EC2B
3D5059E2
BDB68F75
3CAB66D7
3C9B655C
BD8E8A43
3D8F2232
BD18FEFE
3D85C5C4
3D9DF690
BD906A0B
BD28F055
3CC35A9C
3C9387F2
3D44A690
BDA8B6D9
3D030B04
3D344E23
3CD97F28
BD7ADB72
3DA6D5D6
BB5D785B
BD2E0C4F
BD83A55D
3D8B9BB7
3D9F75C3
3D3A2F5D
3B3740E0
BD81B081
BC4F23A6
BD4AE6E5
BD9DB762
BD63DD96
3D4DE9E1
BD0F3EDC
3CC788C6
3D800ABE
3D529AF9
3DA3FCC8
BDA7C02A
BC98EF9B
3D98F921
3C5BDAE2
3C231C5B
3D92B41C
3B9085C1
3C9ECFE0
3C593826
3CC02F35
3C6D6AD0
3D4B0971
3CED759D
3CC72C1F
BD5B4F75
3D235E70
3D9AB97A
BD9F2A8B
BD967BA1
BD7048FE
3CC63E35
BBD69242
3BA53A61
BD8A2C4F
BCBCC71A
3D0C3F1C
BD12AC27
BCEA40A0
3D5E20B5
3D75A747
BBABC735
3D15E376
3D14286B
BD886243
BD8A11DA
BD5020EE
3C926081
BCCD98BA
BD67F385
3D93F9A5
BD20FCD3

