3D694899
3DA370CE
BCABD1AB
3D8F587D
3D8AD256
3DA8C693
3D830FD0
3DD9EE03
3D06D82C
3DAE9EE4
BD24DC23
BC4DC875
3DA65519
BD908CC5
3D29FF0D
3D342785
BCFDD65A
3D3DC37A
BD9E5C0C
3D8E7579
BDA9363F
3C9B64E0
3D8051CA
3C96E158
3C13B7D8
3B08C60D
3CCEBBBA
3D5626B3
BCD6B65B
3DAAA2A1
3B3630A9
BC2426BB
3DABCDFF
3DA9BB6B
3BA7A41E
3C2311E8
BD7009B3
3DA4B44A
3D3825E1
BC44D65E
3D94B48D
BDAB3BB8
3D230B9E
3D797EDC
BB922D95
BB15AF29
BCAF1887
3D8923E6
3D10331E
3D04F4C7
3D0E8EA4
BD63CB81
3DB55A3A
BD755582
3C8CBD12
387FDA40
3CC3B0C4
3CEF4385
3D81A501
BD64A7B5
BD4EF028
3DB0F7BA
3CB2CE89
3D484945
BD642F1F
3DC90603
3DD1E7DA
3DE4BE40
BD6F038E
3D2C7219
3D93825E
3C295C85
3DE47454
3D55FEDA
3CC195CD
BD25FA66
3D23E293
3DA6772D
3D35115A
BCF1A7E3
39C62E4D
BD55BBBF
3D89AF5C
BC0A5482

