3BAB7996
3D440D0B
3C732BDC
3CD22EA1
BD2D19DF
BCB24420
3CD9D990
3D3B1290
BCD88A05
3C38D823
3D44F4C7
BCBF91E6
3D83B8A2
3D2BF338
BD041249
3D75AA71
3D028F5C
3C60E304
3C2C42EA
BC187C63
BCC3B0C4
3C1CF13D
3D00EF13
BD28D10F
3D11C4B9
3A44DEC2
BD00010C
3C7C6DA4
BD265061
3D0B3D4B
3CBC536D
3C78FCD6
BD1F86E4
3CA8BD23
BB5B6A1F
3B75D356
3C97C808
3D1BFBDF
BCE5C2D2
3D3A4F87
3CDFAA8B
BB7DF3B6
BBD5629E
BCC5A3E4
3C1ED395
BCB4AEC9
3CBC6EB1
BBF9D2BF
BC8AA433
BD1BA3CA
BD054AC3
BB3B3C82
3CDADD9C
3D8B2B77
3C8B2639
BD76F8F0
BD582667
3A2BF76A
3D754D1F
BCF722E2
3CE9E7FB
BD666A98
3D5C68EC
3B86BDF5
BC67BC3C
3CF89A46
BD66A982
3CF3775C
BD42699C
BD301B86
3DBF0996
BC8E9B39
3D1E13B2
3DB0F302
3C9A1987
BCA515CF
3D15000D
BC3F61AA
3C9248D8
BC1A5658
3C2F8162
BAFD3B2A
3C1B413A
BC157471
BC885D31
3C1EB207
3BD3415B
BD0EE6B8
BB2EB80F
BD0D8A98
BD56A594
3C16DD27
BCAC4502
3BBBD380
BB1A34CA
3D45DD90
BD0DF15A
3AD3CFF6
3CF42DCF
BD03C7D6
BD45D0FA
3C64191A
3D344D44
BD125DD1
3A9E3433
BC1A49C3
BBF837B5
BBFF0026
BC1E8816
BC2F31B1
BC756217
3C051A87
BD614489
BCB93682
3CBED95A
BC77AD4B
BD027B70
BD48765C
3CFC47E5
BB9A5658

