3E04F3B6
3E522AC0
3E32C5B4
3D3AE1FC
3AB77558
BE04D0D6
BE199950
3E64C553
3C5B59E1
3D90B535
BD881E54
BCA5833E
3D12D453
BDBF4FF7
BE5202A0
3DB0AEE4
BD03F662
BE170EED
3D32DECD
BD1349BF
3DB3771D
3DEAFFB7
BE0B27A6
3E036055
BE03D0E4
3DFB2A4C
3E474733
BCF3E0C1
BDCC5DD2
3E57C432
BDAE755C
BE1ACB9D
BE5B8C82
BE430ED4
BD993F6C
BDF4D253
3D60B912
BDFCEEE9
3D7D692C
3DF65466
BDC6CC17
3E20F58A
BB8F4784
BDC20407
3DABED89
BDD0579F
BD7BC073
BE0DDCA4
BC359A5E
BDABBA86
BDB2AAB2
BDC9FF63
3E18409E
BD9A53F3
BE411C1A
3D83CEDB
BE008E35
3D59B51B
3D8D84DD
BE4AC946
3DAA94F4
3D2693C3
BDBDDF88
3E25EC46
3CCA9BE5
3C496283
3D7A2794
3DC02C3E
3E0902C9
3E41B463
3E201477
BC9AB84C
BDE36A15
BDA6728B
BCA2BA4E
3DE9C37D
BDD1E6A1
3E545EAB
3B164D16
3DD59EAE
BE2DB469
3E230D3C
3D8BB2D7
3D5C8A07
3D169995
BD45160B
BE27ECAE
BE07A7E9
3C2E4E36
3CCE12C2
3DAEF44C
BDD5C775
BD853F9E
3D7BEAFB
BD8B3E4C
3D89C618
3E1137AF
3E38029A
3E63BC97
3CE1480A
3DF50B17
3E2E11FC
BD6FB0D0
BD6D9952
3DB27390
BB28D984
3DFF5B18
BD8733B1
3DE65F47
BE03C8B3
BE478511
BD5AA601
3CB4E055
BD5C096A
3E432860
3D2C6EAA
3E588EE3
3E01BD3E
3DCDB1BE
3CC45938
BE0012D4
3DAD8A56
BE07CC48
BE3A48BA
3A36F4F0
BE0F4392
BE1B6D7C
BDE4BE27
3D017413
3E1AB437
3E1F5B61
3E2EB2B8
3D3B8975
3D4FB3E1
3DB3FC0A
BD9D6A3E
BD887CC2
3C6E8B53
3E0E828C
BE1A049B
3DA6CEBB
BDD0BF8B
3CB162F4
3DDC4177
BDDD3D73
BDF5931F
BDD47FD8
BE1111F8
3C62DF5B
3D40925F
3CDCF093
3C6DDB0C
BDE41E84
BE2250E3
BE4A2552
BDB118F5
3C10BA60
3DA3C045
3A4C268A
3B983359
BD84B5E5
BE3D6DAF
3C60C348
3D3EA428
3E442F67
3CBA509D
BE05B3FA
3CBB469D

