3CA5BDAE
BDD02BBB
BC50ACCF
39837747
BD619341
BC30146A
3DC81486
BD607929
3D7757CC
3D5F3597
BDAB7A63
BD04B35B
3DBC4A76
3DAAA44A
3E45A43B
BDA112A5
BBAE71DC
3E33247D
3DBDB6DF
BD34AE1C
BD997E86
3D850F82
3D1AE8BF
BD848EA0
3E18159E
3D14823A
3CBA3B87
3D70B1B1
BD1C8934
BD50B91F
3E0C2959
3DFBC0A0
3E2DEB56
3E437C98
3C3AE19F
BD44DD10
BDA977B4
3DFE7168
BDDC6D4E
3DE36DC2
3D777DC1
3DD8030D
BD96A24A
3D1CF118
BA084ED0
3D9C0FAF
3D606ECF
3DDDB977
3CB79398
BC1CE572
3DC975D0
BDC7856B
3D289F96
3DD2B730
3E2AFAD7
3D8057BE
3E104A8D
BD32126F
BCE79DDC
3D75C580
BDE31C3D
3D1BE3A5
3D7DBA12
3CA37561
BD13F48C
BDB6BDB7
3DA0A751
3D031444
3DFE0198
3DC6AF2D
3CD51893
3C2FD986
3D6A2071
3DA7780C
BC303C97
BDA4A3C5
BC478CE8
BD015D14
BD587A50
BCEA6996
3E52BC7A
3C9DBC5A
BD5023D6
BCD1DDCD

