3D377590
BB18489E
BAF3E299
3CFE9FE2
BC2D3818
3D8E17B9
3C29F8E0
3E044032
BD53A760
BC98B036
3C3F5696
BC3E8362
3D04B87D
BD63FAAC
3D3D6BF8
BD05DFE3
BD62E916
BC95A954
3B5BA5A0
3D7BC6BA
3C95D624
3CBADA3A
BC3ECC8C
3E01B172
3CEB5A2D
3D8005B0
3C7405E4
3DD9B1DB
BD5F478E
BD806AC5
3E1DD795
BC41198C
BBCFCD43
BCC51444
BCC0DB07
3DD819E0
BCBACAA1
BCA29341
3D6F3C7C
3A842419
3CB64D0D
BCB099EF
3BCF31A9
3CB543EC
BC2AE07F
BBB003A7
BD31334D
3D3D7DC0
BC80D393
3C2E354E
BA1C6A21
3CBD85A8
3D84AD4D
3D4D8DB3
3C860980
3D6DCC0E
3CED8749
3DA19EAB
BCFD6F56
3DB30B59
BCE3E455
3C93E262
3C03A5B3
3CDE31DB
3D2D07DF
3C5196BB
BCCA9BA0
BC2FE456
3C85AB1A
3D01E4AB
BD5FB49B
3BF95E62
BC0B1E12
BD88B173
BD1335CE
3D5D7D54
BBF6CC11
BD10261E
3D3A93CA
BB4D63B9
BCA4F1CD
3D392D85
3B67563A
3C6042AA
BD12652D
BC5E35E1
BD15C830
BD19E3BE
BC8902D0
3CC51020
3BF7F2A0
BCFD4BB3
3D2C95E6
3B12FA4A
BDB9A708
3DC96C8E
3D792D18
3D878F7A
BCB50158
3D617811
BD51BD33
3DB04F0F
BD240A27
BC10D7A0
3C8AD280
3D3E834A
BCAAF897
3C87FA73
BB71D27D
3CD10C54
3CDFEE0C
BD6B0365
3D33C6B0
BCF2FE2F
BC8F639C
BD1DB019
BBA7547F
3C965E68
3C523A49
BC6BB0A7

