3BC85821
BB663777
3BFFB474
BB373153
3BD42CF5
3C363E82
BB47A58C
3C57E2F7
BC184073
3C81349E
3BE3FF39
BC6BC034
3CA7E8B6
BAED42E3
3A9167B0
3B98FDED
BC6CC7EF
3AF8AD56
BB50EB08
3BFE4298
BC1DF942
BA86F823
3C1E9DE6
BBED2177
3C3FA377
3C3F05EC
3C709D69
3BEE6AD8
BC370726
BC11A634
B96CFEB5
3A1B5234
BBEAF5EE
3B749AF5
3C00BC67
BB91850B
BBC45EE9
BAC2EE53
3AB22519
3BB18D88
3C2D0CCD
BB9ADA1F
3C7173D3
3AC1FB22
BC43520F
BB9BC9F5
BB0EF5F6
3B96E5EE
3ACE8905
3C42A1B2
BB9B2D22
3B8FBEDA
3B29BC4C
3BC6B546
3A163534
3C3726E9
BBC697B1
BBAD06DD
3B84736A
3C0D6D0E
BB8A2618
3C01AC35
BB1C67D4
3B0D0B08
BC86C2D6
BC095872
BB7B47EB
BB5B0716
3C5A633A
3ABB02EC
BC53EBD2
BC811902
B9130503
BC62074F
3C02FEC8
BC583F09
3C9C0546
3C54A602
3980BDB0
BB92D28B
BB2F716D
BB9D3D3F
BBAF3A1B
BB8571FF
39F4B7E9
BBB547C2
BC5C9575
3C6031E4
3C1AF816
3B3EA0F6
3C1DC2BD
3C4C6DA6
BC109398
3AB5D4AF
3B4C7094
BB0BF677
39C95C14
BC648AF2
3A820013
3C875F9A
BBA9D363
BC803F18
BB3355B1
BB997A8E
3AF9D8F1
BA32D282
BA370E01
BC41510C
3975DCDE
3B28EB22
3AF90528
B63E0685
BBD7A6ED
BBDEA586
3B0D2C18
3B90D146
3B94D0D0
3AAFCFD0
3BDC9994
3C789D8C
BAFF8482
BBF355FC
3AA05535
BBD2208A
39D17A1A
3C01FEC3
3BEBFC27
BC3076EB
BC06FCA5
3A8753A0
BC70F813
3B48F482
3BB005E7
BB665D55
3B04B99B
BAC52396
3B16C972
BBA2BA35
3A601588
3C827E04
3B3E9E32
3AF4BEEC
BBDB55DD
BC1BB60B
BBC5A9FD
3BD39946
BB90A3C6
3C142439
BAB1BF78
3C28C00E
BB59D9F7
BB16F793
BBB86E3D
BBC71055
3B8276B3
BBCA3FF5
3C08DA36
BBC1CB23
3BB636C2
3996E470
3C7AE28E
BACA1CAE
3C65FC58
3B3DC2DC
3B3C1EA8
BAAAA17C
BB0AD730
3C230AF5
39A31C39
BAB8AAED
3C5DCA55
3B821521
BC0B2C3B
3BFCB989
BB8174CA
3B78D00A
BB385F2D
3C841137
BBD8F5AE
BC21B1BD
BC6B3379
BC56326E
3B8BFD5F
3C349F7E
BB4ED26D
BBF28CD0
3C3C870C
BBDEED87
BBFE876F
3AC7E69E
3C474ABB
3AC6C6F5
BAB3EA5E
BC25EE36
3B8D1E13
3BD0150F
3B87B37A
3BD5381B
3C186738
BA9271B4
397B8A26
3A9BECE4
3B7F959F
BAB092E0
BC159D71
BAE0EB74
3B956B94
3CC4A49A
3B42DB84
3A81EDFB
3B9FF3AF
BC183F2A
3C586806
3BE9E3BF
BA686024
3B070D76
3A1BBED0
3C6A7EAE
BB5786B9
3AD7C221
3BA62686
BC0BFAC9
B8645802
3A9361BA
3C0AE3A8
3BA41D19
3B8BFD5C
BC1B6CBB
3B42C9EB
BAD9A636
3AE03104
BAB5A6CC
BBC208B3
3B96B40E
BB4569FD
3B8F0096
BB9A7307
3BBF5B01
3BF8D369
BBABD701
BA2F9FA0
3A006E13
BB7F5431
3B385100
3BF66A4A
BC207F24
3C3435AF
39D007F5
3AAF097E
BB7AA44E
3B885092
BA7BE3CF
BC8071F6
BBA11588
BAFA4F53
3C750127

