3D3414DC
3D7EC5D1
BCA940F9
BC9623A4
3D8F5283
BD0230B7
BDF42C3D
BBC99833
3CFD019F
3D927835
BDDB1139
BE1D3797
3CE077EE
BDE00E83
BD9D87F4
BC9C0B48
BD84E41A
BCBE38CC
BDF26569
3AA2A6E5
3C8A1FA1
BD6800DF
3C9F774C
BC9D347F
3C5D7BF8
BCC2CDB7
3DE72A92
BD3F6F3E
BB8CE63C
BD133556
BD89AD93
BDA0B7BF
BD3CD326
BC757789
BD85D7F2
3C1E80E6
BC873BFB
3BE041B7
BD34EB89
BD730BB9
3D7D2FC7
BDA8152A
BD9D02F9
3C26314D
3CC8ABD9
3B2B4466
BCC25C75
BCC02329
3CDEE653
BA15532F
BDBF2698
BE000E8F
BE1CC315
BE0F5953
BD1D2B2F
BD0377C8
3D20F002
BDB1DF01
3CF33431
3DA612EF
BDB6BB96
3DE060FC
BDB3B801
BDA0F148
3DB3FA33
BD05597A
3DC357B0
3E803285
BDE6E946
BC19BA2F
3E4EE601
BE483834
3DA9881D
3E5162F8
BD9ED892
BC3412BA
BD3397C1
BDAD868B
3C6C9813
3CE682D8
BCEE66A3
BD8904CE
BB1E29FE
3DB0494F
3DC754B2
BB9E522F
BD06086F
3DBADDA7
BD8C0AC6
BC2F5BF5
BD7E6BC6
3D109DA4
3D6D1C83
BD1AA0FD
3D804DAA
BD60CFBB
3DC37078
3C7C9726
3D125858
3D11BEC7
3A8ED0CA
3CEE793B
BD5735C1
BE230F66
BD5CFB49
BE042FB2
BDF83FA5
3CBDAECF
BD8F19CC
BDB44695
3DD725E9
3C89EC08
BC317B11
BD006DBD
BCDF8731
3D59DA95
3E0721F1
3D5DC79B
3E229494
3E0947F4
BDA654A3
3C0D9D32
3DD6C5C9
3D66FE69
3D447417
BE746C04
BD334BCC
BDED5C03
3CB57D24
3DC2EFC3
BE37A255
BE3D9D7B
BD64E40E
BCD28D46
3B8C8756
BDEFF0E7
BE0C3B03
3D58F92E
3DA609B8
3D625A59
3D7C7D1E
3DC8890C
3D2C0A0B
3D480B36
3E1293AB
B89EFD4B
3DB5BF46
BCAC42E6
BD8994E1
3CF02C74
BD8C109E
BE054883
3D64BA3E
3D28E54E
BD966A90
BC07C76B
BD0036E3
3D4D8FC4
BD1E6A7A
BDACED0F
3DC7DA91
BCA1A1B7
BD734C9F
3D3B7E66
3CD3E58F
3DC3367D
BDC21E73
BD8F599E
BDCC490B
BC156B68
3D891FAC
BDB970A7
BD76D759
3C92E483
BD601362
BCBF575C
3C59DECA
BC8BF9B1
BDED9151
BCD1B8A3
BD2AA481
BD4BFFCC
BD9F0432
BE00C150
BD9B014A
BD8B4146
BDFE641F
BD90BD20
BE0F83CC
BD03D0CF
BD9037CD
BD2361D4
BDCD1660
BE089DB2
BAD9729D
BD151170
BE106678
BD5B0BEE
BCB23CF6
BD960757
3D02D1BB
3B186E7B
3C84F01C
BD9D60AB
BD7773E8
BDAE65B6
BC7596B2
3D8B10D1
3CCB49B5
BCF0B653
3A5900A7
BD2A9766
BD8194FC
BD162EBF
3D8295EB
3E0F894F
3CCF344A
BD856E39
BCDCBCE9
BD2C369F
BD14012C
3D0EC3B5
3D442895
BC1A7C3E
BDEB059F
3BA76E44
3DBABE86
BCCA8AD8
3D98B790
3A6FC33E
3D57F732
3E038206
3CCB83A7
3C0D37F9
3CAEBEEA
BCAF065E
3DB1D68C
3DC89A07
3D7DAB64
3D0F7DA7
3D9C7BEE
3E0C4148
3E14876A
3D4F1FB1
3D66EA80
3D3219F0
BD15BF77
3D8D666F
3D7FAE11
3D667918
3D767EB6
BD37FBCD
3DB127B6
BD4D305C
BD1AA721
3E18B59F
BDCA748C
BD5FC01F
3CA1229A
BD86AF3C
3DE2DADD
BD141DF8
3C5BC3D8
3CA08488
3D24FB19
3C84ADDD
BD4C2A82
BD8ADBB3
3CE56D77
BD744A8B
BD5F9458
BD5476AE
3D7A7083
BC3D505B
BC9AC007
BC5F6368
BDBCF14F
BDA11BDE
BD8B1AED
3D6D5FB6
BD2E0C31
BD279D12
BD19214D
BC89A7F7
BC9C5ECF
BD64F19C
3D1A86B3
3CCF65C6
BD7BB4D4
BDB236DA
3CD56BE4
BCCBC4DA
BD454392
3C861F6C
BD9E2AB9
3DAFC494
BC91E57D
BD4EE326
BD3A6EA8
3D9382BC
BD91CAC4
BD8F769D
3D449304
3A58A628
3C84B659
BD8170A0
BDF538F8
BDF0ABB5
BD6ECD60
3E616C12
BD48BD53
3D42E092
BD0078F8
3DB35E09
3DE3409D
3CA4667C
BBAA8413
3DF39D09
3DA9D933
BE18CA9C
BDBFDE89
3C148D6F
3DE3CFFA
BDD1BCB2
BE1FB11D
BD29F381
BC051D15
BBF1E97C
BDC36FDF
BD3DDA95
BDAB0D73
BDA24D35
BDF26E0A
BD14FAE7
BE279258
BDC33AE8
BDBC1CAC
3C27029A
BC04BBBD
BD911822
BDBE2B75
BD51348D
BDCAE043
BCCFE68B
BD0221FF
BD7FF053
BD096585
BE02AFA9
BDEC6F8D
BDC05A3C
3D8FBC13
BBA81E9C
3C4968D9
BD09D8A3
3D637D0D
3D075E9C
3BCA593F
3C081E61
3E00B6A5
3D53C0E3
BD689632
3C26E010
3D96444E
BD444D9F
3D32F264
BCE899F0
3B2E5930
3D016273
BDD45A99
3C61C2ED
3E1F1B69
3E02EE52
3DB45D6F
BD6A3350
BDC01F65
BDAFC9F3
BCAB1BC1
3DBCB90B
3DD05506
39A9226F
BD2265BA
BCF7E4AF
3D92E43D
3D004A22
3C973CD0
3C96F65A
3D5A4986
3D57AE44
3DC726B2
BE1C6DE2
3DAB1372
3DFCF72A
3D7DD522
3AE22283
BD2D38EE
3D9ADA1C
BB3F6EE9
3D336EDB
3B3F31AF
3D441955
BD846CD6
3D76DCA2
3E238565
3C8B1ACE
BDA25551
3C00680D
3DBE757F
3D0B3AC8
3DF46C6F
3CF4B9C1
3D279C91
3DF33C1B
3C79287A
BD563F5A
BD82D99B
3D3DC031
3D118899
BE1754D4
BE6663F9
BD29AFD3
3D853A7C
BD9495A2
BE14221C
BE6A09C2
3CC0489E
3D84CFA9
BC479E45
BD898C39
398EC9C1
BE05053C
3DD52E12
3CBE407B
BDD83BBC
BD4C7C28
BD643E88
3BBD9919
3CF7A69F
BC05001B
3B8809D5
3CFA443E
3D0C9536
3D4F7AD7
3DA5A1AB
3DF6C340
3C52B45E
3D78F958
BD32A90C
3D347D9A
3D06B2C7
BD490DBD
BD23BDCF
BDC65E34
BE084B66
3BA45046
3D516F42
BD2CA7D8
BD6EB279
BE38F00A
BD11A825
3CE9A409
BDCB261A
BE5A3B2D
BE74EAFE
BDAFE108
BC9B0B91
3C5CB624
BE1B5A69
BE30782D
3D030DA2
3D230932
BCCAAB04
BD23FA66
BDBC3BD6
BD8EC079
3D1F0138
BD447CDE
3DA97CEE
3D10950F
3CBFEBA5
3D75F089
BDF0960E
BD3664F9
3C346A48
3DE33D77
3DE036B6
BC3F47F2
BC8F9333
3E100530
3D84EF6B
3E04B324
BDB49765
BD418EFF
3D3C845D
3D742CBC
3D85E2F6
3CBA90DC
BCC3C5FA
3D72AB4E
BC8F9950
BD5AB534
3CCED630
BDFFD3F3
BE6A316C
BDDA9390
BD7F1BAC
BD85FF6B
BE074ACE
BEAC4997
BE67894A
BC04D3FA
BDDCFAE3
BEA0AA3D
BEAB4B71
BE89A5A0
BE2CF372
3D3B902D
3D3106D4
BE0C6A2A
3CE2C1CA
3D13A8A9
3EB3E110
3EAEBA94
3E3DB9E6
3E0AC855
3E5792D5
BA1A0404
BCF3D56E
BC83815B
3C9C69D8
BC111D18
3CA6460E
BDF4D3E9
BCB2ECD0
3C8FBEF9
3DF61686
BDA835B7
BD8DA177
3CA81877
3D8F3CA5
3DDC6B9B
BDD626C4
BD396E9C
BCE992E7
3A9FD372
BDC58AC5
3DA61E6E
3DF9CE25
3E05F3A8
3E1BA40D
3DB1CAFD
3B403D6D
3E2FF4E7
3DC59F72
3BF6BD15
BE19EC2A
BC28302F
3DDE51D9
3D106995
3C76E73F
BD4F5EDB
3D809E62
3E0F98FA
3DE02E09
3D3B8C0B
BDABFD6C
BCB3701A
3E11476D
3D447D1D
BDB5E3E2
BD86D9F8
3D32A236
3D153E6D
BCC29084
BD537DD3
3C1D39C5
3C69A913
BD8B1448
3CAB8535
3D454E15
3C6377B6
3C448AE8
BD685106
BD0DB035
3DDBB0B5
BCDE6810
3B196756
BD82E94E
BDD21CF0
BD87D00D
3D32EF89
3BCC74C8
BE0180C3
BD8C037E
BDB8F607
3DDEA928
BE280390
BE238F08
BD97DC67
BDBE19C4
BD910457
3E1E8604
BD8E346B
BD4E0D41
BDC6A0FB
BDDD08BE
BDD3236E
BD8C0531
3E89A706
3D5CE8BC
BE421F25
3DDB663E
3E09B01B
3D5B567C
BE1F9F13
3CEBFF17
3E048452
3DDA005C
BE13EC09
3DDA54AE
3E0497C0
3D27D19D
BD88A218
3E032E27
3CC469AE
3D88F28A
BCA00402
3C73226F
BD39A32D
BCCC207F
3CC3AB7F
3C39EC8E
3B3D1B9A
BD318BDD
BCB824A7
BD880FBA
3ACFE823
BCD63A5B
3D8A818B
BD4A67E4
BCEB37C3
BDAB4EB1
BDA8040A
BD1720E2
BD1DB3B3
BD025954
3BADCCCD
BDE6CC9F
BE0BBE6E
BD9290BD
3C074044
BD01FD60
BDA4F8DF
BBCAB787
3DC71155
3C360ED3
BC9A1E6B
3E05187B
BC186203
BD88EC46
3DCEF83E
3DA89604
3CFBA163
BD867CE5
3DB82166
3D49A194
3D4F50FE
BD248320
3D017CD4
3B3A283C
3DE2C7A6
3CFFA98A
3E1A2CC0
3C3A89CD
3CBFD6BF
BCC1A543
3D5BACCA
3C658247
BB96E486
BCED7927
BDA784D9
3C527B64
BD7AACEC
3D1EFFFB
BDFB3238
BDB8BE7E
BD99242F
BE02450B
BBE7B260
BD92D13B
BDA93847
BD2B9BE3
BD88D375
BA8CB69B
BE122EB6
3C20D836
BDF18F3A
BD9A9EF6
BDA4A7AB
3D155DDD
3D1A58DC
BD9657A2
BE2C83E6
BE053DDD
BD6A700C
BD55CE6E
BC9EEF0F
BC0AE580
BDB81C48
BC6386ED
BD50AA9D
3BE82B43
BD102190
BE116B58
BD43FE85
3DAFB303
3D2AB02B
BE043663
BE05987E
BD452356
3D73EBC0
BB9C3B69
3D0BE89A
BE39587F
BDCF3AA8
BDAF0BC6
BE1F1092
3B08EB6A
BDAAB50E
BDA61792
BDB44824
BD333BA3
3D0D9405
BDC8C9B3
3E07C804
3D642EB8
BD802F71
BCD8B336
3E1DC07E
3DED9F5E
BA999246
3C0F5A39
3D9C96F4
3E2D0C92
3DF5EA91
3E812A84
3E247A8A
3D826C8D
3E06CB05
3E6441ED
3DF816B3
3D1386F7
3C661B89
BDC256C5
BD314CAE
BCF4AF78
BDC5AEDF
BDA72951
BCF4C3E5
BD87ACA4
BE3436C4
3DB2475B
3E0A3C6A
3DFB0656
BCE70553
BE400E2C
BD3C8E07
BCAACE7F
BC6AA54F
BD120C6D
BE1F6998
3D95E6E3
3DA8748A
3D69A04C
BD13B353
BCB7F849
BDC3FEA7
BD1CCD25
BB938730
3B720E31
3E10C351
BD96AAD8
BDD32E8F
3CE47F25
3DA55E7D
3E12816A
BD953C54
BD9DC72F
BD0B8A9C
BC9A3E03
3DD4A162
BD50D078
BE018C1C
BCF1F4D1
3D0987E8
3D02B4D7
BC3E09D7
BD62A37A
BDB34098
3D7EFA41
3D740F30
3DE828F5
3C9F0C27
BCA17678
3DA9AB98
BD08F172
BC8B97C3
BD8A73F7
BCF9173A
BCBBD428
BDD24CD8
BCC4F45C
BDC7FB17
BDB21420
BD456756
BC5499DE
3D9DDE1D
3D974139
3E02CB3F
3DB3D1CB
BC3C9A1D
BD66530D
BD399652
BD185444
BD9CA315
BE0B55B9
BC8DA7D0
BD1D7919
BCB370AC
BD8924B5
BCD0B6DA
BDD2D5E8
BD5DE2A9
BDA7491E
BD7B2C38
BD130B7C
3D07EFD0
BDC53189
BC8CF917
BBAB7CD7
3D12C22E
BAE96386
3CD208B4
3A575B19
BD869479
3D579B6C
3DE5FB6E
BC4B446A
3BE7CC0C
BD94DE68
3D818E77
3CAD7B96
BD933ECC
3BD5DEC1
3D1EED32
3D400FD3
BDB9C956
BD5CEFEB
3C5A768D
3D199F2B
3CFE7ED1
BDABEDBD
BDF07470
3C8B2C67
BC311D22
3D8F9BFA
BD5D8D0E
BD205C80
3DC24E6D
3C22E375
BD5ECD2E
BD5E2F7A
BE2877A4
3D2FF430
3D26DC15
3D7CBBFD
3DD6C12C
3DBB01CE
3C8A0082
3C85ED5E
3E19DA2E
3C28BF45
3D60DEE7
B9E45C59
BD4AE799
3DBC240A
3DC9F00B
3D1308BE
BDF5DB7A
BD1B7873
3DABDC43
BD1A06DF
BD5C80A1
BE1EB98D
BBF0FA03
BD0F6FD6
3DA54511
3D46B0CB
3C822C6F
3D5B0A21
3DCEF2E5
3DA8D8C6
3E3AF6C2
3DB7587F
3D8E0AD6
3BF81DF0
3E08F825
BD855572
BE2158B5
3D9E7AAC
3D8E64F1
BE808DD4
BE42379D
BDA9A346
3E306172
BE1680C6
3D36BA1F
BE543D0D
BB652C25
3B5F06F6
BD9B8B5D
3E0E8AB1
3D243043
3C8FCCDC
BDD3217D
3BD87C82
BD971F8F
3D45F736
3D56FA9F
BD6663CB
BE0D377A
BE1980F8
BDFB4163
BE3E13E7
BC5F5997
BD9FADD0
BE5FE4CB
BEA54A30
BDAE2DE5
3A21DD1E
3E0099D7
BE2689DB
BEBC2BEF
BD8D1F42
3E5E857D
3E7BE773
BEABC940
BED0DC25
BE40ECA9
3DCF475C
3D54BDEB
3E3D39C4
BD5EF8ED
BE07AE2A
3D4E5A94
3E2EF17C
BD4E31F2
BE3CE03B
BCC3CB2E
3DBF7DAD
3D9DE41E
3E0ADBA5
BE550761
BDAFACB3
BE00C662
3E354BA4
BDC0B8A7
BE04BD06
BBB0BA9A
BCE81F3B
3DABEC8D
BC509EFD
BD429E65
3C3C54A1
BDD3BDC0
3DB57BB3
BDEBC624
BCC05CF0
BBA17D36
BE0162C7
BDB924A9
BE0261A1
BE02B3CE
BDE1AB58
BD46F124
BBDAD7A4
BD68E93C
BDE535F9
BDB9B63A
BCCD01F5
3C460A04
3E1136E2
3C8296F4
BD5D49EF
3E4458BE
3DFA25C8
3E47F2BC
3D8A17AB
3D31F30E
3EA5DC91
3E4CE080
3DBBC508
3E01D899
BD4818A2
BD78333D
BE773DAC
BE6BBE02
BE63F6D7
BD90613D
BE021CF5
BE1C7595
BE6847C2
BE8262E7
BDE9CE93
3C6E807B
3E35E62A
BD30C643
BE172953
3D5EBD79
3BC6F09A
3E8C7287
BE189939
BCDE88AC
3D3DF6CF
BD39A2BF
3E5A8F95
3DA8E04E
BCD9F8B0
3DA98010
3D6A89A1
3D56F2DF
BD525E6F
BCBD9772
3C670CD1
BC4CF832
3D55092B
BD524997
3CA0AC21
3D3D4786
3C3F3AE5
3DB759A6
BDA89A84
BD8B1F64
BE34B021
BDA2BAC5
3D8B895D
BDA65DB4
BE1AB5DD
BE2B1B53
BD30DDCB
BCF88439
BD334FD1
BDF01A4A
BCF1B6EA
3E3326F0
3E044C31
BBD2E604
3DC7F671
3E09F745
BD9DB7A7
BDE1B6B5
3D721FC8
3D3B51BE
BDB9CB11
BDF093FE
3D3157A7
BD9717BF
BDA2992C
BD833AEE
BD00058B
3E175662
BCC5C1C5
3CDDCECD
3D0EC7E6
3E202598
3E07A835
3DC8351F
BDCEE3D4
BDF6AEBA
BD574C66
BD34B8C9
3D652FC2
BD351F18
BDD850FE
BE606AC4
BE3C51AE
BD37026E
3E105AE1
BCF65154
BD339CFA
BC4D5D78
BD38329B
3D9F9B25
3DB49DBA
BCC14A52
BDC22CF0
BDBC26C9
BDAB0C62
3C924D6F
BD8A4F06
BDEBC43F
3DF61C6A
BDDD4D18
3CA34CC5
BDB8ED56
BD0CFFCC
3E5ADDAD
BD428BAD
BDC9F0AF
BE107998
BD34BEE1
3DE025A9
3D02FF0E
BDBD96AD
BD85F331
3D881C79
3DD30E6C
3DA2DD08
BBE92D53
BD09B5D3
3D2F4DEE
BCF91D6E
3B884808
3CFBC130
3DBC1916
3E119F61
3CDF0767
BD909CC8
BDCACCD9
BCB0756A
BE01361D
BD69E3EF
3A7DFD5A
3CD8CB94
BE22E4CC
BE00C25C
BC4CAD06
BA1CD998
BD860208
BD81CD63
BCB03B13
BCEA4C02
BD3253B4
3D87ACA7
3CEFD965
BC8200A1
3D35EA0D
3D4D0F02
3CAD2B3A
BD6CE608
BD8EBF9E
BE2D6839
BDE6FE7E
BDFC311D
BE026E85
BD1BC944
BD25F562
BD03B7EA
BD900CF2
BDF04188
3C556BB5
BCC02D28
BE1A293C
BD9AC351
BDE25E09
3D96DCC2
3D8AC032
BE2D9CAF
BDAC7467
3D28D903
3E1AF14E
3DFDA4B1
BDFFE9E3
BDA0589B
3DE04274
3C7F8D4A
3E74FBC9
3E283EA6
3CA41940
BBF76775
3C4CC73F
BD006D15
3D58573E
3D1C7E2A
3CA8E414
BDCDB701
BBB425AC
3D4FD5B5
3D835297
3D879816
BDA7740D
BD9BAC43
BDDEF3C7
3D68F2B5
BBA55E58
3BB31DA7
BD945131
3C429826
BD090A6B
BD90C63B
3DDBDB0E
BDDB27A6
BE0C7407
BD785AB6
BD2912A3
3D2D0F10
BDFB1387
BCE36DEF
BD90EADB
BE694A29
BDF108FB
BDD94F59
3DC80392
3C8B7D71
BDBBFF93
BE82D711
BDC94D23
BE267C1D
BDEBF246
BE22FB57
BD1F5F98
BDB8F8D6
BE6DDF79
BE26A7E0
3CB77778
3E396CB3
BBB4625D
BD0D08FA
BD4ACFC8
3D822672
BCE05849
BD142C0C
BDA1CDAB
3B02B545
BCF8B197
3D5DD129
3CEECAF1
3C17A777
3E131396
BD8903F0
BDBFCF73
3DEE870F
3DF9BE56
3E32EB5A
3DCF6A60
BDF5FF0F
3CAC0034
3D7F88A0
3E94E054
3D90D232
BE0EDF22
3C5FB32B
BD29C529
3E15DFC7
3DE7517B
BD29F638
BCEC65AB
3D795325
3DF1C652
3D7BEDAB
BE0F1E47
3DED6A49
BD500225
BE20385B
BE29011A
BD3C6530
3D0326C4
BE178D41
BE93A56A
BE2F3536
BE1D8B39
3D17BDEA
BD8FD1FA
BE63E06C
BE077A43
BD814B33
BE097368
BE489069
BDD7FEB5
BCB9C0ED
3D544429
BE4F5DB4
BD96A451
BC826F2B
BC702D3E
BD511BCD
BDAA4F5D
BC87F9F3
BB9E010C
BD70E30A
BDD1EEA5
BE048673
BE5E7628
BCA80970
BDA8E49C
3D804EEF
3B90B887
BDAD819D
BBF96E8F
3D7B4FF4
3DC9AFD5
3DB1A357
3E047852
3DA612C7
BA1C6206
BE123456
3DC2FB4E
3DD82CC2
3EA58C16
3D5A202C
BE392A67
3E05F6E6
3E03D75F
3E92C8CE
3C7AD59F
BE2E7EB9
BC9EE364
3E188E14
3E4B8EEF
3CF89E95
BE3E0104
3E05EE49
3E39EC7E
3E82A1C3
3DA3FD2A
BE0EB404
3D73ADC7
3DFD280A
3DA20DA0
3E20119D
3E0B2357
BCF18762
BDCC1107
3CC98BDD
BD1867CD
BD0090A8
BDBF8521
BDF075A8
BB6ACEA6
BD0C599F
BB389921
BE095DF2
BD138250
3C97845A
BD86ADFA
3BE29621
BCEB5C48
3D294428
BC2529BB
3D96C762
BD3366C8
BC65B6BE
BD23FEBF
BCCB365B
3CDDF388
BDA3C5FC
BC467653
3D185029
3D179320
3DBC0F9D
3DB96D37
BCFF0FBD
3E05A028
3D9FB206
BD408B81
BCA00D6D
BD9D9033
3CA21220
3C647E42
3DD4B054
3E10B50C
BDBCE878
BE13101A
BDED3574
BD79E265
BDF96A90
BE2E5C83
BE0F020F
BDD896D7
BDDB16AB
3B1C331A
3CCCBFF5
3D9AD8F5
3D145E49
3C350489
BC66933A
BDBA7CD4
3C5F0EA5
BD24352A
3D6975FF
3C1EE3B2
BB61F06D
BCD09FD3
BC831B7E
BC328DD4
BD4428E7
3D9826E8
BDD40E52
3C81E069
3BA5BD23
BDA1352D
3E1A81ED
3DB57DAF
BD1F274B
3C6B5609
BC03DCAB
3CD1F096
3BA1FADF
3E0BBA04
3D12714A
3CE84DF9
3D9D8C60
BDC181DF
3DBA9267
3E0CA1CF
3E59F5D2
3DC151AD
3D7110BC
3D599891
3CD94AA4
3DFF8078
3D056890
BD37586D
3D2BD2CC
3E04FE54
3DDD1EAD
3C5620B1
3D8C1632
3D14ED62
BD87BDB6
BD3CB291
BC812845
BDDA5085
BDA3BE65
BE641F5E
BDAB4A22
BD5AC159
BDC314B5
BDA24FC7
BE08811F
BE2A94F3
BDE1E9D4
BE0E4FDF
BDE3F6B3
BE39BADF
BE763C38
BD4CE748
3D53B90E
3CB922AB
BD77C79E
BDD8899A
BD9EE842
BD171C1F
BDFE28D1
BE4ABF8B
BE333240
BCD584EC
3CA17649
BCEC2C81
BD946194
BDBBEF19
BD35B106
3C2F801C
BC4184D1
BD897B8E
BD74E44D
3D1124A2
3C574BC3
BD8E8CE1
BD43A02C
BD30DD26
3E670D84
3DA901A3
3DCEEBF7
3D117831
BD5DAE6B
BDE6A1EB
3DB5804D
3D24D4D6
BC6B4757
BCF6A79F
3D60A673
3D9F63E4
BD89F219
3D3D8374
3DAC4687
3D8B537A
3D32B2BF
3DD32947
3CA020B7
3DAEE666
3CD1C143
3DA39124
3C0578A3
3C6AC76E
3DD3BFBD
3CFF9E45
BC6942D9
BDD726C7
BDCBFC94
BCE89445
3E2439F0
3D146A6A
3DC84B6E
3BA715DD
3DE30315
BC8342E6
3CF7F9CD
BDABC92B
BBC4D56B
3D36D76A
3C4F4CA5
BD152A65
3BBF48CA
BD96A781
3CA68CC2
3E1388C0
3E069C0C
3DAFE5B1
3D998DA6
BD9F4AAF
3D5E0DA6
3E4E9256
3E625D79
3E4F0B70
BC39E3EC
BCE83C87
3D4907D6
3D0DCDF1
BC1B6836
BD829151
BDA0740D
BDC2D7C7
BD27FE74
BD30446C
BC0EE0B3
BC35DEC8
BDDE52BF
BD9F9C69
BCEF3959
BD24D07D
3D8DE133
3D0E826B
3D09FEA5
BCBDFFC5
BD4D8900
BD959262
BD98E451
3DFF52A6
3C0F006A
BD621DFF
BD9576C4
BD9AA582
BD6E1E85
BC8E30B4
3C5E9515
BD4647D6
BE0F5BE1
BE4824C8
BE401476
BD57025A
BE02E159
BE277909
BE29E630
BD3EBC44
BD928F17
BD931DF6
BDCB2DCF
BDB48FF4
BD8A1A98
3A170B50
3CA70920
BC995AFD
397F0527
BD3B7F21
3BED12B7
3DCE806D
3D9D80BC
3D9E83C7
3C39A8C6
3DD40893
3D0B3A63
3D9EBBA0
3C8132DA
3DE98505
3DBE8137
BDB24FE2
BCF43F61
BD1142CF
BC776C0D
3D752CB0
BDABAAD4
3AAAB8FD
3C2CF894
3BC78E2C
BE00507D
BE20CE36
BD29A3D3
BCB2C034
BD7E1C1C
BE0FF33B
BC24A3A3
BD8C94C2
3C77DF06
3CFB7337
BD3BB9D5
BDA1F535
BDE9462B
BE545122
BDF8FCFF
BD2F55C8
3D7BF2FD
BB7657C2
BDF9862C
BD9307F1
3BFADCBF
BC930B7E
BC240472
3CAEA3BD
3D6D2E8A
3D16EC54
BDB43317
BDE15AB9
BD68957F
3D681559
BD07D72F
BCDA4269
BCF25B79
BD44E54A
3D0E88CE
3DE0921F
3C8016E0
BD941A5C
3CF19D3A
3C4CC5B2
3C308CCB
BC546E25
BBFAC9E5
BD8AEC9C
BDCD5A4C
BD2A115B
3C31F25B
3D64851C
BD2F2AFF
BC183901
BD3F7A3D
3DD16490
3DBCC634
BC20E2D3
3DB91880
3DC7580E
BD4E7341
BC37637B
3D54B746
BC68044F
BD46CCF5
BE77FCB9
BDA90803
3DD83621
3E1134E6
3E0F0FBB
BEBA92F1
BE50D57C
BCF510E4
BD574466
3D3534D0
BEA1F2BD
BE05C4D5
3C555F64
3CB26036
3DF40A1B
BDA25803
BD40259D
BD38A284
3BECF616
3C9735BB
3C90BA43
BD854F19
3CB438AD
BC99FD24
BDC4E67A
3DED3D15
BD300D6F
BA38F96F
3CD1827C
BC90581D
3E059A17
3CA58177
3DEFBEF4
BC5537E8
BC379465
3DC0C191
3D8DA84C
3D5A7CBA
BDA1F5DC
3D39D782
BC83157A
BD19148E
BCD77D2B
BD088995
BD065881
3D16D877
3D0F4D86
3E080B61
3E44F345
3DB2E6E9
BBB114CC
3DF0D60B
3E0683AF
3E05A716
3CDF36DF
BDF2DEC3
BDE281E1
BDD951EA
BD998C98
BE1C2208
BE0A48E8
BD2A5D3D
BD671CA1
BD015299
BE1F3895
BD926823
3D5F9A3F
3E305E05
3E394217
3DACA822
BDBDF351
3D11E88A
BC3E144A
3E0962BC
3DBEEDEF
BE123297
BBA544DC
BD65F4F9
3B1B17E8
3D184CCB
BE04CC5E
BD0CE62F
3CF6906E
3D8203C6
3E1AAE19
BE118401
BBA69724
BD835D38
BD2E980F
BD095833
BCBD4F4E
BD32D77C
BDB2AB5D
BC99C77F
BDD59818
BD0B6C2C
BD8F7CF8
BDDAAC5B
BD38FDC1
BBBB6974
3C9439AB
BDA8942D
BCFDF4AC
BE40E8BD
3B4DC8B0
3DBFBFFD
3D121184
BD56BD1A
BDAFC1E1
3CDA0B8D
3DAB5EDF
BDDF18CF
BE066C89
BD82B51A
3D83C0B3
3C418897
3C8AA7F5
BCC88BD8
3B622DB5
3B74800E
3D3F9C61
BD5C1D41
BCE74C66
3C0224DB
3DBE41C9
BD8C62E3
BD87D744
BC59723F
3CD2DEC8
3D99B1E9
BBFD5839
BD20FCDA
3C8C39EC
BD02F58C
3D2B765D
BC317919
3DBCB738
BD009803
BD130C37
3C797A74
3D1AA37D
3D438728
BD3CB2C1
BDBE3BFD
BD2C84DD
3E4F6E90
BD6EB8CD
3DE711D0
3D65366D
3D6B3BB7
3C4F918E
3D72E871
3D02B5FA
3E3D4CC5
3C648526
3D96B73C
BD06DEC0
BD30DEBC
BD20F552
3E0B6785
BE045D68
BD8ACE15
BDA00345
3D61DDD5
3D60F8B7
BCCDC15C
BDCB8859
3B9D674C
3B2496BC
3DD5A909
BD6A0B15
3DA8D879
3DBFFCBC
3D86497D
3C8BE696
BDFEC624
BE0BD551
BE012CEB
BDA630B0
BDC9C8AF
BE0882DB
BE8E581A
BE93B212
BE76D01D
BE098BE5
BD68F706
BE2CF8EF
BE9C8E8F
BE1B042A
BC8297FC
3D8F2A94
BDB90873
BE3EFE15
BDD56F24
BD784138
3D92B866
3D72E388
3D593B30
BD1855BD
3E18966A
3E3A29A4
3BAE739F
3C89B1F0
BDAEF700
3D505B17
3D16B6FA
BE00E8A2
BD053928
BD2E2AF3
3DD5FEAE
3D740E70
BE3652CE
BDBAB26F
BD4459E8
3E286615
3D9A596E
BD13B7E0
BDFEF667
BD6F6BC2
3E16EDE8
3D8EF770
BCFAE937
3DE747A3
BD146009
3DAAB55B
3BCCB228
3D9F7795
3DBAFDF3
3A96776D
3C34A38F
BD8D7124
BDD148BF
BDBA49B1
BD51D270
3CFD7CEB
BC1144D3
BD5584DE
BBB0DC64
BC4DADB4
BDA4D426
3DF81FFE
3DC3B854
3C118400
3CB46159
BCAE2B4F
3E43E93C
3E05496E
3E693A91
3E2645D5
BD073032
BE1AAC3A
BD3308E7
BCB66A84
3D3FED0A
BC41753E
BE567705
BE865614
BE906CA8
BE1BC431
BD78EB16
BDAC49C4
BE86336A
BE978411
BDE68180
3D36E158
3E0584A5
BE60877D
BE374E58
3CB3E6C3
3E589D25
3DBC808A
3DF0D6DD
3B75E9C3
3DFB5284
BD852FD4
3DEEA663
BDA33872
3B191E69
BD9BB02B
3DB4E42A
3C1F6E5E
3D993FC5
3D8F99D4
3D96C6E6
3D82C995
BD130482
BD6CF799
3CDEBB25
BCA47419
3DA43F7A
3D7B439A
3C8BBA96
BDB86B3A
BB7C41DE
3DC7E83A
3C757DC4
BDE22B16
BDE21194
3A9F29CF
BD13E60A
3DB8887F
BD5388B3
BE2DF40A
BD56A83D
BDA523AB
3D43A21D
BE3E6949
BE5D5FB4
BD3E0538
BD68765F
3D01BFA0
BE18E0D2
BE26076B
BDACC3E9
BD8CD14F
3DB4F592
3DF6C70B
3CBC54D9
3BA89C37
3DC8869E
3DC70883
3D88E106
BAD0ED55
3DD7268F
3D0E24A9
3BEC0C3A
3DAFFF40
3DF055E3
3D9BB5F6
3CF9015B
BCF24BC5
3DBCA030
3DE9B84C
3D98ADCD
3A282AA1
BD9B328D
3CABE071
BCCFCCCC
BD1581F5
BD61A1DB
BD62101B
3CC16389
3D84AD03
BDB79F7F
BDA94EEB
BA56D677
BDE83C54
BD5019A5
BDA612EF
3D180E34
BCFD8372
BE116D8E
BE30380B
BDC056CF
BD08B198
BDCE86AF
BE505A56
BE2F9743
BDD8F6F9
BD071C00
BDEF01E9
BE757145
BE0B8F8B
BE07AF5C
BD988FDC
3D8EDE7A
BD049938
BD0E87EC
3DEF71B6
3E1FA00D
3D34BA42
3D4C262F
BCCFF8F9
BC1D3A56
3CBBE6DB
BC7DF11D
BDD4DF14
3D83A3E8
3D113A17
3D2C4D68
BD1A08FF
BDF6129D
BD115167
3D194A97
3C7B03F1
BC42502F
BC8F5531
3CE6C378
3DA184B0
3CB27730
3DD33119
BD6034A1
3CBF91FB
3CE60BC7
3E02CBA1
3D7C0E37
3DD468A8
3CB77DAA
B9488314
BDDCEE73
BB22E703
3E429873
3C498CA4
BDA91CDC
BDB529DE
BD90A8D0
3E147EE0
3D5A103D
BCC8C7E2
BD493DFB
3B67EABC
3E1EC5E0
3D90B3D9
3D9FA271
BDA49138
3CBA7DC0
3DE490FB
3DAB3A91
3D91D368
BCCDDECB
3D747761
3DD95D49
3CDBF239
BBE4F612
3D915785
3B8F3905
3DC2C0D3
BD99F9EC
3CBBE838
BDDC036F
BCAFCAF7
BC9C2213
3D2F6027
BD329A11
BD3B5593
3C7D442B
3C815346
3D6FA80B
BDC31CED
BD2A1E69
BAD33778
3C2B4E51
3C48EA03
3C099622
3D01B087
BDC702B1
BDAC6EB3
BD056FBA
3CDE02DB
3C26C3D7
BE1026C0
BE548884
BDA329A8
BD32E5B8
3DD2DEF4
BE367F48
BE875412
BE68E35C
BE18F65D
BC4CF7CC
BD1B6BA2
BE1E1E20
BDE38379
BD88A822
BD895CAD
BDE4D117
BDF81CA3
BD2255D2
BD342702
BD3478AD
BDC02E1F
3D048A90
BD8DEEB7
BD51AF7B
BBEB5299
BE03872B
3CBAF312
BC53988D
BD5F9B5B
3D52C4A3
BDAED1A6
3AF0F4BD
3D9CD107
BD04E83D
BD4F687A
BD942C13
BBAEC0E6
BC8D8B7B
BD926251
BD972785
BC86848A
3C1C5682
BC6C3143
BD81761C
BDC77AC5
BD4E438D
BDD44268
BCB3EEF5
BE083FB0
BDFE33F6
BE340A8E
BE5784E6
BDCBAC4B
BDA4C179
BCB4DF5A
BE03EC54
BE590A17
BE4AFBBD
BE18FFB3
BDCF21F0
3BCC7B88
BA835884
3CD93AFF
3C4BD9FE
BD2BEAFD
3D9389A4
3DB67297
3DF61FA1
3E0CF4EA
3DA00DC5
3BC6B5C0
BD33DADB
BD2DB348
3DD75C7E
3D027496
BD233AA5
BDD6EF6A
3DAA6E9F
3D61DE18
3D4C60B3
BCE235C3
BCA2521D
BD37F776
BC74B123
3DD468AA
BDA8DB37
BD3EAF1F
BC8794EA
BC2EB493
3B47F6A4
3DA0E958
3DB8001C
BC74B44D
3D4CAAFF
3C086532
BDF29156
3D8C8C55
3C3355B1
3E02AF45
3D8F09B2
BD73DB4E
3DC1AC59
3DC4E119
3DADD76F
3D8BF21E
BDAC1EDC
3E24BA9E
3D054FF0
3DE0880B
BD6B5905
BDC385FC
BCCE0E6B
3C95533A
3DC034FB
BD37D353
BD9E068D
BD086C84
38B81334
BD394BA6
BC6EEF1F
3E36CD60
3DD65184
3D76F392
3D309194
BD5999D0
3E2EB723
3E551210
3DD5D35F
39AF94EB
3C0A976F
3D7F2859
3E2E571C
3D7D11EE
3C1159F6
3B9DB9C5
3DEF95BC
3D6FE829
3D138536
3C8A10CD
3B8BFF60
3D49E7A1
3D993FE1
3D4D476A
3CB8BB48
3DB0ECF4
BD343586
BDC2FD81
BDDEB0D0
BDC7871B
BD764CD6
BDC876E3
BD828DC7
BDFF71CA
BDC63AB8
3CC4D126
3D635B35
3DB7F15C
BD9D9920
3D2EE555
BC245336
3D114BFB
3D9FFED6
BD8BBCEC
3D5A950D
3D8FC3AC
BD2DB3C2
3CFB535B
BD6F50F5
BD1ACF5D
3D418AA4
3CE37276
BD53750E
3DB3A741
3CF3742D
3AC8F59F
3D311069
BC5F8734
3E045D90
3D7F2755
BC58BFFB
BCC61F80
BD40860E
3D43A986
BD9F2672
BCD74E8D
3D482799
3D593C15
BD08E555
BCA6FAA0
BAF4EF29
3DC6AD84
3D8BAC52
3DBF0827
3D78BFF7
3D878532
3D596CA0
BC107291
BD8CB4D9
BD8E4DD3
BD5AD74D
BE3EC31F
BE92F7F5
BE4D3FDF
BDC7FB69
BDE4A3E5
BD6D0633
BD90DFA3
3E3DEFBD
3D0E43DF
3E05B5D9
3D49A3AC
3E01CD56
3B4CDB00
3E51824F
3E2C51E0
BD8A850F
3C7CEBD9
BE6FC2C6
39FC2BF4
3D3EFB34
BD362008
BC8DA809
BC40ACD3
BD9BFC94
BC15C747
3DAF8A62
BDDA462A
389AD205
BB98C969
3DA5A043
BE1DBA30
BD9680A8
BDE71B53
3D2A732D
BE14C6C4
3CBB9CEC
3DA8402B
BDA08AA6
3E266291
BCBE56D9
BD61C5A9
3D00C6E6
3DE155E3
3E171141
3E0B8CA8
BBCDE831
3D7C1A4B
BC877204
3CAB8496
BE01932C
3DF47AD8
BDB77C61
3C80FF6C
3D5B1406
BDD2DA86
BB9A34A1
BD0E542C
3DCB9AA6
BD11D46F
3D19E541
BD3C1E5E
BDA7B859
38A87EA1
BD4EE6B0
3AB050C1
3E022B63
3E08632C
BD16464F
3E6A2947
BCBFA5EE
BD1C8C77
BDFC7E60
BDD4F9BF
BC0E3685
3D0E04AE
BE13BC93
BE1511D9
BE026CF4
BC87F144
3D68285F
BDE19430
BC836F1F
BE062398
BD1ACAAE
3D850216
BDF3C2AA
BE00870B
BDD20D83
BD833B00
BD6E0C84
BDC25A9C
BDD584E6
3D770070
3D148C9B
BCBD8800

